{
  "version": "1.0",
  "truncation": null,
  "padding": null,
  "added_tokens": [
    {
      "id": 0,
      "content": "<PAD>",
      "single_word": false,
      "lstrip": false,
      "rstrip": false,
      "normalized": false,
      "special": true
    },
    {
      "id": 1,
      "content": "<UNK>",
      "single_word": false,
      "lstrip": false,
      "rstrip": false,
      "normalized": false,
      "special": true
    },
    {
      "id": 2,
      "content": "<BOS>",
      "single_word": false,
      "lstrip": false,
      "rstrip": false,
      "normalized": false,
      "special": true
    },
    {
      "id": 3,
      "content": "<EOS>",
      "single_word": false,
      "lstrip": false,
      "rstrip": false,
      "normalized": false,
      "special": true
    },
    {
      "id": 4,
      "content": "<DOC>",
      "single_word": false,
      "lstrip": false,
      "rstrip": false,
      "normalized": false,
      "special": true
    },
    {
      "id": 5,
      "content": "<SYSTEM>",
      "single_word": false,
      "lstrip": false,
      "rstrip": false,
      "normalized": false,
      "special": true
    },
    {
      "id": 6,
      "content": "<USER>",
      "single_word": false,
      "lstrip": false,
      "rstrip": false,
      "normalized": false,
      "special": true
    },
    {
      "id": 7,
      "content": "<ASSISTANT>",
      "single_word": false,
      "lstrip": false,
      "rstrip": false,
      "normalized": false,
      "special": true
    },
    {
      "id": 8,
      "content": "<TOOL>",
      "single_word": false,
      "lstrip": false,
      "rstrip": false,
      "normalized": false,
      "special": true
    },
    {
      "id": 9,
      "content": "<CONTEXT>",
      "single_word": false,
      "lstrip": false,
      "rstrip": false,
      "normalized": false,
      "special": true
    },
    {
      "id": 10,
      "content": "<MEMORY>",
      "single_word": false,
      "lstrip": false,
      "rstrip": false,
      "normalized": false,
      "special": true
    }
  ],
  "normalizer": {
    "type": "NFKC"
  },
  "pre_tokenizer": {
    "type": "ByteLevel",
    "add_prefix_space": false,
    "trim_offsets": true,
    "use_regex": true
  },
  "post_processor": null,
  "decoder": {
    "type": "ByteLevel",
    "add_prefix_space": true,
    "trim_offsets": true,
    "use_regex": true
  },
  "model": {
    "type": "BPE",
    "dropout": null,
    "unk_token": "<UNK>",
    "continuing_subword_prefix": null,
    "end_of_word_suffix": null,
    "fuse_unk": false,
    "byte_fallback": false,
    "ignore_merges": false,
    "vocab": {
      "<PAD>": 0,
      "<UNK>": 1,
      "<BOS>": 2,
      "<EOS>": 3,
      "<DOC>": 4,
      "<SYSTEM>": 5,
      "<USER>": 6,
      "<ASSISTANT>": 7,
      "<TOOL>": 8,
      "<CONTEXT>": 9,
      "<MEMORY>": 10,
      "!": 11,
      "\"": 12,
      "#": 13,
      "$": 14,
      "%": 15,
      "&": 16,
      "'": 17,
      "(": 18,
      ")": 19,
      "*": 20,
      "+": 21,
      ",": 22,
      "-": 23,
      ".": 24,
      "/": 25,
      "0": 26,
      "1": 27,
      "2": 28,
      "3": 29,
      "4": 30,
      "5": 31,
      "6": 32,
      "7": 33,
      "8": 34,
      "9": 35,
      ":": 36,
      ";": 37,
      "<": 38,
      "=": 39,
      ">": 40,
      "?": 41,
      "@": 42,
      "A": 43,
      "B": 44,
      "C": 45,
      "D": 46,
      "E": 47,
      "F": 48,
      "G": 49,
      "H": 50,
      "I": 51,
      "J": 52,
      "K": 53,
      "L": 54,
      "M": 55,
      "N": 56,
      "O": 57,
      "P": 58,
      "Q": 59,
      "R": 60,
      "S": 61,
      "T": 62,
      "U": 63,
      "V": 64,
      "W": 65,
      "X": 66,
      "Y": 67,
      "Z": 68,
      "[": 69,
      "\\": 70,
      "]": 71,
      "^": 72,
      "_": 73,
      "`": 74,
      "a": 75,
      "b": 76,
      "c": 77,
      "d": 78,
      "e": 79,
      "f": 80,
      "g": 81,
      "h": 82,
      "i": 83,
      "j": 84,
      "k": 85,
      "l": 86,
      "m": 87,
      "n": 88,
      "o": 89,
      "p": 90,
      "q": 91,
      "r": 92,
      "s": 93,
      "t": 94,
      "u": 95,
      "v": 96,
      "w": 97,
      "x": 98,
      "y": 99,
      "z": 100,
      "{": 101,
      "|": 102,
      "}": 103,
      "~": 104,
      "¡": 105,
      "¢": 106,
      "£": 107,
      "¤": 108,
      "¥": 109,
      "¦": 110,
      "§": 111,
      "¨": 112,
      "©": 113,
      "ª": 114,
      "«": 115,
      "¬": 116,
      "®": 117,
      "¯": 118,
      "°": 119,
      "±": 120,
      "²": 121,
      "³": 122,
      "´": 123,
      "µ": 124,
      "¶": 125,
      "·": 126,
      "¸": 127,
      "¹": 128,
      "º": 129,
      "»": 130,
      "¼": 131,
      "½": 132,
      "¾": 133,
      "¿": 134,
      "Â": 135,
      "Ã": 136,
      "Ä": 137,
      "Å": 138,
      "É": 139,
      "Ê": 140,
      "Ë": 141,
      "Ì": 142,
      "Í": 143,
      "Î": 144,
      "Ï": 145,
      "Ð": 146,
      "Ñ": 147,
      "Ó": 148,
      "Ø": 149,
      "Ù": 150,
      "Ú": 151,
      "Û": 152,
      "à": 153,
      "á": 154,
      "â": 155,
      "å": 156,
      "ç": 157,
      "è": 158,
      "é": 159,
      "ê": 160,
      "î": 161,
      "ï": 162,
      "ð": 163,
      "Ċ": 164,
      "Ġ": 165,
      "Ģ": 166,
      "ģ": 167,
      "Ĥ": 168,
      "ĥ": 169,
      "Ħ": 170,
      "ħ": 171,
      "Ĩ": 172,
      "ĩ": 173,
      "Ī": 174,
      "ī": 175,
      "Ĭ": 176,
      "ĭ": 177,
      "Į": 178,
      "į": 179,
      "İ": 180,
      "ı": 181,
      "Ĳ": 182,
      "ĳ": 183,
      "Ĵ": 184,
      "ĵ": 185,
      "Ķ": 186,
      "ķ": 187,
      "ĸ": 188,
      "Ĺ": 189,
      "ĺ": 190,
      "Ļ": 191,
      "ļ": 192,
      "Ľ": 193,
      "ľ": 194,
      "Ŀ": 195,
      "ŀ": 196,
      "Ł": 197,
      "ł": 198,
      "Ń": 199,
      "à¤": 200,
      "à¥": 201,
      "à¦": 202,
      "Ġà¤": 203,
      "Ġà": 204,
      "á±": 205,
      "ê¯": 206,
      "à¤¾": 207,
      "à²": 208,
      "à°": 209,
      "à´": 210,
      "à®": 211,
      "àª": 212,
      "à¬": 213,
      "à¨": 214,
      "à¥į": 215,
      "à§": 216,
      "ĠØ": 217,
      "à¤°": 218,
      "à¥ĩ": 219,
      "Ġà¦": 220,
      "à¤¿": 221,
      "Ø§": 222,
      "à¤¨": 223,
      "à¯": 224,
      "ÙĨ": 225,
      "àµ": 226,
      "àŃ": 227,
      "à¤¤": 228,
      "à±": 229,
      "à³": 230,
      "ÙĪ": 231,
      "Ġà¨": 232,
      "à¥Ģ": 233,
      "à«": 234,
      "à¤¯": 235,
      "ÛĮ": 236,
      "Ø±": 237,
      "à©": 238,
      "Ġá±": 239,
      "à¥ĭ": 240,
      "à¤ķ": 241,
      "à¤²": 242,
      "ĠÙ": 243,
      "ĠÚ": 244,
      "Ġàª": 245,
      "à¤Ĥ": 246,
      "à¦¾": 247,
      "Ġê¯": 248,
      "ÙĬ": 249,
      "à¯į": 250,
      "àµį": 251,
      "DO": 252,
      "DOC": 253,
      "OS": 254,
      "EOS": 255,
      "à¤¸": 256,
      "à¤®": 257,
      "Ġà¤ķ": 258,
      "Ġt": 259,
      "á±Ł": 260,
      "Ġà¬": 261,
      "Ġà°": 262,
      "à¤µ": 263,
      "Ġà²": 264,
      "Ûģ": 265,
      "he": 266,
      "à§ĩ": 267,
      "à§į": 268,
      "à¥ģ": 269,
      "Ġà¤¸": 270,
      "à¤¹": 271,
      "à¦¿": 272,
      "Ġà®": 273,
      "ê¯¤": 274,
      "ÙĦ": 275,
      "à¤¦": 276,
      "àª¾": 277,
      "Ġa": 278,
      "à¥¤": 279,
      "Ġà´": 280,
      "âĢ": 281,
      "á±Łá±": 282,
      "ĠÚ©": 283,
      "Ùħ": 284,
      "ĠØ§": 285,
      "à³į": 286,
      "à±į": 287,
      "Ùİ": 288,
      "Ġà¤®": 289,
      "Ø³": 290,
      "Øª": 291,
      "Ġà¤ª": 292,
      "à¤ª": 293,
      "Ú¾": 294,
      "à¦°": 295,
      "à§°": 296,
      "àŃį": 297,
      "à¨¾": 298,
      "Ġs": 299,
      "à¬¾": 300,
      "à²¿": 301,
      "à¦¨": 302,
      "à¬°": 303,
      "ĠÙħ": 304,
      "à¤Ĺ": 305,
      "Ø¯": 306,
      "in": 307,
      "à´¿": 308,
      "á±ļ": 309,
      "à°¿": 310,
      "à¤ļ": 311,
      "ÛĴ": 312,
      "à¥Ī": 313,
      "à¦¤": 314,
      "à¯ģ": 315,
      "à®¿": 316,
      "Ġà¤¹": 317,
      "Ġà¤¬": 318,
      "à°¾": 319,
      "ÙĲ": 320,
      "à¤ľ": 321,
      "à«ĩ": 322,
      "Ġw": 323,
      "Ġthe": 324,
      "à®ķ": 325,
      "à¬¿": 326,
      "á±®": 327,
      "Ġà¤¦": 328,
      "Ú©": 329,
      "ê¯¥": 330,
      "à±ģ": 331,
      "à¦¯": 332,
      "Ġà¤Ĩ": 333,
      "àª°": 334,
      "à®¤": 335,
      "Ġà¤ľ": 336,
      "Ġà¤¨": 337,
      "nd": 338,
      "à¦ķ": 339,
      "à²°": 340,
      "à¤¬": 341,
      "Ø§ÙĨ": 342,
      "Ġà¤ħ": 343,
      "Ġb": 344,
      "à¤Ł": 345,
      "à¤£": 346,
      "á±ļá±": 347,
      "Ġà¤¤": 348,
      "à¨°": 349,
      "ĠØ¬": 350,
      "ed": 351,
      "à´¨": 352,
      "à²¾": 353,
      "à³ģ": 354,
      "à°°": 355,
      "à¦²": 356,
      "à°¨": 357,
      "ĠØ³": 358,
      "on": 359,
      "ha": 360,
      "Ùĩ": 361,
      "à©Ģ": 362,
      "Ġk": 363,
      "Ġà¤µ": 364,
      "à¥Ĥ": 365,
      "Ø§Ø": 366,
      "àµģ": 367,
      "à²¦": 368,
      "á±¤": 369,
      "re": 370,
      "Ġà¤Ĺ": 371,
      "à´ķ": 372,
      "à«į": 373,
      "à«Ģ": 374,
      "à°Ĥ": 375,
      "àª¨": 376,
      "ĠØª": 377,
      "ĥê¯": 378,
      "à¤¶": 379,
      "à¤¾à¤Ĥ": 380,
      "à¨¿": 381,
      "à©ĩ": 382,
      "à´¤": 383,
      "à¦¼": 384,
      "à¤¡": 385,
      "á±®á±": 386,
      "à´¾": 387,
      "Ġà¤°": 388,
      "à®°": 389,
      "er": 390,
      "à³Ĩ": 391,
      "à°²": 392,
      "à¤¥": 393,
      "it": 394,
      "ĠÙ¾": 395,
      "à¦¬": 396,
      "à®Ł": 397,
      "à¤§": 398,
      "Ġto": 399,
      "à¤·": 400,
      "an": 401,
      "àŃĩ": 402,
      "à§ģ": 403,
      "à¦®": 404,
      "à®¾": 405,
      "à¤ĸ": 406,
      "ĠØ¨": 407,
      "ê¯¡": 408,
      "Ø¨": 409,
      "à¥Ĵ": 410,
      "Ġp": 411,
      "Ġê¯ĳ": 412,
      "Ġf": 413,
      "Ġà¤²": 414,
      "Ġand": 415,
      "à²²": 416,
      "à´°": 417,
      "à´¯": 418,
      "ĠÚĨ": 419,
      "á±¤á±": 420,
      "Ø§Ø±": 421,
      "à²¨": 422,
      "ĠÙĪ": 423,
      "Ġl": 424,
      "ĠÛģ": 425,
      "àŃģ": 426,
      "Ġà¦ķ": 427,
      "Ùı": 428,
      "Ġc": 429,
      "à«ĭ": 430,
      "à²¤": 431,
      "ing": 432,
      "à¬¨": 433,
      "Ġd": 434,
      "à²Ĺ": 435,
      "ar": 436,
      "Ùķ": 437,
      "Úº": 438,
      "à®®": 439,
      "en": 440,
      "ou": 441,
      "as": 442,
      "à®²": 443,
      "àªĤ": 444,
      "ê¯¨": 445,
      "à´Ł": 446,
      "Ø²": 447,
      "à§ĭ": 448,
      "Ġê¯ĳê¯": 449,
      "Ġà¦ª": 450,
      "is": 451,
      "à°ķ": 452,
      "or": 453,
      "Ġà¤Ń": 454,
      "à®©": 455,
      "à®ª": 456,
      "Ġà¦¬": 457,
      "à¬¬": 458,
      "Ġà¦¸": 459,
      "Ġm": 460,
      "ĠÙĨ": 461,
      "Ġê¯ĥê¯": 462,
      "ÛĶ": 463,
      "ĠØ¢": 464,
      "âĢį": 465,
      "ê¯ħ": 466,
      "àª®": 467,
      "à¥ĩà¤Ĥ": 468,
      "à¤Ń": 469,
      "à¨Ĥ": 470,
      "at": 471,
      "à²µ": 472,
      "Ġ(": 473,
      "à§Ģ": 474,
      "ÙĪØ±": 475,
      "àªµ": 476,
      "Ġà¥¤": 477,
      "à¤ı": 478,
      "à°¤": 479,
      "à²ķ": 480,
      "à¥ĳ": 481,
      "à¦¸": 482,
      "à²Ĥ": 483,
      "Ġà¤ļ": 484,
      "à´²": 485,
      "à¨¸": 486,
      "àª¤": 487,
      "ĠÚĨÚ¾": 488,
      "Ġo": 489,
      "à²¯": 490,
      "à¯Ī": 491,
      "à¨²": 492,
      "ĠÛ": 493,
      "ê¯ķ": 494,
      "ÙĽ": 495,
      "à¨¤": 496,
      "àµĨ": 497,
      "à®³": 498,
      "à¨¨": 499,
      "Ġà¤¯": 500,
      "ÙĤ": 501,
      "Ú¯": 502,
      "Ġha": 503,
      "à¦¦": 504,
      "à¬¤": 505,
      "Ø´": 506,
      "à¦Ł": 507,
      "à®¯": 508,
      "Ø¬": 509,
      "Ġà¨¸": 510,
      "Ġà¤ī": 511,
      "Ġá±ł": 512,
      "Ø¹": 513,
      "ê¯£": 514,
      "âĢĮ": 515,
      "à®±": 516,
      "à´Ĥ": 517,
      "al": 518,
      "om": 519,
      "Ġhe": 520,
      "Ġà¤ķà¤°": 521,
      "à±ĭ": 522,
      "ØĮ": 523,
      "à©°": 524,
      "Ġn": 525,
      "Ġà¨¦": 526,
      "à¤Ī": 527,
      "Úª": 528,
      "àª¿": 529,
      "à°¦": 530,
      "id": 531,
      "ĠÛĮ": 532,
      "àª¯": 533,
      "á±©": 534,
      "à¬ķ": 535,
      "Ġà¨ķ": 536,
      "ĠÚª": 537,
      "àªķ": 538,
      "Ùģ": 539,
      "à±ĩ": 540,
      "ĠT": 541,
      "à¦ª": 542,
      "à°Ł": 543,
      "Ġka": 544,
      "ay": 545,
      "il": 546,
      "Ġwas": 547,
      "à®µ": 548,
      "ĠØ±": 549,
      "ÛĮÚº": 550,
      "Ġà¤ı": 551,
      "à©±": 552,
      "ê¯¦": 553,
      "àµįâĢį": 554,
      "àŃ¦": 555,
      "à¨ķ": 556,
      "à°¯": 557,
      "es": 558,
      "ê¯Ĵ": 559,
      "ĠØ¯": 560,
      "à¤«": 561,
      "Ø§ÙĦ": 562,
      "Ġà¤¶": 563,
      "Ġà¦Ĩ": 564,
      "Ù¹": 565,
      "Ġin": 566,
      "ĠØ¬ÙĬ": 567,
      "ê¯Ķ": 568,
      "à¥Į": 569,
      "ĠS": 570,
      "Ġh": 571,
      "ÙĨØ¯": 572,
      "à¤ģ": 573,
      "á±·": 574,
      "ê¯ģ": 575,
      "à©ĭ": 576,
      "à²¸": 577,
      "Ù²": 578,
      "Ġá±¨": 579,
      "..": 580,
      "ĠÙĦ": 581,
      "âĢĻ": 582,
      "á±©á±": 583,
      "à¬²": 584,
      "à´±": 585,
      "ê¯Ĥ": 586,
      "ê¯Ł": 587,
      "ê¯©": 588,
      "Ġàªķ": 589,
      "Ù¾": 590,
      "à¦ĩ": 591,
      "à°¸": 592,
      "à¦ľ": 593,
      "Ø§Ùħ": 594,
      "Ġà¥": 595,
      "ĠÚ¯": 596,
      "à¥ĭà¤Ĥ": 597,
      "à¦Ľ": 598,
      "à´®": 599,
      "Ġ1": 600,
      "Ġà¨¹": 601,
      "à¨¹": 602,
      "àª²": 603,
      "à°¡": 604,
      "Ġg": 605,
      "à«ģ": 606,
      "Ġà¤ĩ": 607,
      "à¦Ĺ": 608,
      "à´ª": 609,
      "Ġà¤ĸ": 610,
      "Ġof": 611,
      "im": 612,
      "Ġu": 613,
      "Ġà¦®": 614,
      "à²³": 615,
      "à°ª": 616,
      "ê¯Ŀ": 617,
      "ê¯Ĺ": 618,
      "Ġà¨µ": 619,
      "Ø§Ø¦": 620,
      "à¨¦": 621,
      "Ġ2": 622,
      "Ø¦": 623,
      "Ġsa": 624,
      "à¬®": 625,
      "ĠØ´": 626,
      "le": 627,
      "à¦¹": 628,
      "Ġà¦¹": 629,
      "à¤ĥ": 630,
      "à¦·": 631,
      "ê¯Ľ": 632,
      "à²¡": 633,
      "Ġà¨¨": 634,
      "àª¸": 635,
      "Ġá±Ł": 636,
      "à´³": 637,
      "Ġàªª": 638,
      "á±¨": 639,
      "ê¯Ħ": 640,
      "à±Ģ": 641,
      "à°µ": 642,
      "ĠÚ©ÛĮ": 643,
      "à´µ": 644,
      "Ġà¦ı": 645,
      "Ġà¤Ľ": 646,
      "Ġà¬ª": 647,
      "à°®": 648,
      "ÙĪÙĨ": 649,
      "à¬ª": 650,
      "Ġá±¥": 651,
      "ad": 652,
      "Ġà¤«": 653,
      "Ġà¦¨": 654,
      "à¤Ľ": 655,
      "à´£": 656,
      "á±Łá±¹": 657,
      "am": 658,
      "ic": 659,
      "Ġà¦¦": 660,
      "ĠÙĩ": 661,
      "à¦¶": 662,
      "à¤ĩ": 663,
      "á±Łá±ľ": 664,
      "á±Łá±±": 665,
      "ĠØ¹": 666,
      "Ġà®ª": 667,
      "ĠÚ©ÛĴ": 668,
      "Ġà¤ªà¤°": 669,
      "Ø³Øª": 670,
      "Øł": 671,
      "ĠâĢ": 672,
      "à¨®": 673,
      "à©Ī": 674,
      "àª¾àªĤ": 675,
      "Ġàª¸": 676,
      "à¨¼": 677,
      "à°Ĺ": 678,
      "à¤Ĩ": 679,
      "àŃŁ": 680,
      "à¤³": 681,
      "ØŃ": 682,
      "Ġá±«": 683,
      "à¥ĥ": 684,
      "à©ģ": 685,
      "Ú©Ú¾": 686,
      "Ġà®ķ": 687,
      "à¬Ł": 688,
      "Ġà°ª": 689,
      "ĠàŃ": 690,
      "ĠÙģ": 691,
      "Ġà¤¥": 692,
      "Ġà¬¸": 693,
      "et": 694,
      "Ġà²®": 695,
      "Ú»": 696,
      "Ġà¦ħ": 697,
      "ĠThe": 698,
      "ir": 699,
      "àªŁ": 700,
      "Ø±ÛĮ": 701,
      "Ġj": 702,
      "à¤¼": 703,
      "ent": 704,
      "Ġà²¸": 705,
      "à¨Ĩ": 706,
      "à¨¾à¨Ĥ": 707,
      "à¤ł": 708,
      "ĠÛ¾": 709,
      "àµĭ": 710,
      "á±®á±±": 711,
      "Ġ\"": 712,
      "à©Ĥ": 713,
      "Ġà¨ª": 714,
      "Ġà§": 715,
      "Ġá±¢": 716,
      "à´ļ": 717,
      "à¤°à¤ķ": 718,
      "à±Ĩ": 719,
      "Ġà°ķ": 720,
      "Ġà´ª": 721,
      "Ġit": 722,
      "Ġà®®": 723,
      "ÙĩÙĬ": 724,
      "Ġà®µ": 725,
      "à¦ļ": 726,
      "à¬¶": 727,
      "ĠØŃ": 728,
      "ot": 729,
      "à¦§": 730,
      "ÚĨ": 731,
      "à®ķà®³": 732,
      "à°ļ": 733,
      "à´¸": 734,
      "Ġe": 735,
      "Ġê¯ĳê¯ĥê¯": 736,
      "ong": 737,
      "à¨µ": 738,
      "à¤°à¤¤": 739,
      "à³ĩ": 740,
      "à²®": 741,
      "Ġà¤¸à¤®": 742,
      "ĠM": 743,
      "Ġê¯Ĥ": 744,
      "Ø±ÙĬ": 745,
      "ver": 746,
      "à²Ł": 747,
      "ĠH": 748,
      "à¦¼à¦¾": 749,
      "el": 750,
      "ĠØ®": 751,
      "Ġà´ķ": 752,
      "Ġàª®": 753,
      "Ù½": 754,
      "Ġà¦¤": 755,
      "Ġà®¤": 756,
      "Ġê¯ĥê¯ģ": 757,
      "ĠI": 758,
      "à®ļ": 759,
      "ut": 760,
      "Ġá±¦": 761,
      "Ġê¯Ģ": 762,
      "Ġà²ķ": 763,
      "ê¯ĩ": 764,
      "à¬¸": 765,
      "ê¯¢": 766,
      "à¦£": 767,
      "à¨ľ": 768,
      "ion": 769,
      "hat": 770,
      "à¨ļ": 771,
      "Ġr": 772,
      "ÛĮØ§": 773,
      "Ġà°µ": 774,
      "àªª": 775,
      "Ġá±µ": 776,
      "Ġê¯ĳê¯ģ": 777,
      "ĠÙħÛĮÚº": 778,
      "à®¨": 779,
      "ia": 780,
      "à´Ļ": 781,
      "Ġà°¸": 782,
      "àŃĭ": 783,
      "Ġà¬ķ": 784,
      "à¬¹": 785,
      "Ġà¬¬": 786,
      "Øµ": 787,
      "à¦¼à§ĩ": 788,
      "ĠØ§ÙĨ": 789,
      "àµĩ": 790,
      "ac": 791,
      "Ġbe": 792,
      "à¯ĩ": 793,
      "ow": 794,
      "à®£": 795,
      "Ġà¬®": 796,
      "Ġà¨ľ": 797,
      "Ġki": 798,
      "à¦¥": 799,
      "Ġst": 800,
      "à§±": 801,
      "ÙĩÙĨ": 802,
      "Ø§Øª": 803,
      "ĠÛ½": 804,
      "Ġà¨ħ": 805,
      "ĠàªĨ": 806,
      "Ġà¨®": 807,
      "Ùĸ": 808,
      "Ġon": 809,
      "Ġà¦ľ": 810,
      "à¦¡": 811,
      "à¤µà¤°": 812,
      "àŃĢ": 813,
      "à¨£": 814,
      "ĠàªĽ": 815,
      "Ġà°ħ": 816,
      "Ġàªµ": 817,
      "ê¯«": 818,
      "ĠØ¬ÙĪ": 819,
      "Ġê¯Ĩ": 820,
      "ĠØ§Ø³": 821,
      "Ġà®ħ": 822,
      "á±Łá±¹á±": 823,
      "Ġà¤ıà¤ķ": 824,
      "Ġà¤ħà¤¸": 825,
      "Ġá±Łá±": 826,
      "Ġàªľ": 827,
      "ê¯ı": 828,
      "ig": 829,
      "àª£": 830,
      "àª¹": 831,
      "Ġsaid": 832,
      "Ġà¤Ĩà¤¹": 833,
      "à¨Ĺ": 834,
      "Ġàªħ": 835,
      "àµģà´Ĥ": 836,
      "á±ļá±±": 837,
      "ve": 838,
      "à¤°à¤®": 839,
      "Ġàª¤": 840,
      "Ġà®ļ": 841,
      "st": 842,
      "àª¦": 843,
      "à¦Ĥ": 844,
      "à¨Ł": 845,
      "ĠÚ©Ø±": 846,
      "ĠB": 847,
      "ê¯Ģ": 848,
      "à¥ĩ.": 849,
      "ÙĬÙĨ": 850,
      "Ġà¤ĺ": 851,
      "Ø§Ø¯": 852,
      "ĠA": 853,
      "àªĹ": 854,
      "ĠÙĤ": 855,
      "Ġre": 856,
      "àªľ": 857,
      "à¯Ĩ": 858,
      "Ø®": 859,
      "ie": 860,
      "ĠØ§ÙĪØ±": 861,
      "ÙĬÙĪ": 862,
      "Ġà´¸": 863,
      "à¦ĸ": 864,
      "Ġà°®": 865,
      "Ġher": 866,
      "á±Łá±¨": 867,
      "à²ª": 868,
      "à¤ķà¤°": 869,
      "ĠØªÛģ": 870,
      "Ġà¨ĩ": 871,
      "ÛĮÙĨ": 872,
      "à¤¤à¤°": 873,
      "ur": 874,
      "Ġà¨¤": 875,
      "ld": 876,
      "àª¡": 877,
      "à¦Ń": 878,
      "Ġá±¯": 879,
      "Ġá±Ľ": 880,
      "Ġà®ĩ": 881,
      "ĠÛģÛĴ": 882,
      "àŃ¦àŃ": 883,
      "Ġà²ª": 884,
      "pp": 885,
      "à³Ĥ": 886,
      "Ø§Ø¨": 887,
      "ly": 888,
      "Ġà²¨": 889,
      "Ġá±¾": 890,
      "Ġê¯į": 891,
      "ÛĦ": 892,
      "à¬¡": 893,
      "Ġà²ħ": 894,
      "ĠØ²": 895,
      "Ġà´µ": 896,
      "Ø§Ú©": 897,
      "yn": 898,
      "ith": 899,
      "Ġà°ļ": 900,
      "à¨ª": 901,
      "ÙĪÚº": 902,
      "ĠÙ¿": 903,
      "ÚĪ": 904,
      "ak": 905,
      "un": 906,
      "à¤ī": 907,
      "Ġá±¡": 908,
      "Ġ20": 909,
      "Ġà¤Ĺà¤°": 910,
      "à§Ī": 911,
      "Ġà¬ı": 912,
      "Ġà¦¶": 913,
      "à°¿à°Ĥ": 914,
      "Ġthat": 915,
      "Ġà²¹": 916,
      "à¬ĩ": 917,
      "Ġwith": 918,
      "á±±": 919,
      "à¤¿à¤Ĥ": 920,
      "àª¥": 921,
      "Ġà¦ķà§°": 922,
      "Ġà¦¯": 923,
      "ĠØ³ÛĴ": 924,
      "Ġàª°": 925,
      "ĠO": 926,
      "Ġfor": 927,
      "Ġla": 928,
      "Ġá±«á±ļ": 929,
      "à¦ĵ": 930,
      "Ġàª¹": 931,
      "ÙĪÙĦ": 932,
      "à¤ªà¤¨": 933,
      "à³Ĭ": 934,
      "ĠÙ¾Ø±": 935,
      "à²Ĺà²³": 936,
      "Ġà¦ļ": 937,
      "Ġà¬°": 938,
      "ĠC": 939,
      "ll": 940,
      "Ġà´®": 941,
      "à³Ģ": 942,
      "à¬Ĺ": 943,
      "à¬¦": 944,
      "à¨¬": 945,
      "Ġà¨¬": 946,
      "Ġá±ľ": 947,
      "Ġà®¨": 948,
      "ÙĶ": 949,
      "Ġfr": 950,
      "Ġê¯ĳê¯ĥê¯ħ": 951,
      "ĠÚ©ÙĪ": 952,
      "Ġá±ŀ": 953,
      "Ġà²¬": 954,
      "ec": 955,
      "Ø·": 956,
      "Ġá±¨á±®": 957,
      "ê¯¤ê¯«": 958,
      "à±Ĥ": 959,
      "à¤¢": 960,
      "Ġê¯«": 961,
      "oo": 962,
      "ĠL": 963,
      "àª¶": 964,
      "Ġê¯ģ": 965,
      "Ġth": 966,
      "à©į": 967,
      "Ġà¦Ĺ": 968,
      "à¬³": 969,
      "Ġà´¨": 970,
      "à³ĭ": 971,
      "Ġy": 972,
      "à¯ĭ": 973,
      "Ġà¨²": 974,
      "ê¯Į": 975,
      "ĠØ¢ÙĩÙĬ": 976,
      "á±®á±±á±Łá±ľ": 977,
      "ĠØ§ÛĮ": 978,
      "Ġà¤ħà¤¨": 979,
      "Ġà´ħ": 980,
      "ĠØµ": 981,
      "à¤°à¤¸": 982,
      "ĠHe": 983,
      "Ġà°¤": 984,
      "ÙĦÙħ": 985,
      "Ġà¦ķà¦°": 986,
      "à¥ģà¤Ĥ": 987,
      "à²¬": 988,
      "Ġà¦²": 989,
      "à¤¯à¤ķ": 990,
      "á±ļá±¨": 991,
      "à¤¹à¤°": 992,
      "Ġhis": 993,
      "§à¥": 994,
      "à«ĩ.": 995,
      "àŃ§": 996,
      "ĠÚ©Ø§": 997,
      "ØªÚ¾": 998,
      "Ġà°¨": 999,
      "à¨¡": 1000,
      "ĠShe": 1001,
      "Ġá±±": 1002,
      "Ġso": 1003,
      "Ġhad": 1004,
      "Ġà²µ": 1005,
      "âĢĿ": 1006,
      "à¨Ī": 1007,
      "ce": 1008,
      "à¯Ĭ": 1009,
      "ter": 1010,
      "à²£": 1011,
      "àª§": 1012,
      "ĠOn": 1013,
      "à¨¿à©±": 1014,
      "à¬£": 1015,
      "Ġàªķàª°": 1016,
      "Ġàª¨": 1017,
      "Ġà¤°à¤¹": 1018,
      "ba": 1019,
      "Ġà¤ĵ": 1020,
      "ê¯°": 1021,
      "Ġà¤¡": 1022,
      "ĠÚ©Ûģ": 1023,
      "ê¯ĥê¯": 1024,
      "à®Ļ": 1025,
      "ĠP": 1026,
      "Ġàª¬": 1027,
      "ê¯ł": 1028,
      "ted": 1029,
      "à¤ªà¤°": 1030,
      "Ġday": 1031,
      "Ġshe": 1032,
      "Ġà¤§": 1033,
      "àµĢ": 1034,
      "ê¯§": 1035,
      "Ġê¯ĥ": 1036,
      "Ġê¯ħ": 1037,
      "Ġsh": 1038,
      "ked": 1039,
      "Ġà¤Ł": 1040,
      "ĠÚ©ÙĬ": 1041,
      "à¤Ļ": 1042,
      "Ġà¬¦": 1043,
      "ang": 1044,
      "à±Ī": 1045,
      "her": 1046,
      "Ġas": 1047,
      "ê¯Ń": 1048,
      "à¤¯à¤¨": 1049,
      "ÚĻ": 1050,
      "à¤¾,": 1051,
      "um": 1052,
      "à§ĩà¥¤": 1053,
      "ÙĨØ¯ÙĪ": 1054,
      "à¤ħ": 1055,
      "ĠØ·": 1056,
      "à«ģàªĤ": 1057,
      "Ġia": 1058,
      "Ø±Ø§ÙĨ": 1059,
      "Ġpl": 1060,
      "Ġà¤Ĳ": 1061,
      "Ġà¦Ń": 1062,
      "à±ģ.": 1063,
      "ÙĹ": 1064,
      "Ġà¨°": 1065,
      "ill": 1066,
      "á±Łá±Ń": 1067,
      "à¤ĺ": 1068,
      "á±ł": 1069,
      "Ġà¦ī": 1070,
      "à¤¨à¤ķ": 1071,
      "Ú¾ÛĮ": 1072,
      "ê¯ľ": 1073,
      "à´¦": 1074,
      "à¥Īà¤Ĥ": 1075,
      "à¯į.": 1076,
      "à©Ĥà©°": 1077,
      "Ġ'": 1078,
      "Ġà¤®à¤¹": 1079,
      "ÙĦÛĮ": 1080,
      "à³Ĩ.": 1081,
      "à´·": 1082,
      "...": 1083,
      "à°¿.": 1084,
      "á±Ĳ": 1085,
      "Ġá±®": 1086,
      "ro": 1087,
      "à²·": 1088,
      "Ġê¯Ħ": 1089,
      "à¤ıà¤ķ": 1090,
      "à¬·": 1091,
      "Ġà°°": 1092,
      "á±Ľ": 1093,
      "Ġ-": 1094,
      "Ġà®İ": 1095,
      "Ġup": 1096,
      "Ø¸": 1097,
      "à¥¦": 1098,
      "Ø¡": 1099,
      "á±½": 1100,
      "à²¹": 1101,
      "à®´": 1102,
      "ĠÛģÙĪ": 1103,
      "ra": 1104,
      "à¤ľà¤¨": 1105,
      "very": 1106,
      "Ġá±Łá±¨": 1107,
      "á±¥": 1108,
      "à¬§": 1109,
      "à¬ĸ": 1110,
      "Ġ3": 1111,
      "à¨¿à©°": 1112,
      "Ġàª¦": 1113,
      "Ġan": 1114,
      "se": 1115,
      "ĠD": 1116,
      "Ġba": 1117,
      "à¤®à¤¨": 1118,
      "ĠâĢĺ": 1119,
      "à°·": 1120,
      "á±ļá±Ľ": 1121,
      "Ġà¤Ĩà¤°": 1122,
      "Ġà¤Ķ": 1123,
      "à¥¥": 1124,
      "à°ľ": 1125,
      "á±Łá±¦": 1126,
      "Ø§Ø³": 1127,
      "Ġà¨ī": 1128,
      "ê¯ĥ": 1129,
      "à¤¾à¥Ĵ": 1130,
      "à¤µà¤¨": 1131,
      "ul": 1132,
      "à¤¯à¤¤": 1133,
      "ĠÙĨÛĴ": 1134,
      "à¥Ģà¤Ĥ": 1135,
      "Ġis": 1136,
      "Ġà¤ĩà¤¸": 1137,
      "ĠØ§ÙĦ": 1138,
      "ĠJ": 1139,
      "Ø±ÙĪ": 1140,
      "¨àŃ": 1141,
      "àŃ±": 1142,
      "ĠÛĮÛģ": 1143,
      "à¤¾.": 1144,
      "à²ļ": 1145,
      "à²ľ": 1146,
      "Ġà¤Ĩà¤£": 1147,
      "à¤°à¤£": 1148,
      "ê¯İ": 1149,
      "à§Ĥ": 1150,
      "ÙħÛĮ": 1151,
      "out": 1152,
      "à¤°à¤¨": 1153,
      "à¤¯à¤®": 1154,
      "Ù²ÙĨ": 1155,
      "á±¢": 1156,
      "Ġà¨Ĺ": 1157,
      "Ġwe": 1158,
      "à¦ģ": 1159,
      "Ġà¤ħà¤Ľ": 1160,
      "ily": 1161,
      "Ġà´¤": 1162,
      "àª¬": 1163,
      "à¤ŀ": 1164,
      "à«Ĥ": 1165,
      "Ø§Ø²": 1166,
      "00": 1167,
      "Ġne": 1168,
      "à±įâĢĮ": 1169,
      "ĠK": 1170,
      "Ġà¬ħ": 1171,
      "ê¯ª": 1172,
      "Ø§Ûģ": 1173,
      "Ġ:": 1174,
      "àµĤ": 1175,
      "ê¯Ī": 1176,
      "Ġà¦¸à¦®": 1177,
      "à¤Ŀ": 1178,
      "Ġà²Ĩ": 1179,
      "à¤½": 1180,
      "àª³": 1181,
      "à¤µà¤¸": 1182,
      "ĠÚ©Ù²": 1183,
      "á±¤á±Ń": 1184,
      "à°¬": 1185,
      "ÙĨÛģ": 1186,
      "ould": 1187,
      "ĠR": 1188,
      "à¯į,": 1189,
      "Ġà²¤": 1190,
      "á±Łá±±á±Ł": 1191,
      "à¤µà¤¤": 1192,
      "Ġàªħàª¨": 1193,
      "Ø§ÙĪ": 1194,
      "à¥ī": 1195,
      "Ø§ÙĤ": 1196,
      "ê¯Łê¯ħ": 1197,
      "Ø¦ÙĬ": 1198,
      "Ø¶": 1199,
      "à¬Ļ": 1200,
      "à¨ĸ": 1201,
      "ol": 1202,
      "ĠØĮ": 1203,
      "ÚĬ": 1204,
      "Úı": 1205,
      "ime": 1206,
      "Ġà¤¤à¤°": 1207,
      "à²¦à²°": 1208,
      "ore": 1209,
      "Ġà¬Ł": 1210,
      "à¥Ģ.": 1211,
      "á±ŀ": 1212,
      "à®ªà®Ł": 1213,
      "à¬ļ": 1214,
      "à§ĥ": 1215,
      "ÙĨÛĴ": 1216,
      "ht": 1217,
      "Ġá±ļ": 1218,
      "à²¶": 1219,
      "ĠØªÙĬ": 1220,
      "Úĳ": 1221,
      "Ġá±łá±ļ": 1222,
      "Ġ|": 1223,
      "em": 1224,
      "Ġà¤Ŀ": 1225,
      "à°¶": 1226,
      "¸á±": 1227,
      "Ġà¬ľ": 1228,
      "Ġà¤¸à¤°": 1229,
      "à¥Īà¥¤": 1230,
      "Ġthey": 1231,
      "Ġjing": 1232,
      "à§¦": 1233,
      "itt": 1234,
      "ation": 1235,
      "à±ģà°Ĥ": 1236,
      "Ġà¤īà¤ª": 1237,
      "Ġà¤Ķà¤°": 1238,
      "à¤¿à¥Ĵ": 1239,
      "ch": 1240,
      "ÙĦÙĬ": 1241,
      "á±ļá±¢": 1242,
      "Ġthere": 1243,
      "à¬ľ": 1244,
      "àŃ¦àŃ¦": 1245,
      "Ġà°Ĩ": 1246,
      "Ġyou": 1247,
      "àªļ": 1248,
      "Ġàª²": 1249,
      "ri": 1250,
      "ÛĮØ±": 1251,
      "ome": 1252,
      "Ġwh": 1253,
      "à¬Ĥ": 1254,
      "Ú¯Ø±": 1255,
      "Ġà¤¸à¤ķ": 1256,
      "Ġà¦ªà§°": 1257,
      "ÚĮ": 1258,
      "à±Ĭ": 1259,
      "Ġà¤µà¤°": 1260,
      "Ġà¤¬à¤¨": 1261,
      "ound": 1262,
      "à¤¿à¥¤": 1263,
      "Ġà¬¹": 1264,
      "Ġplay": 1265,
      "Ġtime": 1266,
      "ØªÛĮ": 1267,
      "à¥įâĢį": 1268,
      "à¯Ģ": 1269,
      "á±®á±Ń": 1270,
      "à³įâĢĮ": 1271,
      "ĠÙĨÛģ": 1272,
      "à©ĭà¨Ĥ": 1273,
      "ĠThey": 1274,
      "à¤¾à¤ģ": 1275,
      "á±®á±«": 1276,
      "Ġmom": 1277,
      "à¤¨à¤¨": 1278,
      "à¯Ĥ": 1279,
      "Ġàªı": 1280,
      "Ø³ØªØ§ÙĨ": 1281,
      "á±¤á±«": 1282,
      "Ġá±¨á±®á±±á±Łá±ľ": 1283,
      "ê¯ŀ": 1284,
      "Ù²ÙĨØł": 1285,
      "à²§": 1286,
      "Ġli": 1287,
      "à¤Ĺà¤°": 1288,
      "à´§": 1289,
      "ĠàŃ§": 1290,
      "Ġàª¶": 1291,
      "ĠØ¬ÙĨ": 1292,
      "Ġà¬ķà¬°": 1293,
      "à°§": 1294,
      "ĠÙ¿ÙĬ": 1295,
      "Ġà¨ķà¨°": 1296,
      "Ġê¯ı": 1297,
      "Ġà´İ": 1298,
      "Ġà¤®à¤¨": 1299,
      "ate": 1300,
      "Ù¹Ú¾": 1301,
      "Ġà¬¤": 1302,
      "Ġà²İ": 1303,
      "Ġat": 1304,
      "Ġà¨ħà¨¤": 1305,
      "Ġban": 1306,
      "Ġà¬ªà¬°": 1307,
      "ÛĦØ³": 1308,
      "ĠÚ©Ø§ÙĨ": 1309,
      "Ùļ": 1310,
      "à¤¾à¥¤": 1311,
      "Ġhapp": 1312,
      "ĠØªÙĪ": 1313,
      "Ø§Ø±Ûģ": 1314,
      "à¬¥": 1315,
      "Ġà¬¨": 1316,
      "Ġbad": 1317,
      "à¨§": 1318,
      "à¥Ģ,": 1319,
      "Ġà²ĩ": 1320,
      "àµįâĢĮ": 1321,
      "ê¯ĳ": 1322,
      "ÙĦÛģ": 1323,
      "à¬¯": 1324,
      "Ġê¯ĩ": 1325,
      "á±ļá±²": 1326,
      "Ø§Ø¡": 1327,
      "Ġá±łá±·": 1328,
      "ĠN": 1329,
      "à¤°à¤µ": 1330,
      "Ġà¤ħà¤§": 1331,
      "Ġê¯ĥê¯ħ": 1332,
      "us": 1333,
      "Ġ,": 1334,
      "Ġà¨Ĩ": 1335,
      "Ġà²°": 1336,
      "Ġà¤ħà¤ªà¤¨": 1337,
      "ĠØªÚ¾": 1338,
      "oh": 1339,
      "Ġv": 1340,
      "ÙĪÙħ": 1341,
      "à´ŀ": 1342,
      "ĠÛĮÛĦØ³": 1343,
      "à¦ł": 1344,
      "Ø³ÛĮ": 1345,
      "ĠLily": 1346,
      "Ø§Ú»": 1347,
      "à´ķà´³": 1348,
      "àªĪ": 1349,
      "à¤²à¤¨": 1350,
      "á±Łá±ŀ": 1351,
      "Ġà°ī": 1352,
      "ê¯Ĩ": 1353,
      "Ġà¦¥": 1354,
      "á±Łá±£": 1355,
      "Ġà¥¥": 1356,
      "à´Ĺ": 1357,
      "à¤²à¤ķ": 1358,
      "ep": 1359,
      "ÙĨÛĮ": 1360,
      "Ġà§°": 1361,
      "ĠÚı": 1362,
      "à²µà²°": 1363,
      "á±´": 1364,
      "my": 1365,
      "ittle": 1366,
      "Ġà¬Ń": 1367,
      "ĠÛģÛĮÚº": 1368,
      "Ø³ØªÙ²ÙĨØł": 1369,
      "'s": 1370,
      "àµ½": 1371,
      "à¤°à¤¦": 1372,
      "Ġà®ī": 1373,
      "Ġlittle": 1374,
      "Ġwan": 1375,
      "Ġà¤ķà¤°à¤¨": 1376,
      "ved": 1377,
      "à¥ħ": 1378,
      "ê¯¡ê¯Ĺ": 1379,
      "Ø§Ø±ÙĬ": 1380,
      "op": 1381,
      "Ġà¦ĩ": 1382,
      "Ġal": 1383,
      "han": 1384,
      "á±Łá±Ŀ": 1385,
      "Ġà¦Ĩà§°": 1386,
      "à©Į": 1387,
      "á±¤á±±": 1388,
      "Ġgo": 1389,
      "ĠàªĹ": 1390,
      "à³ģ.": 1391,
      "Ġà¥§à¥": 1392,
      "Ġà´ļ": 1393,
      "ĠâĢľ": 1394,
      "à©ľ": 1395,
      "ĠÚ©Ù²Ùħ": 1396,
      "Ġnot": 1397,
      "ide": 1398,
      "Ġ19": 1399,
      "ack": 1400,
      "Ġà°ĩ": 1401,
      "ÙĪØ³": 1402,
      "Ġà°¦": 1403,
      "à¤Ĺà¤¤": 1404,
      "ist": 1405,
      "iend": 1406,
      "ĳá±": 1407,
      "ÙĨÚ¯": 1408,
      "à²¿à²Ĥ": 1409,
      "Ġlo": 1410,
      "ÙĨØ§": 1411,
      "Ġê¯Ĭ": 1412,
      "à¥ĩ,": 1413,
      "Ġà¦°": 1414,
      "âĢľ": 1415,
      "à¥ĩà¤ģ": 1416,
      "Ġà¦ĵ": 1417,
      "à®µà®°": 1418,
      "Ġfriend": 1419,
      "Ġà¥¨": 1420,
      "ĠØ³Ø§ÙĨ": 1421,
      "Ġá±łá±Łá±±á±Ł": 1422,
      "ÙĪØ¯": 1423,
      "Ġà¦¹à¦¯": 1424,
      "à¬Ń": 1425,
      "àµ¼": 1426,
      "Ġbut": 1427,
      "Ġê¯Į": 1428,
      "á±Łá±¢": 1429,
      "Ø¯Ø§Ú©": 1430,
      "Ġà®Ĩ": 1431,
      "à´¶": 1432,
      "àµį.": 1433,
      "Ġsp": 1434,
      "Ġex": 1435,
      "Ġà¨ĩà¨¸": 1436,
      "Ġ201": 1437,
      "ain": 1438,
      "Ġ5": 1439,
      "Ø§Ùģ": 1440,
      "Ġà°Ĺ": 1441,
      "Ġà¤ł": 1442,
      "Ġà´Ĩ": 1443,
      "ê¯¡ê¯Ĥ": 1444,
      "à¤°à¤¹": 1445,
      "ĠW": 1446,
      "Ġvery": 1447,
      "à¤ĵ": 1448,
      "Ġê¯Ĺ": 1449,
      "Ġà¤Ĩà¤¸": 1450,
      "à¤¯à¤¸": 1451,
      "Ġà´ĩ": 1452,
      "âĢĺ": 1453,
      "Ġàª¹àª¤": 1454,
      "Ġ4": 1455,
      "ĠÚ¾": 1456,
      "res": 1457,
      "ĠØªÙĩ": 1458,
      "á±®á±ł": 1459,
      "est": 1460,
      "Ø¯Ø§Ú©Ø§Ø±Ûģ": 1461,
      "àªŃ": 1462,
      "à¥įâĢĮ": 1463,
      "ag": 1464,
      "Ġê¯ĥê¯ĩ": 1465,
      "ĠU": 1466,
      "Ġà¦ĸ": 1467,
      "ry": 1468,
      "á±Łá±Ľ": 1469,
      "Ø¬ÙĬ": 1470,
      "ê¯į": 1471,
      "à¤ļà¤¨": 1472,
      "ĠÙ»": 1473,
      "Ġà¤Ĩà¤ª": 1474,
      "ers": 1475,
      "à¤¤à¤²": 1476,
      "Ġhave": 1477,
      "Ġhappy": 1478,
      "Ġà¤ķà¤®": 1479,
      "th": 1480,
      "Ġà¦ıà¦ķ": 1481,
      "à§·": 1482,
      "Ġá±±á±ļá±": 1483,
      "Ġà¬ıà¬¬": 1484,
      "ê¯°ê¯°": 1485,
      "à¬Ľ": 1486,
      "Ġbo": 1487,
      "à§°à¦¤": 1488,
      "ĠÙħÙĪ": 1489,
      "Ġà°¬": 1490,
      "Ø¨Ø±": 1491,
      "Ø¦ÛĴ": 1492,
      "á±¯": 1493,
      "à¤°à¤ĸ": 1494,
      "à¤¸à¤²": 1495,
      "á±¤á±¥": 1496,
      "Ġdo": 1497,
      "Ġnam": 1498,
      "Ġà²ľ": 1499,
      "à¤¶à¤¨": 1500,
      "à¤¦à¤°": 1501,
      "Ġà¤īà¤¨": 1502,
      "Ø§Ø¦ÙĬ": 1503,
      "ÙĪØ§ÙĨ": 1504,
      "àµģ.": 1505,
      "Ġle": 1506,
      "ĠF": 1507,
      "à¤¹à¤£": 1508,
      "Ø¦ÛĮ": 1509,
      "Ġà®İà®©": 1510,
      "à¬¬à¬°": 1511,
      "à¬¬à¬¨": 1512,
      "ĠOnce": 1513,
      "Ø±Ùħ": 1514,
      "ĠÙĬ": 1515,
      "á±¼": 1516,
      "Ġar": 1517,
      "Ġà¤ľà¤¨": 1518,
      "à¤ªà¤¤": 1519,
      "ê¯¡ê¯Ĵ": 1520,
      "ĠOne": 1521,
      "uh": 1522,
      "®àŃ": 1523,
      "Ġà¤ķà¤¹": 1524,
      "Ġà²¦": 1525,
      "Ġse": 1526,
      "Ġfrom": 1527,
      "ĠÙħÙĦ": 1528,
      "ĠâĢĵ": 1529,
      "Ġà¦ħà¦¨": 1530,
      "ĠàªĨàªµ": 1531,
      "ial": 1532,
      "à¤¤à¤®": 1533,
      "á±«": 1534,
      "Ġà¤ªà¤¹": 1535,
      "Ġsaw": 1536,
      "Ġà¤¨à¤¹": 1537,
      "Ġà¤²à¤Ĺ": 1538,
      "à¤¸à¤°": 1539,
      "hen": 1540,
      "if": 1541,
      "à¥¨": 1542,
      "ct": 1543,
      "àªĸ": 1544,
      "ud": 1545,
      "á±ľ": 1546,
      "Ġá±ª": 1547,
      "à¤Łà¤°": 1548,
      "ê¯ĭ": 1549,
      "à¤µà¤²": 1550,
      "all": 1551,
      "ake": 1552,
      "Ġwere": 1553,
      "Ġsha": 1554,
      "à¤¬à¤°": 1555,
      "ug": 1556,
      "àªĵ": 1557,
      "ind": 1558,
      "ment": 1559,
      "à¨ĩ": 1560,
      "à¤¸à¤¨": 1561,
      "Úĺ": 1562,
      "à´´": 1563,
      "àª·": 1564,
      "Ġby": 1565,
      "Ġbig": 1566,
      "á±©á±¨": 1567,
      "ĠG": 1568,
      "à¥§à¥": 1569,
      "Ġà¤Ĩà¤²": 1570,
      "Ø«": 1571,
      "Ġá±©": 1572,
      "à¤¸à¤®": 1573,
      "à²¦à²²": 1574,
      "à¦ľà¦¨": 1575,
      "Ġà¦«": 1576,
      "Ġsm": 1577,
      "Øº": 1578,
      "à¬¼": 1579,
      "Ġà¨ļ": 1580,
      "ĠÙ¹": 1581,
      "Ġà°²": 1582,
      "ØªØ§": 1583,
      "à°£": 1584,
      "ĠØ¶": 1585,
      "ard": 1586,
      "ĠTim": 1587,
      "our": 1588,
      "Ġà¦ıà¦ĩ": 1589,
      "Ġpar": 1590,
      "ĠÚªØ±ÙĬ": 1591,
      "ĠØ±ÙĪ": 1592,
      "ê¯ĥê¯ģ": 1593,
      "à³Ī": 1594,
      "à¥ĩà¥Ĵ": 1595,
      "à¤Ĺà¤²": 1596,
      "nt": 1597,
      "ÙĬØ§": 1598,
      "à¯ģ.": 1599,
      "ĠØ¨Ú¾ÛĮ": 1600,
      "Ġà¤ķà¤¨": 1601,
      "Ø´ÛĮ": 1602,
      "Ġhim": 1603,
      "ĠÙĩÚª": 1604,
      "á±°": 1605,
      "ĠÙħØ¹": 1606,
      "àµĬ": 1607,
      "à¤¸à¤ķ": 1608,
      "ĠÙħØŃ": 1609,
      "Ġà¬ł": 1610,
      "Ġà¦Ľ": 1611,
      "à¬°à¬¤": 1612,
      "and": 1613,
      "ew": 1614,
      "ĠÙħÙĨ": 1615,
      "ê¯ĸ": 1616,
      "àŃ§àŃ¦àŃ¦": 1617,
      "'t": 1618,
      "ei": 1619,
      "à´¡": 1620,
      "Ġare": 1621,
      "Ø¯ÛĮ": 1622,
      "ÙĦØ§Ùħ": 1623,
      "ê¯Ĭ": 1624,
      "ĠE": 1625,
      "Ġà¬Ĩ": 1626,
      "Ġà¤¸à¤°à¤ķ": 1627,
      "ĠØ§ÛĮÚ©": 1628,
      "Ġà²Ĺ": 1629,
      "à¤ķà¤²": 1630,
      "à¤¦à¤¨": 1631,
      "ĠØ³ÙĨ": 1632,
      "àŃ±à¬°": 1633,
      "à¬Ĩ": 1634,
      "Ġà¦Ł": 1635,
      "à¤¿à¥ĳ": 1636,
      "á±®á±¨": 1637,
      "ÙĬÙĦ": 1638,
      "Ġupon": 1639,
      "à¦«": 1640,
      "àªı": 1641,
      "ĠÙĦÛĮ": 1642,
      "os": 1643,
      "à°¹": 1644,
      "âĢĭ": 1645,
      "ØªÛĴ": 1646,
      "à¦ī": 1647,
      "à´¹": 1648,
      "á±¾": 1649,
      "à´ľ": 1650,
      "à¤¯à¤²": 1651,
      "Ø±ÙĨ": 1652,
      "Ġall": 1653,
      "á±¼á±Ł": 1654,
      "Ġê¯±": 1655,
      "Ġà°İ": 1656,
      "Ġà°ľ": 1657,
      "Ġàªªàª°": 1658,
      "ÙĨØ¯ÙĪØ³ØªÙ²ÙĨØł": 1659,
      "á±¤á±ŀ": 1660,
      "Ġàª¥": 1661,
      "Ġà¬ļ": 1662,
      "£á±Ł": 1663,
      "à¨«": 1664,
      "ĠÚĪ": 1665,
      "ĠàªŃ": 1666,
      "ĠÙĩÙĪ": 1667,
      "irl": 1668,
      "Ġout": 1669,
      "ÛĮÙĪ": 1670,
      "Ġê¯Ī": 1671,
      "Ú¾ÙĨ": 1672,
      "av": 1673,
      "ke": 1674,
      "ight": 1675,
      "Ġê¯Ĳ": 1676,
      "§à§": 1677,
      "à¨ĺ": 1678,
      "ab": 1679,
      "à´¨à´¤": 1680,
      "ĠÙ¾Ø§Ú©": 1681,
      "Ġjong": 1682,
      "ĠIt": 1683,
      "ng": 1684,
      "à¦Ļ": 1685,
      "Ú³": 1686,
      "Ġà¤¸à¤¹": 1687,
      "ÙħÛģ": 1688,
      "ĠØ¬Ø§": 1689,
      "àªĩ": 1690,
      "á±®á±ŀ": 1691,
      "ĠØ¢ÙĩÙĨ": 1692,
      "Ø¢": 1693,
      "ÛĨ": 1694,
      "à¤¾à¥ĳ": 1695,
      "Ġá±¢á±®á±±á±Łá±ľ": 1696,
      "Ø±Øª": 1697,
      "Ġà¤¬à¤°": 1698,
      "à¤īà¤¨": 1699,
      "way": 1700,
      "à¨ħ": 1701,
      "Ġà¬Ĺ": 1702,
      "à¦°à¦¤": 1703,
      "á±ļá±±á±ļá±Ľ": 1704,
      "20": 1705,
      "á±µ": 1706,
      "à¤®à¤¤": 1707,
      "Ø´ÙĨ": 1708,
      "Ġ6": 1709,
      "Ġà¦ªà¦°": 1710,
      "Ġgirl": 1711,
      "ant": 1712,
      "à¤Ĭ": 1713,
      "á±³": 1714,
      "Ġá±łá±·á±ļá±±": 1715,
      "ĠÙ¾ÙĨ": 1716,
      "ort": 1717,
      "à´Ļà´³": 1718,
      "ĠÙ¾ÛĮ": 1719,
      "Ġà¤īà¤¤": 1720,
      "ĠÚªØ±": 1721,
      "à¦ŀ": 1722,
      "à¥ĭà¥¤": 1723,
      "ĠØªØ¹": 1724,
      "á±¤á±¨": 1725,
      "ĠàŃ¨àŃ": 1726,
      ".\"": 1727,
      "à°Ń": 1728,
      "ÙĬØ±": 1729,
      "à¦ķà¦²": 1730,
      "ice": 1731,
      "à¥ĩà¥¤": 1732,
      "ÙĬØ¡": 1733,
      "à²Ń": 1734,
      "àŃĤ": 1735,
      "one": 1736,
      "Ġ)": 1737,
      "Ø§Ø¹": 1738,
      "à¦¨à§°": 1739,
      "à¤·à¤£": 1740,
      "Ùº": 1741,
      "Ġà¤ħà¤°": 1742,
      "á±ļá±ľ": 1743,
      "à¤¾à¤ĥ": 1744,
      "The": 1745,
      "à¥Ģà¥¤": 1746,
      "ĠØ±Ûģ": 1747,
      "Ġà¦ľà¦¨": 1748,
      "day": 1749,
      "Ġà¦§": 1750,
      "ĠÚ©Ú¾": 1751,
      "ĠØ§Ù¾": 1752,
      "Ġcl": 1753,
      "ê¯Łê¯Ĺ": 1754,
      "ynt": 1755,
      "ust": 1756,
      "à²¥": 1757,
      "à¤¨à¤¸": 1758,
      "Ġà§¨": 1759,
      "ê¯İê¯ķ": 1760,
      "Ġà¤¸à¤¬": 1761,
      "ØªÛģ": 1762,
      "Ø±Ùģ": 1763,
      "ÙĦÙĪ": 1764,
      "Ø°": 1765,
      "à¨¥": 1766,
      "ĠØ¨Ùĩ": 1767,
      "eng": 1768,
      "Ġá±Łá±ł": 1769,
      "Ġà®ĩà®°": 1770,
      "Ġà¤İ": 1771,
      "ĠØ°": 1772,
      "ÙħØ§ÙĦ": 1773,
      "à©ģà©±": 1774,
      "Ġ7": 1775,
      "ÛĮÛģ": 1776,
      "à¤®à¤§": 1777,
      "Ġà¤Ĩà¤¯": 1778,
      "Ġà¤Ĩà¤µ": 1779,
      "Ġà´°": 1780,
      "Ġà¤ıà¤¹": 1781,
      "àŃŁà¬¨": 1782,
      "Ġá±¦á±ļá±²": 1783,
      "Ġ.": 1784,
      "ĠØ¨ÛĮ": 1785,
      "Ù¹Ø±": 1786,
      "qu": 1787,
      "à¤°à¤²": 1788,
      "hed": 1789,
      "á±Łá±²": 1790,
      "Ú©ÛĮ": 1791,
      "Ø§ØŃ": 1792,
      "Ġà¤¹à¤®": 1793,
      "Ġtoo": 1794,
      "ê¯¢ê¯Ķ": 1795,
      "Ġà¤ķà¤°à¤¤": 1796,
      "Ġà¨¹à¨¨": 1797,
      "Ġà¬¶": 1798,
      "Ġwill": 1799,
      "Ġê¯ĳê¯Ĺ": 1800,
      "³ļ": 1801,
      "á³ļ": 1802,
      "oug": 1803,
      "à©Īà¥¤": 1804,
      "ell": 1805,
      "ĠÙĨÛģÛĮÚº": 1806,
      "Ġà¨«": 1807,
      "Ġtheir": 1808,
      "Ġloo": 1809,
      "à¤Łà¤¨": 1810,
      "Ġà¨²à¨Ī": 1811,
      "à®¸": 1812,
      "ĠØº": 1813,
      "àŃ«": 1814,
      "Ġpr": 1815,
      "Ġcon": 1816,
      "ast": 1817,
      "á±Łá±¹á±¨": 1818,
      "hi": 1819,
      "à¤ķà¤¡": 1820,
      "á±¦": 1821,
      "ap": 1822,
      "ĠÛĶ": 1823,
      "Ø§Ùĩ": 1824,
      "ĠÚ©ÛĮØ§": 1825,
      "Ġà¨Ń": 1826,
      "ê¯ľê¯Ĥ": 1827,
      "Ġà¤Ī": 1828,
      "Ġag": 1829,
      "ĠØ§ÙĬ": 1830,
      "ame": 1831,
      "ies": 1832,
      "uc": 1833,
      "ĠÙĦØ§Ø¡": 1834,
      "Ġà¤ĩà¤¤": 1835,
      "à°³": 1836,
      "à¤¨à¤®": 1837,
      "à¤¹à¤¤": 1838,
      "Ú¾Ø±": 1839,
      "ess": 1840,
      "Ġá±ŀá±®á±ł": 1841,
      "Ġ/": 1842,
      "Ġà¦¡": 1843,
      "Ġà¤¸à¤Ń": 1844,
      "ree": 1845,
      "ĠÙĩÙĨ": 1846,
      "ther": 1847,
      "ØªÙĬ": 1848,
      "Ġkn": 1849,
      "à¥©": 1850,
      "à¤¿,": 1851,
      "Ġà¨ĸ": 1852,
      "Ġwent": 1853,
      "Ġ10": 1854,
      "Ġà²¶": 1855,
      "Ġwould": 1856,
      "ĠØ³ÛĮ": 1857,
      "ood": 1858,
      "âĢĵ": 1859,
      "á±·á±Ł": 1860,
      "á±©á±Ń": 1861,
      "àª«": 1862,
      "Ø¯Ø§Ø±": 1863,
      "ĠØ¬Ø§ÙĨ": 1864,
      "Ø§Ø¬": 1865,
      "à¤¼à¤¾": 1866,
      "Ġàª«": 1867,
      "ĠÙĪÙĬ": 1868,
      "à´¬": 1869,
      "Ġá±łá±ļá±": 1870,
      "Ø³Ø§ÙĨ": 1871,
      "Ġá±Ľá±Łá±¦": 1872,
      "à¥ģà¥Ĵ": 1873,
      "Ġfriends": 1874,
      "à¥ª": 1875,
      "àµ»": 1876,
      "Ġàªī": 1877,
      "à¤¡à¤²": 1878,
      "Ġà¤Ńà¤¨": 1879,
      "Ġhas": 1880,
      "à°¥": 1881,
      "à¤¿âĢį": 1882,
      "ĠÙħØ§ÙĨ": 1883,
      "Ø¯Ø§": 1884,
      "à°¾à°Ĥ": 1885,
      "!\"": 1886,
      "Ġà®Ĵ": 1887,
      "Ġà¤ķà¤°à¤£": 1888,
      "ØłÙ¹Ú¾": 1889,
      "à³Ĭà²Ĥ": 1890,
      "are": 1891,
      "Ġàªļ": 1892,
      "Ġà¬Ľ": 1893,
      "Ġá±¥á±Łá±": 1894,
      "ive": 1895,
      "ob": 1896,
      "ĠInd": 1897,
      "ai": 1898,
      "á±¤á±ł": 1899,
      "od": 1900,
      "Ġà¦ĺ": 1901,
      "Ġwor": 1902,
      "Ġcom": 1903,
      "á±¤á±¡": 1904,
      "Ġàªĸ": 1905,
      "Ø²ÛĮ": 1906,
      "ĠÛĮØ§": 1907,
      "Ġwanted": 1908,
      "Ġcould": 1909,
      "Ġhel": 1910,
      "ê£": 1911,
      "ÛĮØ³": 1912,
      "Ú©Ûģ": 1913,
      "Ġman": 1914,
      "ÙĬÚª": 1915,
      "Ġà´ľ": 1916,
      "ÙħØ¯": 1917,
      "á±®á±¥": 1918,
      "ub": 1919,
      "Ġnamed": 1920,
      "á±Ń": 1921,
      "à¤°à¤¶": 1922,
      "ĠÙħØ³": 1923,
      "à©Ģà¨Ĥ": 1924,
      "Ġê¯ĥê¯ĩê¯Ŀ": 1925,
      "Ġhelp": 1926,
      "ure": 1927,
      "à´Ń": 1928,
      "ĠÙĪÛģ": 1929,
      "Ġá±¨á±®á±Ń": 1930,
      "á±±á±Ł": 1931,
      "21": 1932,
      "ah": 1933,
      "à¨Ń": 1934,
      "ĠÙ½": 1935,
      "Ġà´¬": 1936,
      "Ġna": 1937,
      "Ġi": 1938,
      "Ġà°Ī": 1939,
      "Ġthem": 1940,
      "à´¯à´¤": 1941,
      "ĠØ®Ø§ÙĨ": 1942,
      "Ġor": 1943,
      "ĠÚĬ": 1944,
      "Ġà¤ħà¤Ń": 1945,
      "à¦ı": 1946,
      "à«ĩ,": 1947,
      "Ġpyn": 1948,
      "à¦¸à¦®": 1949,
      "Ġkaba": 1950,
      "Ø§Ø¦ÛĮ": 1951,
      "ĠØ³ÙĨÚĮ": 1952,
      "à¤²à¤¯": 1953,
      "Ġê¯Ĵ": 1954,
      "ĠÙħØ´": 1955,
      "àª°àª®": 1956,
      "à°²à°¨": 1957,
      "ĠÙ¾ØłÙ¹Ú¾": 1958,
      "à´µà´°": 1959,
      "à´¥": 1960,
      "Ġab": 1961,
      "à¤¬à¤¨": 1962,
      "à²ķà²°": 1963,
      "àŃ¨": 1964,
      "à¤Łà¤²": 1965,
      "Ġà¦Ĩà¦®": 1966,
      "Ġá±¢á±¤á±«": 1967,
      "Ġà®ħà®¤": 1968,
      "Ġà¬ĵ": 1969,
      "Ġsc": 1970,
      "Ġpro": 1971,
      "Ġàªªàª£": 1972,
      "ÙĩÙĪ": 1973,
      "à²¯à²²": 1974,
      "à¬Łà¬¨": 1975,
      "Ø§Øµ": 1976,
      "à´¿.": 1977,
      "Ġà¤ĺà¤°": 1978,
      "Ġwho": 1979,
      "Ġà´İà´¨": 1980,
      "Ġsmil": 1981,
      "Ġà¤Ĩà¤¨": 1982,
      "Ġlong": 1983,
      "Ġà°ħà°¨": 1984,
      "ÙĬÙĪÙĨ": 1985,
      "à¤®à¤ķ": 1986,
      "ÙħÙĦ": 1987,
      "ÙĤØª": 1988,
      "à¤Ĩà¤µ": 1989,
      "ird": 1990,
      "Ġá±Łá±¹": 1991,
      "ĠØ¨ÙĨ": 1992,
      "Ġà¦¬à¦²": 1993,
      "Ġme": 1994,
      "Ġstar": 1995,
      "19": 1996,
      "ear": 1997,
      "Ø¨ÛĮ": 1998,
      "ĠÙĪØ§ÙĦ": 1999,
      "ê¯Ľê¯ĩ": 2000,
      "ĠØ³ÙĪ": 2001,
      "ĠÙĪØ§Ø±": 2002,
      "Ġá±Ľá±®": 2003,
      "à§İ": 2004,
      "ÙĬØª": 2005,
      "àŃįâĢĮ": 2006,
      "ĠÙĦÙĪ": 2007,
      "Ġ9": 2008,
      "Ġá±ĳá±": 2009,
      "Ġàª°àª¹": 2010,
      "ĠÙħÛĮ": 2011,
      "Ġà¤ªà¤¤": 2012,
      "á±©á±ľ": 2013,
      "Ġà¬ıà¬¹": 2014,
      "oc": 2015,
      "Ø§Úª": 2016,
      "Ġad": 2017,
      ",âĢĿ": 2018,
      "pl": 2019,
      "ue": 2020,
      "Ġ8": 2021,
      "á±ļá±¦": 2022,
      "ĠØ¬ÙĬÚª": 2023,
      "ĠØªÚ¾Ø§": 2024,
      "à¤®à¤²": 2025,
      "Ø§Ø¦ÙĬÙĨ": 2026,
      "ade": 2027,
      "Ġá±§": 2028,
      "Ġà¤Ĩà¤¤": 2029,
      "Ġbr": 2030,
      "Ġcan": 2031,
      "Ġdid": 2032,
      "Ġkh": 2033,
      "ĠÛģÛĮ": 2034,
      "Ġdon": 2035,
      "à±Ĩà°Ĥ": 2036,
      "ect": 2037,
      "à²µà²¨": 2038,
      "à¦Ĺà¦¤": 2039,
      "ê¯Ľê¯ħ": 2040,
      "Ġê¯ĭ": 2041,
      "àª°àª¨": 2042,
      "Ġà¤īà¤¦": 2043,
      "ÚĨÚ¾": 2044,
      "Ġaround": 2045,
      "à¤¤à¤ķ": 2046,
      "ÙħØ§ÙĨ": 2047,
      "Ú¾ÙĬ": 2048,
      "à§°à¦ķ": 2049,
      "à¤ĩà¤¨": 2050,
      "Ġkan": 2051,
      "ĠØ¯ÛĮ": 2052,
      "ÙĨØ¯Ø§": 2053,
      "à¦¾à¦Ĥ": 2054,
      "Ġê¯²": 2055,
      "Ġà²Ī": 2056,
      "ĠÙħÙĤ": 2057,
      "ĠÙ¾ÙĬ": 2058,
      "à¥«": 2059,
      "ĠØ³Ø±": 2060,
      "à®ªà®¤": 2061,
      "Ġother": 2062,
      "à¦®à¦¨": 2063,
      "á±¤á±§": 2064,
      "Ù¹ÛĮ": 2065,
      "ê¯¢ê¯ħ": 2066,
      "á±Ĳá±": 2067,
      "Ġá±´": 2068,
      "ĠÚĩ": 2069,
      "à¨°à¨¸": 2070,
      "ity": 2071,
      "Ġà¤ļà¤²": 2072,
      "Ø§ÛĮ": 2073,
      "Ġà¤¨à¤µ": 2074,
      "Ġbird": 2075,
      "á±¡": 2076,
      "Ġà²ī": 2077,
      "Ġà¤Ľà¤¨": 2078,
      "Ġá±¨á±®á±Ńá±Łá±ľ": 2079,
      "à¤ĸà¤¨": 2080,
      "Ġà¤¯à¤¹": 2081,
      "Ġà²®à²¤": 2082,
      "Ġloved": 2083,
      "aw": 2084,
      "à§ĩ,": 2085,
      "Ġà¤ªà¤¨": 2086,
      "à¨¼à¨¾": 2087,
      "Ļá±": 2088,
      "Ġà¨Ł": 2089,
      "à¤¯à¤°": 2090,
      "á±Łá±¥": 2091,
      "à¦ķà§°": 2092,
      "Ġà¦īà¦ª": 2093,
      "),": 2094,
      "àµĪ": 2095,
      "Ġá±Ĵ": 2096,
      "Ø¨Ø§ÙĨ": 2097,
      "ĠÚªÙĬÙĪ": 2098,
      "ê¯Ŀê¯ķ": 2099,
      "ĠàŃ¨": 2100,
      "get": 2101,
      "à¬ģ": 2102,
      "Ġà´ī": 2103,
      "Ġsome": 2104,
      "Ġback": 2105,
      "ĠØªØ±": 2106,
      "Ġà¤ħà¤¸à¤²": 2107,
      "á±Łá±Ľá±®": 2108,
      "Ġboy": 2109,
      "ĠàªŁ": 2110,
      "à¦¼à¥¤": 2111,
      "ê¯Łê¯Ĵ": 2112,
      "à¤¼à¥Ģ": 2113,
      "Ġasked": 2114,
      "à¤¾-": 2115,
      "Ø§Ù¾": 2116,
      "Ġà¤¤à¤¥": 2117,
      "à¦¬à¦²": 2118,
      "Ġfun": 2119,
      "ous": 2120,
      "ê¯Ľê¯Ģ": 2121,
      "Ù½ÙĬ": 2122,
      "à¥§": 2123,
      "à¨ī": 2124,
      "à¨ı": 2125,
      "á±ļá±ŀ": 2126,
      "ĠÙ¾ÙĪ": 2127,
      "Ġàªıàªķ": 2128,
      "Ø¯Ø±": 2129,
      "ine": 2130,
      "Ġà¤¹à¤°": 2131,
      "Ġà¤Ĩà¤®": 2132,
      "à«Ģ.": 2133,
      "Ø§Ø±ÛĮ": 2134,
      "Ġê¯ĥê¯ĥ": 2135,
      "ond": 2136,
      "Ġà¬¯": 2137,
      "ings": 2138,
      "Ġà¤Ľà¤²": 2139,
      "à¤Łà¤ķ": 2140,
      "á±®á±Ľ": 2141,
      "Ġgr": 2142,
      "àŃ¦àŃ¨": 2143,
      "Ġà¤®à¤§": 2144,
      "Ġà¤Ĩà¤«": 2145,
      "Ġá±Ľá±Łá±¦á±®á±": 2146,
      "à¬Łà¬¨à¬®": 2147,
      "hing": 2148,
      "Ġà´Ĵ": 2149,
      "Ġê¯ĥê¯į": 2150,
      "own": 2151,
      "ĠÃ": 2152,
      "Ġà¨¡": 2153,
      "à¦¾à¦ģ": 2154,
      "á±Łá±ł": 2155,
      "Ġá±¦á±ļá±±á±ļá±Ľ": 2156,
      "ĠBut": 2157,
      "08": 2158,
      "Ù¿": 2159,
      "Ġà¤¬à¤¤": 2160,
      "à¨¤à¨°": 2161,
      "ĠÙ¿ÙĪ": 2162,
      "ress": 2163,
      "?\"": 2164,
      "à§°à§°": 2165,
      "à¦ĵà¦¯": 2166,
      "ĠØ·ÙĪØ±": 2167,
      "ful": 2168,
      "à²ĸ": 2169,
      "à¤ķà¤¤": 2170,
      "ĠÚ³": 2171,
      "á±Łá±¹á±ľ": 2172,
      "ÙħÙĨ": 2173,
      "à¬¿.": 2174,
      "Ġàªķàª°àªµ": 2175,
      "àµ¾": 2176,
      "ÙĪØ¨": 2177,
      "à¤ıà¤²": 2178,
      "àŃ¦àŃ®àŃ": 2179,
      "up": 2180,
      "Ġà¤¦à¤°": 2181,
      "Ġà¤Ĺà¤¯": 2182,
      "à¤§à¤¨": 2183,
      "à²¤à²°": 2184,
      "ally": 2185,
      "Ġthis": 2186,
      "02": 2187,
      "side": 2188,
      "à¬ĺ": 2189,
      "ØªØ±": 2190,
      "har": 2191,
      "Ġdec": 2192,
      "àŃŁà¬°": 2193,
      "à¤¯à¤ļ": 2194,
      "Ġà¤ħà¤¶": 2195,
      "àª®àª¨": 2196,
      "Ġà¤īà¤¸": 2197,
      "à¤ĥà¥¤": 2198,
      "ĠÚªØ±Ú»": 2199,
      "Ġ[": 2200,
      "à¥¬": 2201,
      "à®©à®°": 2202,
      "elt": 2203,
      "ach": 2204,
      "ty": 2205,
      "Ġà¤¬à¤¹": 2206,
      "Ġà¤¤à¤¸": 2207,
      "ĠØ¢Ø±": 2208,
      "àª¿àªĤ": 2209,
      "Ġà¦®à¦¨": 2210,
      "ê£³": 2211,
      "à§¨": 2212,
      "Ø¨Ø§Ø¯": 2213,
      "Ġà¬®à¬§": 2214,
      "Ġone": 2215,
      "à¤°à¤ľ": 2216,
      "á±Łá±¡": 2217,
      "á±Łá±«": 2218,
      "....": 2219,
      "ÙĪÛĮ": 2220,
      "Ġê¯ĥê¯Į": 2221,
      "Ġoff": 2222,
      "à¦ĸà¦¨": 2223,
      "Ġà¤ĵà¤¹": 2224,
      "Ġà¤ķà¤²": 2225,
      "inis": 2226,
      "ĠØ¨Ø±": 2227,
      "Ġpe": 2228,
      "ĠØ¯ÙĪØ±": 2229,
      "à¥Ń": 2230,
      "à¥įà¥¤": 2231,
      "àŃ©": 2232,
      "ÙĨØ¯ÙĬ": 2233,
      "á±©á±¢": 2234,
      "Ġà§§à§": 2235,
      "ik": 2236,
      "Ġá±¤": 2237,
      "à¤¦à¤²": 2238,
      "à¯ģ,": 2239,
      "à³ģ,": 2240,
      "Ġà¤Ńà¤ıà¤ķ": 2241,
      "Ġà¤ħà¤¸à¤¤": 2242,
      "ĠÙĬØ§": 2243,
      "ê¯Ĳ": 2244,
      "ĠØ¹ÙĦ": 2245,
      "Ġê¯ĳê¯ĥê¯ģ": 2246,
      "à¥®": 2247,
      "Ġwhen": 2248,
      "àª°àª£": 2249,
      "á±ļá±¸": 2250,
      "à¥ĭà¤Ĥà¥¤": 2251,
      "á±¢á±Ł": 2252,
      "±Û": 2253,
      "Ġà²Ĵ": 2254,
      "Ġà²ļ": 2255,
      "Ġde": 2256,
      "fter": 2257,
      "ĠØ§Ùħ": 2258,
      "ary": 2259,
      "à²Ĺà²³à²¨": 2260,
      "à¦¾à¥¤": 2261,
      "ÙĬÙħ": 2262,
      "Ġsom": 2263,
      "ĠÙħØ±": 2264,
      "Ġ12": 2265,
      "ick": 2266,
      "à¥ģà¥ĳ": 2267,
      "ited": 2268,
      "à¥Įà¤Ĥ": 2269,
      "à¨¦à¨°": 2270,
      "Ġsmiled": 2271,
      "Ġtw": 2272,
      "Ġà²Ń": 2273,
      "à¦¤à§°": 2274,
      "Ú©ÙĨ": 2275,
      "Ø§Ø¦ÛĴ": 2276,
      "Ġagain": 2277,
      "ny": 2278,
      "ven": 2279,
      "à¤²à¤¤": 2280,
      "Ø§Ø´": 2281,
      "Ġmore": 2282,
      "ace": 2283,
      "ĠTimmy": 2284,
      "à¤±": 2285,
      "à¥ĭà¥Ĵ": 2286,
      "Ġà¨¸à¨®": 2287,
      "ĠâĢĿ": 2288,
      "Ġlike": 2289,
      "so": 2290,
      "yll": 2291,
      "à¥ĭ.": 2292,
      "Ø¯Ûģ": 2293,
      "à¦¼à¦¿": 2294,
      "Ø§ØªÚ¾": 2295,
      "ip": 2296,
      "Ġà¤¬à¤¢": 2297,
      "á±ļá±ł": 2298,
      "Ġà¬²": 2299,
      "ĠØ§Ø³Øª": 2300,
      "à®Łà®¤": 2301,
      "Ġtoy": 2302,
      "á±¤á±Ľ": 2303,
      "Ġim": 2304,
      "à¤°à¤¯": 2305,
      "à¤¯à¤¦": 2306,
      "à¤ķà¤¨": 2307,
      "à¦°à¦£": 2308,
      "à§°à¦£": 2309,
      "Ġà¨°à¨¹": 2310,
      "ÙĦØ§": 2311,
      "à¦°à¦ķ": 2312,
      "Ġwat": 2313,
      "à¨°à¨ķ": 2314,
      "à¥Ĥà¤Ĥ": 2315,
      "Ġà¤ĩà¤¨": 2316,
      "Ġà¬°à¬¹": 2317,
      "Ġnew": 2318,
      "Ġà¥¨à¥¦": 2319,
      "Ġá±°": 2320,
      "Ġfelt": 2321,
      "à´°à´¤": 2322,
      "Ġá±±á±ļá±£á±Ł": 2323,
      "à¬ı": 2324,
      "Ġà¤ĸà¤°": 2325,
      "ê¯ıê¯Ħ": 2326,
      "ax": 2327,
      "à¤°à¤ª": 2328,
      "Ġch": 2329,
      "Ġà¦ıà¦¬": 2330,
      "à¦ļà¦¨": 2331,
      "à¤¤à¤¨": 2332,
      "à¥Ī,": 2333,
      "à²¾à²Ĥ": 2334,
      "ĠØ¢Ù¾": 2335,
      "à¥Īà¤Ĥà¥¤": 2336,
      "ks": 2337,
      "uch": 2338,
      "à¤²à¤¬": 2339,
      "Ġàª¡": 2340,
      "Ú©Ø±": 2341,
      "Ġê¯±ê¯": 2342,
      "Ġà°¹": 2343,
      "à°²à°ķ": 2344,
      "Ġà¬¸à¬®": 2345,
      "Ġsomet": 2346,
      "à¤²à¤®": 2347,
      "Ġà¤ªà¤£": 2348,
      "Ġint": 2349,
      "ÚıÙĩÙĨ": 2350,
      "ff": 2351,
      "àŃª": 2352,
      "à¨°à¨¤": 2353,
      "ĠÙĨÙĩ": 2354,
      "ile": 2355,
      "Ġà°Ń": 2356,
      "Ù°": 2357,
      "à¦Ĩ": 2358,
      "àŃ¬": 2359,
      "ÙĩØ§ÙĨ": 2360,
      "Ġfe": 2361,
      "Ġà¨¸à¨ķ": 2362,
      "à¦ĺ": 2363,
      "Ġtr": 2364,
      "Ġà´²": 2365,
      "á±ļá±´": 2366,
      "ict": 2367,
      "Ġkiba": 2368,
      "á±¤á±Ńá±Ł": 2369,
      "gether": 2370,
      "à¤¿.": 2371,
      "Ġà´¶": 2372,
      "Ġà¤ħà¤ª": 2373,
      "ĠØ¬Ø³": 2374,
      "ĠØ³Ùħ": 2375,
      "ĠØ³Ú¯": 2376,
      "ê¯ħê¯ķ": 2377,
      "à®µà®¤": 2378,
      "à°µà°°": 2379,
      "ê¯ī": 2380,
      "à¤°à¤Ń": 2381,
      "Ġà°¶": 2382,
      "Ġbec": 2383,
      "iew": 2384,
      "Ġà¬ī": 2385,
      "Ġbeen": 2386,
      "à§Į": 2387,
      "ĠØ¨Ûģ": 2388,
      "Ġmade": 2389,
      "Ġno": 2390,
      "à©Īà¨Ĥ": 2391,
      "Ġà®ķà®Ł": 2392,
      "Ġstarted": 2393,
      "ber": 2394,
      "à¤®à¤¸": 2395,
      "à¤µà¤ķ": 2396,
      "ĠØ§ÙĪ": 2397,
      "Ø¹Ø¯": 2398,
      "Ġng": 2399,
      "Ġà¤«à¤°": 2400,
      "Ø®Øª": 2401,
      "Ø§Ú»ÙĬ": 2402,
      "ĠIndia": 2403,
      "Ġà°Ł": 2404,
      "Ġac": 2405,
      "ĠØ§ÙĪØ³": 2406,
      "à´ķà´°": 2407,
      "ĠØ¯Ø±": 2408,
      "ê¯Ĺê¯Ĵ": 2409,
      "Ġá±¦á±©á±Ń": 2410,
      "Ġà¤Ĩà¤ªà¤²": 2411,
      "Ġabout": 2412,
      "¶á±Ł": 2413,
      "à®ķà®ª": 2414,
      "Ú¯ÛĮ": 2415,
      "à¦ªà¦¤": 2416,
      "Ġà¨ĩà¨¹": 2417,
      "Ġá±¯á±·": 2418,
      "à¤¤à¤µ": 2419,
      "ĠÚĢ": 2420,
      "à¦¨à¦¤": 2421,
      "ĠØ³Ø§ÙĦ": 2422,
      "ĠÛģÙħ": 2423,
      "Ġà¨ķà¨°à¨¨": 2424,
      "ê¯¡ê¯Ĺê¯Ĵ": 2425,
      "Ġalso": 2426,
      "fe": 2427,
      "âĤ": 2428,
      "Ġun": 2429,
      "ê¯¢ê¯ķ": 2430,
      "Ġá±µá±·": 2431,
      "ÙĬØ³": 2432,
      "ĠÙħØ·": 2433,
      "à¤ļà¤²": 2434,
      "Ġà¤¹à¤ľ": 2435,
      "à¨°à¨¡": 2436,
      "ÙĤÙĬ": 2437,
      "à°¦à°¨": 2438,
      "Ġàª¸àª®": 2439,
      "Ġexc": 2440,
      "ÙĩØ±": 2441,
      "Ġà¥©": 2442,
      "ê¯Ŀê¯Ĵ": 2443,
      "ê¯ıê¯ķ": 2444,
      "Ġ||": 2445,
      "king": 2446,
      "Ġà¤¸à¤¨": 2447,
      "ê¯ıê¯ħ": 2448,
      "à¥įâĢĮà¥¤": 2449,
      "Úĥ": 2450,
      "à¤¯à¤ĸ": 2451,
      "Ġà²¯": 2452,
      "Ġtogether": 2453,
      "Ġfound": 2454,
      "Ġover": 2455,
      "Ġà¤ĩà¤ķ": 2456,
      "''": 2457,
      "Ø£": 2458,
      "Ġà°«": 2459,
      "nder": 2460,
      "Ġê¯ĳê¯ĥê¯Ĵ": 2461,
      "Ġê¯ĳê¯ĥê¯Ĺ": 2462,
      "ma": 2463,
      "Ġà«": 2464,
      "Ġà¤ľà¤°": 2465,
      "Ġfl": 2466,
      "Ġà®®à®±": 2467,
      "ĠØ®ÙĪ": 2468,
      "àŃ¦àŃ¨àŃ": 2469,
      "Ġà¦¸à¦®à¦¯": 2470,
      "à¥¯": 2471,
      "ÛģØ±": 2472,
      "Ø¯ÙĪ": 2473,
      "à®¤à®²": 2474,
      "Ġà¤¤à¤¤": 2475,
      "Ø¬Ú¾": 2476,
      "à³ĥ": 2477,
      "Ġà¤®à¤²": 2478,
      "ØªØł": 2479,
      "ØªØ§Ø¨": 2480,
      "à²°à²¦": 2481,
      "à²¸à²²": 2482,
      "à´İ": 2483,
      "à¤µà¤£": 2484,
      "Ġà¤¬à¤¸": 2485,
      "à®°à®®": 2486,
      "à®Łà®®": 2487,
      "ĠÙĪØ§ÙĤ": 2488,
      "à´Łà´¤": 2489,
      "Ø¬ÙĪØ¯": 2490,
      "Ġà¦Ĩà¦Ľ": 2491,
      "ĠàªĨàªª": 2492,
      "àŃĢ-": 2493,
      "ĠBen": 2494,
      "pped": 2495,
      "ĠÙ¾Ø§Ú©Ø³ØªØ§ÙĨ": 2496,
      "ost": 2497,
      "Ġen": 2498,
      "Ø§Úº": 2499,
      "ÙĨÙĬ": 2500,
      "Ġwhat": 2501,
      "Ġmake": 2502,
      "ĠÚ¯ÛĮØ§": 2503,
      "Ġà¨ªà¨°": 2504,
      "ĠâĢĻ": 2505,
      "Ġê¯ķ": 2506,
      "à³Ĩà²Ĥ": 2507,
      "arn": 2508,
      "à²¯à²¨": 2509,
      "ĠTom": 2510,
      "ynta": 2511,
      "Ġthen": 2512,
      "Ġà¤Ĩà¤§": 2513,
      "ĠÙĪÙĤØª": 2514,
      "à¬ķà¬°": 2515,
      "Ġ2021": 2516,
      "à¬ŀ": 2517,
      "à¤°à¤¬": 2518,
      "à¦¿à¥¤": 2519,
      "à¤ªà¤ķ": 2520,
      "Ġits": 2521,
      "ê¯°ê¯°ê¯°": 2522,
      "Ġlooked": 2523,
      "à±ģ,": 2524,
      "à²¯à²ķ": 2525,
      "ê¯Ķê¯Ĵ": 2526,
      "à¬¼à¬¾": 2527,
      "Ġà°ı": 2528,
      "Ġaway": 2529,
      "Ġà¤ħà¤¹": 2530,
      "á±¤á±´": 2531,
      "à²¤à²¦": 2532,
      "ath": 2533,
      "Ġà®µà®°": 2534,
      "Ġá±©á±±": 2535,
      "ĠÙ¾ÙĨÙĩÙĨ": 2536,
      "inister": 2537,
      "kar": 2538,
      "ÚĢ": 2539,
      "Ġthan": 2540,
      "Ġà¤Ĩà¤ľ": 2541,
      "ÙĩÙĩ": 2542,
      "Ġ18": 2543,
      "Ġá±¥á±®á±¨": 2544,
      "Ġsomething": 2545,
      "à¤¤à¤¤": 2546,
      "à¤¹à¤¨": 2547,
      "à¤¶à¤ķ": 2548,
      "ÙĪØ±Øª": 2549,
      "Ġà¬®à¬ĩ": 2550,
      "ĠAs": 2551,
      "ged": 2552,
      "á±Ĵ": 2553,
      "Ġà¤ħà¤®": 2554,
      "à«ĭ.": 2555,
      "Ġà¤ķà¤°à¤¦": 2556,
      "à¦ªà¦¨": 2557,
      "na": 2558,
      "ê¯±": 2559,
      "àªł": 2560,
      "à´ķà´¯": 2561,
      "Ġá±łá±Łá±±": 2562,
      "à¬ªà¬°": 2563,
      "à¤¼à¥ĩ": 2564,
      "ions": 2565,
      "á±½á±¨": 2566,
      "ĠÙ¹ÛĮ": 2567,
      "ought": 2568,
      "Ġà®Ĵà®°": 2569,
      ",\"": 2570,
      "Ġqu": 2571,
      "à¥ĭà¥ĳ": 2572,
      "à¤ľà¤°": 2573,
      "Ġper": 2574,
      "Ġ11": 2575,
      "Ġà¬ıà¬ķ": 2576,
      "Ø³Ùħ": 2577,
      "à¤ľà¤²": 2578,
      "Ġwal": 2579,
      "àª°àªķ": 2580,
      "ass": 2581,
      "vern": 2582,
      "ĠCh": 2583,
      "iv": 2584,
      "yr": 2585,
      "ret": 2586,
      "ani": 2587,
      "ê¯Ľê¯ģ": 2588,
      "ich": 2589,
      "ØµÙĪ": 2590,
      "Ġà®ĩà®¨": 2591,
      "à¥įâĢĭ": 2592,
      "àŃŃ": 2593,
      "ÛĮØª": 2594,
      "Ø±Ø¨": 2595,
      "à¬°à¬°": 2596,
      "àª°àª¤": 2597,
      "à®¤à®¤": 2598,
      "Ġda": 2599,
      "Ġhome": 2600,
      "Ġ15": 2601,
      "Ġget": 2602,
      "Ġà¤°à¤¹à¤²": 2603,
      "á±Łá±¦á±Łá±": 2604,
      "à¬ļà¬³": 2605,
      "âĤ¬": 2606,
      "ST": 2607,
      "ÙĬÙ½": 2608,
      "ĠØ§Ø¨": 2609,
      "à²¿,": 2610,
      "Ġà¤ħà¤µ": 2611,
      "oud": 2612,
      "Ø¹ÙħØ§ÙĦ": 2613,
      "ident": 2614,
      "Ø§ÙħÙĦ": 2615,
      "Ġsad": 2616,
      "Ġro": 2617,
      "ĠÚ©Ù²Ø´": 2618,
      "Ġà§¨à§¦": 2619,
      "à¬ĵ": 2620,
      "ĠØ£": 2621,
      "à²°à²µ": 2622,
      "à¤¬à¤²": 2623,
      "à´¯à´®": 2624,
      "Ø¬ÛĮ": 2625,
      "Ġà¦Ĩà¦¨": 2626,
      "ê¯Ŀê¯Ħ": 2627,
      "ĠÚ©Ø±ÙĨÛĴ": 2628,
      "ĠØ¬ÙĨÙĩÙĨ": 2629,
      "ĠØªÙĪÙĩØ§ÙĨ": 2630,
      "Ġà¬ļà¬³": 2631,
      "==": 2632,
      "end": 2633,
      "à°ĸ": 2634,
      "Ø±ØŃ": 2635,
      "Ġê¯³": 2636,
      "à¤¸à¤¤": 2637,
      "ÙĦØ³": 2638,
      "Ġà´¦": 2639,
      "ĠØ³Ú©": 2640,
      "ĠØ³ÙĨØ¯": 2641,
      "Ġop": 2642,
      "ĠÚªÙĨ": 2643,
      "ÚĻÙĬ": 2644,
      "Ġàª¶àªķ": 2645,
      "Ġá±¢á±®á±±á±Łá±ľá±¼á±Ł": 2646,
      "à¤¨à¤²": 2647,
      "à¤¯à¤ľ": 2648,
      "Ġàªĺ": 2649,
      "à®ķà®¤": 2650,
      "á±ļá±¸á±": 2651,
      "à¦²à¦¤": 2652,
      "á±©á±±": 2653,
      "á±©á±ŀ": 2654,
      "ĠÙĤØ±": 2655,
      "ĠÃ¯": 2656,
      "og": 2657,
      "á±Łá±°": 2658,
      "ĠÙħØª": 2659,
      "Ġà¤ħà¤¤": 2660,
      "á±ļá±«": 2661,
      "Ġcar": 2662,
      "à¤ıà¤¸": 2663,
      "à®±à®¤": 2664,
      "ê¯Ŀê¯ĥ": 2665,
      "à¨¼à¨¿": 2666,
      "igh": 2667,
      "Ġpark": 2668,
      "ĠÙĦÛĮÛĴ": 2669,
      "Ġà¤¬à¤ļ": 2670,
      "àª°àªµ": 2671,
      "á±ļá±¥": 2672,
      "à¬¤à¬¨": 2673,
      "à¤ĩà¤¤": 2674,
      "à©Ī,": 2675,
      "àª¶àª¨": 2676,
      "Ġàª§": 2677,
      "à³Ĩ,": 2678,
      "ĠÚªÙĪ": 2679,
      "ê¯¦ê¯«": 2680,
      "Ù¾ÙĪØ±": 2681,
      "á±¤á±Ńá±Łá±¹": 2682,
      "à¥ĩà¥ĳ": 2683,
      "Ġà®°": 2684,
      "Ġà¤ªà¤¦": 2685,
      "à¤ªà¤¯": 2686,
      "Ø¯ÙĬ": 2687,
      "ĠØ¨Ø¹Ø¯": 2688,
      "ided": 2689,
      "ĠØ¯ÙĪ": 2690,
      "à¤ĥà¥ĳ": 2691,
      "à¬ī": 2692,
      "Ġàª¯": 2693,
      "Ġà´Ń": 2694,
      "á±Łá±´": 2695,
      "à¤ªà¤£": 2696,
      "Ġà¤¬à¤¡": 2697,
      "Ġà¤Ĩà¤¦": 2698,
      "á±ļá±µ": 2699,
      "ĠØ¨Ú¾": 2700,
      "ated": 2701,
      "Ġà¤ıà¤µ": 2702,
      "à©ģà©°": 2703,
      "Ġà¦ħà¦Ń": 2704,
      "Ġran": 2705,
      "Ġà°¸à°®": 2706,
      "à¨Łà¨°": 2707,
      "ways": 2708,
      "Ġá±Ľá±Łá±¦á±®á±¸": 2709,
      "á±ª": 2710,
      "Ġà¤²à¤ķ": 2711,
      "ĠÙĪÙĬÙĪ": 2712,
      "à¦Ĺà§°": 2713,
      "à¤ķà¤°à¤£": 2714,
      "ecial": 2715,
      "000": 2716,
      "ople": 2717,
      "port": 2718,
      "Ġà¤¸à¤¦": 2719,
      "ĠØ§Ø¹": 2720,
      "ĠØ³Ø¨": 2721,
      "Ġà¦Ĩà¦°": 2722,
      "Ġà¥§": 2723,
      "à¤ĩà¤¯": 2724,
      "Ġevery": 2725,
      "ÛĮØ§Ûģ": 2726,
      "Ġtwo": 2727,
      "ĠÙĪØ§ÙĤØ¹": 2728,
      "ĠØ§Ùģ": 2729,
      "à¬°à¬ķ": 2730,
      "à´°à´®": 2731,
      "ouse": 2732,
      "ĠØ¢Ú¾ÙĬ": 2733,
      "ĠÚĨÚ¾ÛĴ": 2734,
      "ĠØ´Ø±": 2735,
      "ĠØ¹Ø§Ùħ": 2736,
      "Ġá±ľá±®": 2737,
      "Ġà°īà°¨": 2738,
      "ĠØ§Ù¾ÙĨÛĴ": 2739,
      "á±Łá±µ": 2740,
      "Ġà¤®à¤¤": 2741,
      "Ġà¤ħà¤²": 2742,
      "Ġà¤ħà¤Ĺ": 2743,
      "à©ĩà¨Ĥ": 2744,
      "Ġà¦¦à¦²": 2745,
      "Ġà²ĩà²¦": 2746,
      "à¤°à¤§": 2747,
      "à¤Ĥ.": 2748,
      "Ġtree": 2749,
      "à¤ªà¤¦": 2750,
      "Ġà¤ħà¤ľ": 2751,
      "ĠØªÙħ": 2752,
      "ĠÙĨØ§ÙĦ": 2753,
      "ĠÙĨØ¸": 2754,
      "Ġ14": 2755,
      "à¨¦à¨µ": 2756,
      "Ġà¦ħà¦¸à¦®": 2757,
      "Ġà®ĩà®¤": 2758,
      "Ġà²ħà²µà²°": 2759,
      "ĠØªÚ¾ÛĴ": 2760,
      "à¤¤à¤¸": 2761,
      "à²°à²¤": 2762,
      "Ø¨Ûģ": 2763,
      "ase": 2764,
      "Ġà¦®à¦¹": 2765,
      "ĠàŃ¦": 2766,
      "àªĿ": 2767,
      "à¤¸à¤Ń": 2768,
      "Ġà°¡": 2769,
      "Ġafter": 2770,
      "ĠØ§ØŃ": 2771,
      "ê¯¡ê¯ħ": 2772,
      "ĠÚªÙħ": 2773,
      "Ġà®ħà®°": 2774,
      "ĠØ§ÙĦÙĦÛģ": 2775,
      "Ġgovern": 2776,
      "ylla": 2777,
      "à¤°à¤ļ": 2778,
      "ÙĨÙĪ": 2779,
      "Ġà¤ªà¤¡": 2780,
      "Ú¾Ø§ÙĨ": 2781,
      "Ġsor": 2782,
      "Ġà¤ħà¤¬": 2783,
      "á±®á±¡": 2784,
      "ê¯¡ê¯ķ": 2785,
      "à°ķà°°": 2786,
      "Ġsee": 2787,
      "au": 2788,
      "àªĽ": 2789,
      "àŃ¯": 2790,
      "à¦¿à¦Ĥ": 2791,
      "á±Łá±¯": 2792,
      "à¤Ĺà¤³": 2793,
      "à¬¿à¥¤": 2794,
      "Ġà¤¤à¤ķ": 2795,
      "à¨°à¨¨": 2796,
      "Ġdei": 2797,
      "ĠÙĨÙĪ": 2798,
      "ÙĨØ¯Ø±": 2799,
      "ĠÙģØ±": 2800,
      "Ġà¦ħà¦§": 2801,
      "Ġà¨īà¨®": 2802,
      "age": 2803,
      "udd": 2804,
      "ough": 2805,
      "Ø§ØµÙĦ": 2806,
      "à¤¸à¤¦": 2807,
      "Ġbl": 2808,
      "Ġput": 2809,
      "ount": 2810,
      "ise": 2811,
      "Ġà¨¨à¨¹": 2812,
      "Ġá±ŀá±®á±±": 2813,
      "Ġá±ļá±±á±Ł": 2814,
      "ĠV": 2815,
      "à§§à§": 2816,
      "à¤ķà¤®": 2817,
      "Ġà¤¸à¤¤": 2818,
      "ê¯¤.": 2819,
      "à¨°à¨®": 2820,
      "ĠÙĪÚı": 2821,
      "Ġà¤īà¤¨à¤ķ": 2822,
      "à¤Ĩà¤°": 2823,
      "Ġê¯Ĩê¯ľê¯Ĥ": 2824,
      "Ġwant": 2825,
      "Ġá±¥á±Łá±¶": 2826,
      "iz": 2827,
      "Ġà¬¡": 2828,
      "Ġà´¯": 2829,
      "á±®á±ľ": 2830,
      "ĠÚĨÚ¾Ûģ": 2831,
      "ĠØ¯ÙĨ": 2832,
      "à¦·à¦¯": 2833,
      "Ġwhich": 2834,
      "atei": 2835,
      "Ġalways": 2836,
      "Ġê¯Ĺê¯Ĵ": 2837,
      "ĠØ¦": 2838,
      "ÙĨØ²": 2839,
      "à¦¾,": 2840,
      "Ġà²²": 2841,
      "ÙĦÛĴ": 2842,
      "ÙħØ±": 2843,
      "á±ļá±Ń": 2844,
      "à°¦à°°": 2845,
      "Ġà¦Ĩà¦Ĺ": 2846,
      "à¦·à¦£": 2847,
      "Ġà´ªà´±": 2848,
      "ĠIn": 2849,
      "Ġthings": 2850,
      "Ġplaying": 2851,
      "]]": 2852,
      "à²İ": 2853,
      "à°«": 2854,
      "Ġà¬¥": 2855,
      "Ġsng": 2856,
      "à®ķà®®": 2857,
      "à³ģà²Ĥ": 2858,
      "ish": 2859,
      "ê¯Łê¯ķ": 2860,
      "Ġà¦ıà¦Ł": 2861,
      "ĠMax": 2862,
      "Ġàª®àª³": 2863,
      "Ġá±¦á±ļá±¸": 2864,
      "ĠØ§Ø³ØªØ¹ÙħØ§ÙĦ": 2865,
      "ian": 2866,
      "á±²": 2867,
      "à¤¨à¤µ": 2868,
      "à®ķà®µ": 2869,
      "ĠØ¬Ø¨": 2870,
      "ĠÙ¾Ûģ": 2871,
      "à¦¬à¦¨": 2872,
      "orm": 2873,
      "ĠÚªØ¦ÙĬ": 2874,
      "á±©á±Ľ": 2875,
      "Ġà°ªà°°": 2876,
      "ĠIST": 2877,
      "Ġres": 2878,
      "à¨¬à¨°": 2879,
      "ĠØ±ÙĪØ²": 2880,
      "Ġcont": 2881,
      "à®ľ": 2882,
      "ÛĮÙĦ": 2883,
      "à°¿,": 2884,
      "Ġà¤¬à¤ľ": 2885,
      "Ġkatei": 2886,
      "ĠÙ¾Ø§Ø±": 2887,
      "à¦¬à¦°": 2888,
      "à¤ĸà¤°": 2889,
      "Ġê¯ĳê¯Ĩ": 2890,
      "à´Ĥ.": 2891,
      "Ġà´ªà´°": 2892,
      "ĠØ§Ø³ÙĦØ§Ùħ": 2893,
      "Ġany": 2894,
      "Ġpeople": 2895,
      "Ġgovernment": 2896,
      "ky": 2897,
      "Ġà¤¬à¤²": 2898,
      "ĠØªØŃ": 2899,
      "Ġpol": 2900,
      "ĠÙĨÙħ": 2901,
      "Ġà¦Ĩà¦¹": 2902,
      "Ù¹Ø±ÛĮ": 2903,
      "ÙĨØ¯ÚĻ": 2904,
      "à¬Łà¬°": 2905,
      "Ġá±±á±ļá±¶á±Ł": 2906,
      "Ġong": 2907,
      "ê¯´": 2908,
      "Ġapp": 2909,
      "à®¤à®®": 2910,
      "ĠØ¬ÛĨ": 2911,
      "Ġkum": 2912,
      "Ø¬Ûģ": 2913,
      "Ġunder": 2914,
      "Ġá±«á±¤á±¥": 2915,
      "Ġstr": 2916,
      "à¬ĩà¬Ľ": 2917,
      "Ġà¨Ĩà¨ª": 2918,
      "kh": 2919,
      "oll": 2920,
      "à®·": 2921,
      "à®ķà®°": 2922,
      "à¤·à¤ķ": 2923,
      "à®³à®¤": 2924,
      "á±·á±Łá±¨": 2925,
      "Ġgot": 2926,
      "Ġàªµàª°": 2927,
      "ĠFr": 2928,
      "Ġdecided": 2929,
      "à´ĸ": 2930,
      "àŃĥ": 2931,
      "àŃ¨àŃ": 2932,
      "à¤¯à¤µà¤¸": 2933,
      "Ġà´¡": 2934,
      "ĠØ§ÙĩÙĪ": 2935,
      "à¦°à¦®": 2936,
      "à¦²à¦¯": 2937,
      "à¦¼à§ĭ": 2938,
      "Ġcame": 2939,
      "ÙĤÛĮ": 2940,
      "Ġà¥ª": 2941,
      "á±£": 2942,
      "Ġà´±": 2943,
      "à°°à°¤": 2944,
      "Ġà¤¶à¤°": 2945,
      "Ġgood": 2946,
      "ĠØŃÚ©": 2947,
      "ĠPM": 2948,
      "Ġà¤§à¤°": 2949,
      "ÙĪÙħØª": 2950,
      "Ġdidn": 2951,
      "Ġfeel": 2952,
      "Ġexcited": 2953,
      "ĠY": 2954,
      "Ġà¬ĸ": 2955,
      "à¤ªà¤®": 2956,
      "Ġà¤ľà¤®": 2957,
      "Ġà¤¤à¤ª": 2958,
      "Ġdown": 2959,
      "Ġê¯ĳê¯ĥ": 2960,
      "Ġá±¨á±¤á±±": 2961,
      "Ġruh": 2962,
      "Ø§Ø¨ÙĤ": 2963,
      "á±¥á±¤": 2964,
      "¸á±«": 2965,
      "ried": 2966,
      "ge": 2967,
      "àµĥ": 2968,
      "à¥Ģ-": 2969,
      "Ġà°Ĵ": 2970,
      "Ġà¤ħà¤ķ": 2971,
      "Ġdis": 2972,
      "ĠÛ±Û": 2973,
      "ĠØ±ÙĩÙĬ": 2974,
      "ĠSo": 2975,
      "à©Ī.": 2976,
      "ĠàŃ©": 2977,
      "Ġàªµàª§": 2978,
      "aka": 2979,
      "Ø¶Ø±Øª": 2980,
      "istr": 2981,
      "aj": 2982,
      "à¤µà¤ª": 2983,
      "à¦¯à¦ķ": 2984,
      "à°°à°®": 2985,
      "ĠØªÚ¾ÛĮ": 2986,
      "Ġà¥¤à¥¤": 2987,
      "Ġhow": 2988,
      "Ġspecial": 2989,
      "à¥ĭ,": 2990,
      "Ġê¯´": 2991,
      "Ġà¤®à¤¦": 2992,
      "à¤Ĺà¤£": 2993,
      "Ġfind": 2994,
      "à±ĩà°Ĥ": 2995,
      "Ġà¤¶à¤ķ": 2996,
      "Ġà¥«": 2997,
      "Ġà¨ĩà¨ķ": 2998,
      "ook": 2999,
      "ause": 3000,
      "ĠØ¦ÙĬ": 3001,
      "ave": 3002,
      "ire": 3003,
      "¹Û": 3004,
      "Ġ%": 3005,
      "à¬ł": 3006,
      "Ø±Ø§": 3007,
      "Ġà®ı": 3008,
      "Ġà¤µà¤¹": 3009,
      "ite": 3010,
      "à¦¬à§°": 3011,
      "art": 3012,
      "ared": 3013,
      "Ġnong": 3014,
      "Ġá±Łá±¡": 3015,
      "ĠØ·Ø±Ùģ": 3016,
      "Ġà®īà®³": 3017,
      "á±¤á±§á±ļá±Ľ": 3018,
      "eam": 3019,
      "we": 3020,
      "ÙŁ": 3021,
      "à±ĥ": 3022,
      "à¤¯à¤ª": 3023,
      "ÙħØª": 3024,
      "ĠØ³Ø§ØªÚ¾": 3025,
      "ÙģÛĮ": 3026,
      "ĠØ±ÛĮ": 3027,
      "ĠÙ¿Ø§": 3028,
      "Ġ200": 3029,
      "Ġá±ŀá±Łá±¹á±ľ": 3030,
      "Ġà¨īà¨¨": 3031,
      "Ġinto": 3032,
      "à¤¯à¤µ": 3033,
      "Ġtake": 3034,
      "Ġà°¯": 3035,
      "Ġà¤®à¤°": 3036,
      "Ġà¤¨à¤®": 3037,
      "à¤¬à¤¤": 3038,
      "à¦²à¦ķ": 3039,
      "ren": 3040,
      "ê¯¡ê¯ģ": 3041,
      "Ġcare": 3042,
      "ĠØ¢Ø³Ø§ÙĨ": 3043,
      "à°¯à°¨": 3044,
      "à¦¶à¦¨": 3045,
      "ĠØŃØ§ØµÙĦ": 3046,
      "ĠØ§Ø³Ø§ÙĨ": 3047,
      "á±Łá±¹á±¢": 3048,
      "à¨ĩà¨Ĩ": 3049,
      "Ġà´Ĵà´°": 3050,
      "ĠÙ¾ÙĨÙĩÙĨØ¬ÙĬ": 3051,
      "--": 3052,
      "ien": 3053,
      "Ġ!": 3054,
      "Ġ?": 3055,
      "Ġà¤ķà¤µ": 3056,
      "à²°à²ķ": 3057,
      "Ø§Ø¤": 3058,
      "ĠØ¢Ø³": 3059,
      "Ġà¦Ĩà¦²": 3060,
      "ĠÚ¯Ø§": 3061,
      "pr": 3062,
      "à²¿.": 3063,
      "Ġà¤¨à¤ķ": 3064,
      "Ġà¤ħà¤µà¤¸": 3065,
      "á±¤á±¢": 3066,
      "ild": 3067,
      "Ġinc": 3068,
      "Ġê¯Ĩê¯ł": 3069,
      "Ġyear": 3070,
      "á±®á±Ńá±Ł": 3071,
      "ĠÙħØŃÙħØ¯": 3072,
      "à¦ĥ": 3073,
      "à´«": 3074,
      "ÙĦÙĤ": 3075,
      "Ġà¤ľà¤Ĺ": 3076,
      "á±®á±¢": 3077,
      "ĠØ¨ÙĦ": 3078,
      "ĠÙĨØ§": 3079,
      "Ġà¦Ĩà¦ľ": 3080,
      "àª¸àª¨": 3081,
      "Ù½Ø±": 3082,
      "ĠØ§ÛĮØ³": 3083,
      "Ġàª¬àª¨": 3084,
      "Ġ30": 3085,
      "ĠWhen": 3086,
      "Ġknew": 3087,
      "ble": 3088,
      "vent": 3089,
      "á±ķ": 3090,
      "ê¯²": 3091,
      "Ġà¨ĺ": 3092,
      "à¤²à¤²": 3093,
      "à¤®à¤°": 3094,
      "à¤®à¤¹": 3095,
      "Ġsay": 3096,
      "à¬°à¬®": 3097,
      "ĠØ³ÙĬ": 3098,
      "Ø§Ø¶": 3099,
      "ê¯Ľê¯Ħ": 3100,
      "Ø±ÙĬÙĨ": 3101,
      "à©Ģ,": 3102,
      "Ġtold": 3103,
      "Ø¬ÙĪ": 3104,
      "ĠÙĦØ§": 3105,
      "Ġ16": 3106,
      "àªŁàª²": 3107,
      "Ġá±¡á±Łá±¦á±Łá±": 3108,
      "ê¯Īê¯Ł": 3109,
      "à¤Ĭà¤¨": 3110,
      "ĠÙħØ³ÙĦÙħ": 3111,
      "Ġê¯ĥê¯ĩê¯Ŀê¯ħ": 3112,
      "àªĨ": 3113,
      "à¤¿à¤ĥ": 3114,
      "ĠÙº": 3115,
      "ÙĬØ§ÙĨ": 3116,
      "ÙħÙĪ": 3117,
      "ÙħØ¨": 3118,
      "ĠØ§Ùĩ": 3119,
      "ĠÙħØ¯": 3120,
      "Ġà¤Ĩà¤Ī": 3121,
      "ĠÙĪÚĥ": 3122,
      "Ġlot": 3123,
      "ĠØ¹ÙĦÛĮ": 3124,
      "Ġà²¨à²¡": 3125,
      "ung": 3126,
      "Ġà¤ĩà¤¸à¤ķ": 3127,
      "Ġmommy": 3128,
      "àªĵàª¨": 3129,
      "ious": 3130,
      "oy": 3131,
      "à¤¨à¤Ĺ": 3132,
      "à¤®à¤ļ": 3133,
      "à¤¦à¤®": 3134,
      "Ġpat": 3135,
      "Ġold": 3136,
      "à®¯à®¤": 3137,
      "Ø§ÙĦÛĮ": 3138,
      "à§±à¦¸": 3139,
      "àŃ¦àŃ®àŃª": 3140,
      "fore": 3141,
      "à«ĥ": 3142,
      "à¤µà¤¯": 3143,
      "here": 3144,
      "à¤ªà¤²": 3145,
      "à¦¤à¦°": 3146,
      "ĠÚĨÛĮ": 3147,
      "Ġcat": 3148,
      "Ġà¤ļà¤°": 3149,
      "à¨ķà¨°": 3150,
      "Ø±ÛĮÙĨ": 3151,
      "à¬¸à¬¨": 3152,
      "Ġà¦īà¦¦": 3153,
      "Ġacc": 3154,
      "ov": 3155,
      "Ø§ÛĮØ§": 3156,
      "à³Į": 3157,
      "Ġà¨¯": 3158,
      "à®Łà®°": 3159,
      "Ø§Ø±Øª": 3160,
      "ÙķÛĶ": 3161,
      "Ġmar": 3162,
      "Ġê¯ĥê¯Ķ": 3163,
      "Ġhug": 3164,
      "à¦ĩà¦¨": 3165,
      "Ġà¦¹à¦¬": 3166,
      "Ġà®¤à®®": 3167,
      "à¬Ĺà¬¡": 3168,
      "Ġioh": 3169,
      "ê¯µ": 3170,
      "ê¯·": 3171,
      "à¬«": 3172,
      "à«¦": 3173,
      "à¤µà¤³": 3174,
      "á±Łá±ª": 3175,
      "àŃį-": 3176,
      "ĠÙĪØ§Ø±ÙĬ": 3177,
      "ened": 3178,
      "Ġ13": 3179,
      "Ġ25": 3180,
      "Ġà¤¥à¤®": 3181,
      "Ġá±¢á±©á±": 3182,
      "ief": 3183,
      "Ġà¨¬à¨£": 3184,
      "Ġà®¨à®Ł": 3185,
      "Ġthought": 3186,
      "Ġà´ħà´¤": 3187,
      "Ġà¤īà¤ªà¤²à¤¬": 3188,
      "á±°á±¤": 3189,
      "able": 3190,
      "Ġkane": 3191,
      "\\-": 3192,
      "á±ĵ": 3193,
      "Ġà¦ķà¦¥": 3194,
      "ord": 3195,
      "à¦¦à§°": 3196,
      "à°¯à°ķ": 3197,
      "à¬²à¬ª": 3198,
      "Ġà®ħà®µà®°": 3199,
      "á±Łá±¹á±±": 3200,
      "àŃ¦àŃ§": 3201,
      "Ġà´ĩà´¤": 3202,
      "Ġá±Łá±łá±Łá±±á±Ł": 3203,
      "028": 3204,
      "udden": 3205,
      "ê¯ļ": 3206,
      "ĠØ§Ûģ": 3207,
      "Ġà¤ľà¤¬": 3208,
      "Ø§ÙĨÛĮ": 3209,
      "Ġcall": 3210,
      "iss": 3211,
      "ĠØ¢Ø¨Ø§Ø¯": 3212,
      "Ø¬ÙĨ": 3213,
      "Ġà²ħà²¨": 3214,
      "Ġà¨īà¨¹": 3215,
      "ĠØ¬ÛĨÙħ": 3216,
      "Ġà¤¢": 3217,
      "Ø¯Ø§ÙĦ": 3218,
      "Ġà¦¸à¦¨": 3219,
      "à¦¦à¦¨": 3220,
      "Ġkam": 3221,
      "ĠÚ¯Ùĩ": 3222,
      "á±Łá±¹á±Ľ": 3223,
      "àµģà´Ĥ.": 3224,
      "Ġà°®à°°": 3225,
      "ÚĻÙĪ": 3226,
      "àŃ±à¬¤à¬¨": 3227,
      "Ġàªīàªª": 3228,
      "Ġtoys": 3229,
      "ail": 3230,
      "ied": 3231,
      "uk": 3232,
      "à¤µà¤®": 3233,
      "á±¤á±µ": 3234,
      "à®¯à®®": 3235,
      "à¤Īà¤²": 3236,
      "ĠØ±Ú©": 3237,
      "ê¯Ŀê¯ħ": 3238,
      "à¬Ĺà¬°": 3239,
      "ĠÙħÙĪØ¬ÙĪØ¯": 3240,
      "Ø§ØŃØ¨": 3241,
      "Ġtook": 3242,
      "à¨īà¨£": 3243,
      "Ġá±¥á±®á±¨á±¢á±Ł": 3244,
      "by": 3245,
      "ÙĨØ§ÙĨ": 3246,
      "Ø±ÙĨÛģ": 3247,
      "Ø³ÙĨ": 3248,
      "Ġà¤ªà¤ķ": 3249,
      "reat": 3250,
      "à¤ĸà¤²": 3251,
      "à²¯à²µ": 3252,
      "ĠØ¯ÛĮØ§": 3253,
      "ê¯Ķê¯ķ": 3254,
      "Ġus": 3255,
      "ĠØ´Ø§ÙħÙĦ": 3256,
      "Ġneed": 3257,
      "ĠÙĦÙĪÚ¯": 3258,
      "ê¯ıê¯ķê¯ģ": 3259,
      "Ġà¨Ĳ": 3260,
      "à¤®à¤£": 3261,
      "àª¾,": 3262,
      "ĠÚ©Ø§Ø±": 3263,
      "à¤ľà¤ķ": 3264,
      "Ġà¤Ĺà¤¤": 3265,
      "à´°à´£": 3266,
      "ĠÙĪØ²": 3267,
      "Ġê¯ĥê¯Ĭ": 3268,
      "à®¯à®²": 3269,
      "Ġ2020": 3270,
      "ĠÛģÙĪØ¦ÛĴ": 3271,
      "Ġà¤¸à¤ķà¤¤": 3272,
      "á±Ĳá±ĳá±": 3273,
      "Ġbecause": 3274,
      "uddenly": 3275,
      "oin": 3276,
      "ĠÚĮ": 3277,
      "à¤®à¤¦": 3278,
      "à¤µà¤¦": 3279,
      "à¤¹à¤ķ": 3280,
      "ØªÙħ": 3281,
      "Ġsn": 3282,
      "à¬¾-": 3283,
      "Ġà¤Ĩà¤Ĺ": 3284,
      "Ġà¤Ĩà¤¬": 3285,
      "Ø§ÙĨØ§": 3286,
      "à°°à°ķ": 3287,
      "ĠÙĨÛĮ": 3288,
      "Ġà¤ıà¤®": 3289,
      "Ġjust": 3290,
      "Ġeven": 3291,
      "act": 3292,
      "Ġà¬ħà¬ķ": 3293,
      "ÚĳÛĮ": 3294,
      "à±Į": 3295,
      "à¥Ģà¥Ĵ": 3296,
      "Ġàªĵ": 3297,
      "à®Łà®©": 3298,
      "Ġmuch": 3299,
      "ĠØ¢Ùģ": 3300,
      "à¦ªà§°": 3301,
      "Ġhouse": 3302,
      "Ġá±¥á±®á±": 3303,
      "Ġá±¥á±¤á±§á±ļá±Ľ": 3304,
      "Ġá±¢á±®á±±": 3305,
      "other": 3306,
      "Ġà¬¬à¬°": 3307,
      "Ġà®ħà®®": 3308,
      "Ġknow": 3309,
      "Ġà¬«": 3310,
      "Ġà²¡": 3311,
      "à¥ģà¤ģ": 3312,
      "ĠØ¬ÚıÙĩÙĨ": 3313,
      "ê¯¡ê¯Ĭ": 3314,
      "à²¨à²²": 3315,
      "Ġcr": 3316,
      "à¤ıà¤®": 3317,
      "à°Łà°°": 3318,
      "ĠÚ¯Ø§Ùħ": 3319,
      "à¤Ĩà¤Ī": 3320,
      "Ġbefore": 3321,
      "Ġà¦ļà¦²": 3322,
      "Ġshow": 3323,
      "Ġà¦ıà¦ķà¦Ł": 3324,
      "á±Łá±¡á±½": 3325,
      "ning": 3326,
      "ok": 3327,
      "Û°": 3328,
      "à®ĩ": 3329,
      "ĠÙĥ": 3330,
      "à¤¦à¤ķ": 3331,
      "Ġà´ı": 3332,
      "à²°à²®": 3333,
      "à©Ģà¥¤": 3334,
      "ê¯łê¯ĩ": 3335,
      "Ġà´ĩà´¨": 3336,
      "Ġá±ĳá±Ļá±": 3337,
      "ĠÙħØ·Ø§Ø¨ÙĤ": 3338,
      "Ġà¨Ĩà¨ªà¨£": 3339,
      "vel": 3340,
      "Ġ...": 3341,
      "à§§": 3342,
      "à¥ĩ-": 3343,
      "Ø±Ú©": 3344,
      "Ġà´Ł": 3345,
      "ĠØ¬Ùħ": 3346,
      "ĠÙĪÚĮ": 3347,
      "Ġà¤Ńà¤°": 3348,
      "à¦¸à¦ķà¦²": 3349,
      "Ù²ÛĮ": 3350,
      "Ġ17": 3351,
      "ÙĪÙĨÛģ": 3352,
      "Ġá±ļá±±": 3353,
      "Ġ[[": 3354,
      "Ġá±¦á±©á±Ńá±©á±ľ": 3355,
      "istrict": 3356,
      "wn": 3357,
      "Ġif": 3358,
      "Ġà¤ĳ": 3359,
      "à°İ": 3360,
      "à¤²à¤µ": 3361,
      "Ġê¯İ": 3362,
      "à¥Ī.": 3363,
      "Ġà¤Ĩà¤ķ": 3364,
      "Ø§ÙĨÛĴ": 3365,
      "á±ļá±¡": 3366,
      "Ġkat": 3367,
      "ĠØªÚ©": 3368,
      "ĠØªØ§Ø¦ÙĬÙĨ": 3369,
      "Ġ()": 3370,
      "als": 3371,
      "ĠØ±Ø³": 3372,
      "Ø¦ÙĨ": 3373,
      "Ġà¤Ľà¤¥": 3374,
      "à¤ĩà¤®": 3375,
      "ĠØ¹Ø¨": 3376,
      "á±Łá±¹á±Ń": 3377,
      "ĠÚ©ÛģØ§": 3378,
      "à¤ħà¤¨": 3379,
      "Ġê¯ıê¯Łê¯Ĺ": 3380,
      "Ġwater": 3381,
      "iang": 3382,
      "mer": 3383,
      "sh": 3384,
      "ê¯¶": 3385,
      "ÙĪØ§ÙĦ": 3386,
      "Ġsur": 3387,
      "à¤ľà¤¯": 3388,
      "à²°à²£": 3389,
      "à¤§à¤°": 3390,
      "Ġmy": 3391,
      "à¦Ľà¦¤": 3392,
      "à´µà´¨": 3393,
      "Ġàª¤àª®": 3394,
      "ĠÚ©Ø±ØªÛĴ": 3395,
      "ĠØµØ§ØŃØ¨": 3396,
      "Ġà¤¸à¤ķà¤¦": 3397,
      "Ġcomp": 3398,
      "à§İà¦¸": 3399,
      "Ġá±ŀá±Łá±¹á±ľá±¤á±«": 3400,
      "old": 3401,
      "ĠÂ": 3402,
      "àª¾.": 3403,
      "à¦°à¦¸": 3404,
      "à¤Ĺà¤®": 3405,
      "Ġbet": 3406,
      "rei": 3407,
      "Ø§Ø±ÛĴ": 3408,
      "ĠÙĪÛĮ": 3409,
      "ĠØ¢Ùħ": 3410,
      "á±·á±Łá±±": 3411,
      "Ġbeing": 3412,
      "Ġá±¯á±¨": 3413,
      "ĠØ·Ø±ØŃ": 3414,
      "Ø±ÙĪØ¹": 3415,
      "Ġyour": 3416,
      "ê¯ŀê¯Ħ": 3417,
      "Ġsorkar": 3418,
      "Ġà°Ĵà°ķ": 3419,
      "10": 3420,
      "Ùī": 3421,
      "à¨Ŀ": 3422,
      "à¤²à¤Ĺ": 3423,
      "Ġà¤ªà¤¢": 3424,
      "Ġsl": 3425,
      "Ú©Ø³": 3426,
      "ĠØªÙĤ": 3427,
      "ĠÙ¾ÙĪØ±": 3428,
      "à¤·à¤¯": 3429,
      "Ø¨ÙĦ": 3430,
      "à´Łà´ķ": 3431,
      "àªµàª¸": 3432,
      "ĠÚªÙĬ": 3433,
      "ÙģØ±": 3434,
      "à¦ªà¦°": 3435,
      "ĠÙģØ±Ùħ": 3436,
      "Ġà¦ħà¦¬": 3437,
      "ĠHer": 3438,
      "ê¯ıê¯ģ": 3439,
      "Ġà¨īà¨¸": 3440,
      "à±Ĭà°Ĥ": 3441,
      "ĠÙ¾ÙĪØ¡": 3442,
      "Ġ0": 3443,
      "à§«": 3444,
      "Ġà´Ĺ": 3445,
      "à®¿,": 3446,
      "à¦²à¦¨": 3447,
      "àª¨àª¨": 3448,
      "ĠÛģÙĪÙĨ": 3449,
      "Ġmon": 3450,
      "à¤Ńà¤µ": 3451,
      "Ġ24": 3452,
      "Ġà¬ªà¬¹": 3453,
      "ĠÙģÙĪ": 3454,
      "Ġá±¯á±ļá±±á±ļá±Ľ": 3455,
      "bah": 3456,
      "ump": 3457,
      "Ġà¬ħà¬¨": 3458,
      "ĠÚıÙĬ": 3459,
      "mb": 3460,
      "ËĲ": 3461,
      "ê¯³": 3462,
      "à¤¾á³ļ": 3463,
      "à¥į,": 3464,
      "à¤¨à¤¦": 3465,
      "ê¯¤,": 3466,
      "ÙħÙĬ": 3467,
      "Ø¯Ø§ÙĨ": 3468,
      "Ġà¤¨à¤Ĺà¤°": 3469,
      "Ø§Ø®": 3470,
      "ĠØªÙĨ": 3471,
      "anc": 3472,
      "Ġdad": 3473,
      "oth": 3474,
      "ÚĨÙĬ": 3475,
      "ĠÚ©ÙĪØ¦ÛĮ": 3476,
      "Ġà¥§à¥¯": 3477,
      "Ġà¤ªà¤¹à¤²": 3478,
      "ĠØ±ÛģÛĴ": 3479,
      "Ġadd": 3480,
      "ĠØ³ÙĨØ¯Ø³": 3481,
      "ose": 3482,
      "wei": 3483,
      "ÙĨØł": 3484,
      "ĠÚ©Ø§Ùħ": 3485,
      "Ø¨Øª": 3486,
      "Ġà¦¸à¦Ń": 3487,
      "Ġà¤¯à¤¸": 3488,
      "à¦Łà¦¨": 3489,
      "ÚªÙĬ": 3490,
      "ĠÚ¯Ø±": 3491,
      "à¨®à¨²": 3492,
      "Ġà¨ªà¨¹": 3493,
      "Ġà²ªà²°": 3494,
      "Ġá±®á±¢": 3495,
      "Ø§ÙĪØ§Ø±": 3496,
      "ĠEvery": 3497,
      "à¬ĵà¬¡": 3498,
      "Ġà¤ķà¤¸": 3499,
      "ÙĦØ§Ùģ": 3500,
      "ĠÙ¾Ù²": 3501,
      "oun": 3502,
      "ors": 3503,
      "à¨¸à¨²": 3504,
      "à®³à®°": 3505,
      "à¤ĩà¤¸": 3506,
      "Ġá±ŀá±®á±«": 3507,
      "Ġà¤®à¤¹à¤¤": 3508,
      "Ġà²Ĩà²Ĺ": 3509,
      "ĠÃ¯a": 3510,
      "Ġà®ħà®°à®ļ": 3511,
      "Úį": 3512,
      "ÙĦØ¹": 3513,
      "Ġà´«": 3514,
      "ĠÙħØ§Ø±": 3515,
      "ĠÙ¾Ùĩ": 3516,
      "ĠÚĨÙĪ": 3517,
      "àªµàª¨": 3518,
      "Ġà¤¯à¤¦": 3519,
      "ĠÙĦÚ¯": 3520,
      "ĠÙĩÙĬ": 3521,
      "á±Ľá±®": 3522,
      "Ġà®Ĩà®£": 3523,
      "Ġexpl": 3524,
      "Ġá±ŀá±®á±łá±Łá±Ľá±®": 3525,
      "à¤°à¤¥": 3526,
      "Ġê¯ī": 3527,
      "ĠØ§Øµ": 3528,
      "ĠÙħØ§Ú»": 3529,
      "Ø§ÙĨÛģ": 3530,
      "Ġà¤Ĺà¤Ī": 3531,
      "à«Ģ,": 3532,
      "ition": 3533,
      "ÚªØ§Ø±": 3534,
      "Ġinside": 3535,
      "ĠÙĦÚ©": 3536,
      "à¬®à¬°": 3537,
      "á±Łá±¹á±£": 3538,
      "ĠÙ¿ÙĬÙĪ": 3539,
      "Ġà°¤à°¨": 3540,
      "Ġnever": 3541,
      "à¤¹à¤£à¤ľ": 3542,
      "ID": 3543,
      "à¨Ľ": 3544,
      "à¤¨à¤¤": 3545,
      "à¤¨à¤ļ": 3546,
      "Ú©ÛĴ": 3547,
      "à¤¬à¤¦": 3548,
      "ans": 3549,
      "Ġà¦ķà¦®": 3550,
      "à«ĭàªĤ": 3551,
      "Ġà¦¸à¦ķà¦²": 3552,
      "Ġhar": 3553,
      "Ġhand": 3554,
      "Ø´Ûģ": 3555,
      "Ġà¤ıà¤¨": 3556,
      "ĠAn": 3557,
      "Ġà¦²à¦Ĺà¦¤": 3558,
      "Ġà²Ĩà²°": 3559,
      "Ġá±ļá±ł": 3560,
      "ĠÙĪØ§Ø±ÛĮØ§Ûģ": 3561,
      "Ã¢": 3562,
      "ØŁ": 3563,
      "à«Ī": 3564,
      "Ġsec": 3565,
      "Ġà¤¤à¤¦": 3566,
      "à¦²à§°": 3567,
      "ham": 3568,
      "à¦¼,": 3569,
      "ĠØ¨ÚĨ": 3570,
      "Ø¨ÙĪ": 3571,
      "à²¤à²¨": 3572,
      "Ø²Ø§Ø±": 3573,
      "ory": 3574,
      "à®ªà®°": 3575,
      "Ġê¯ĥê¯Ĥ": 3576,
      "à¦¦à¦ķ": 3577,
      "à¨ķà¨¸": 3578,
      "ê¯Ŀê¯Ĺ": 3579,
      "ĠØ´Ø±ÙĪØ¹": 3580,
      "ical": 3581,
      "Ġà®®à®ķ": 3582,
      "ĠØŃØ§ÙĦ": 3583,
      "ÚĪÛĮ": 3584,
      "à¬ĩà¬¥": 3585,
      "Ġá±ľá±ļá±´": 3586,
      "ĠPr": 3587,
      "ĠJack": 3588,
      "á±Ĺ": 3589,
      "à¤¯à¤¬": 3590,
      "Ø±Ø³": 3591,
      "à¤ķà¤¸": 3592,
      "à¤¹à¤®": 3593,
      "Ġà¦¸à¦¹": 3594,
      "Ø¦Ø§": 3595,
      "Ġà®ªà®Ł": 3596,
      "Ġá±«á±·": 3597,
      "ĠØŃØ¶Ø±Øª": 3598,
      "elf": 3599,
      "Ġàª®àª¹": 3600,
      "Ġrun": 3601,
      "àªĹàª°": 3602,
      "Ġrem": 3603,
      "Ø·Ø±": 3604,
      "Ġá±®á±ŀ": 3605,
      "Ø¢ÙĨ": 3606,
      "ÙĢ": 3607,
      "àŃ®": 3608,
      "àŃĮ": 3609,
      "à¨°à¨Ł": 3610,
      "hah": 3611,
      "á±®á±´": 3612,
      "à´¾à´Ĥ": 3613,
      "à¦®à¦¤": 3614,
      "à´°à´µ": 3615,
      "Ø²Ø§Ø¯": 3616,
      "ĠÚªÙĦ": 3617,
      "Ġ23": 3618,
      "à¥ĥà¥Ĵ": 3619,
      "Ġá±µá±Łá±Ŀ": 3620,
      "Ġà°ħà°¯": 3621,
      "ign": 3622,
      "Ġthree": 3623,
      "Ġà¦ķà¦°à¦¤": 3624,
      "Ġscared": 3625,
      "Ġsngi": 3626,
      "Ġá±¡á±Łá±¦á±Łá±¸": 3627,
      "ting": 3628,
      "à¨¯": 3629,
      "à§ª": 3630,
      "ÙĪØ§": 3631,
      "Ġtra": 3632,
      "à¤µà¤¶": 3633,
      "á±Łá±¸á±": 3634,
      "ĠÚ©Ùħ": 3635,
      "ĠÚ©Ø´": 3636,
      "à¨°à¨ľ": 3637,
      "à®°à®¤": 3638,
      "à¦®à§°": 3639,
      "Ġà¦¬à¦Ľ": 3640,
      "à±ĭà°Ĥ": 3641,
      "Ġá±¥á±Łá±ŀ": 3642,
      "à¤ĩà¤²": 3643,
      "à¤łà¤®": 3644,
      "ĠHis": 3645,
      "à¬¸à¬ª": 3646,
      "àªľàª¨": 3647,
      "uring": 3648,
      "ê¯İê¯Ħ": 3649,
      "Ġliked": 3650,
      "ê¯Ĩê¯ł": 3651,
      "Ġoutside": 3652,
      "__": 3653,
      "eep": 3654,
      "ih": 3655,
      "xt": 3656,
      "à²«": 3657,
      "ÙĨØª": 3658,
      "à¤¦à¤µ": 3659,
      "ons": 3660,
      "ane": 3661,
      "Ġfir": 3662,
      "à´°à´¸": 3663,
      "Ġà¤Ńà¤µ": 3664,
      "à´²à´¯": 3665,
      "ĠØ±Ú©Ú¾": 3666,
      "Ġà¤ıà¤¸": 3667,
      "esh": 3668,
      "Ġend": 3669,
      "à¨Ĺà¨°": 3670,
      "Ġà²µà²°": 3671,
      "Ġê¯Ĺê¯ħ": 3672,
      "avani": 3673,
      "ĠØ¬ÙĬÚªÙĪ": 3674,
      "Ġá±©á±±á±¤": 3675,
      "ĠFrom": 3676,
      "JP": 3677,
      "ne": 3678,
      "á±Ķ": 3679,
      "à¤¤à¤ļ": 3680,
      "à¥ĭà¥ħ": 3681,
      "ÙĦÙģ": 3682,
      "Ġà¤µà¤¸": 3683,
      "ĠØ¨Ø§ÙĤ": 3684,
      "Ù¾Ø±": 3685,
      "à¦·à¦ķ": 3686,
      "Ġàªªàª¹": 3687,
      "àªŁàª¨": 3688,
      "Ġà°ħà°µ": 3689,
      "Ġá±Ľá±Łá±Ń": 3690,
      "à²Ĺà²³à²²": 3691,
      "Ġbox": 3692,
      "ĠÚ³ÙĪ": 3693,
      "Team": 3694,
      "his": 3695,
      "Ø§ÙĩÙĬ": 3696,
      "ÙĪØ§Ùħ": 3697,
      "à¤¯à¤¥": 3698,
      "Ġà®Ł": 3699,
      "à¤ªà¤Ľ": 3700,
      "à¦¤à¦¨": 3701,
      "Ġà¤¨à¤°": 3702,
      "Ġbun": 3703,
      "á±ļá±Ŀ": 3704,
      "Ġà¤¤à¤¯": 3705,
      "ĠÙ¾Ø§Ø³": 3706,
      "ê¯Ľê¯Ĥ": 3707,
      "à°®à°¨": 3708,
      "ĠÙģÛĮ": 3709,
      "ĠØ²ÙĨØ¯": 3710,
      "aking": 3711,
      "dayavani": 3712,
      "Ġá±«á±¤á±¥á±ļá±¢": 3713,
      ").": 3714,
      "ÚĦ": 3715,
      "ê¯¸": 3716,
      "à¨ł": 3717,
      "ĠØ¤": 3718,
      "à¤¤à¤ª": 3719,
      "Ġà´¹": 3720,
      "à¤Ĺà¤¨": 3721,
      "Ú©ÙĦ": 3722,
      "à¤¶à¤¤": 3723,
      "ered": 3724,
      "ance": 3725,
      "Ġfore": 3726,
      "àª¤àª¨": 3727,
      "Ø¹Ûģ": 3728,
      "ĠSam": 3729,
      "Ġà¦®à¦§": 3730,
      "à¨¼à©Ģ": 3731,
      "Ġà²¸à²®": 3732,
      "Ġà®¤à®²": 3733,
      "ĠBob": 3734,
      "Ġà´ħà´¨": 3735,
      "ÚĳÚ¾": 3736,
      "ations": 3737,
      "Ġà¨ķà¨°à¨¦": 3738,
      "ĠUdayavani": 3739,
      "Ø«Ø±": 3740,
      "aid": 3741,
      "aut": 3742,
      "á±ĳá±": 3743,
      "Ġà¬ĺ": 3744,
      "Ġà¤¸à¤µ": 3745,
      "Ġam": 3746,
      "à¦¯à¦¬": 3747,
      "Ġà¤Ĩà¤¶": 3748,
      "Ġbar": 3749,
      "á±ļá±¯": 3750,
      "à¨°à¨¦": 3751,
      "à¤¡à¤ķ": 3752,
      "à¤§à¤¤": 3753,
      "à¤·à¤¤": 3754,
      "Ġlad": 3755,
      "Ġcha": 3756,
      "ÙĪØ±Ø³": 3757,
      "ĠØ¯ÛĮÙĨ": 3758,
      "Ġà¦Ĩà¦¸": 3759,
      "ĠMinister": 3760,
      "à¦¥à¦®": 3761,
      "Ġá±Łá±Ń": 3762,
      "ê¯ĥê¯ħ": 3763,
      "Ġplayed": 3764,
      "Ġà¨¸à¨ķà¨¦": 3765,
      "ĠÙĪÚĥÙĬ": 3766,
      "ward": 3767,
      "à¤¨à¤¬": 3768,
      "à¤¯à¤Ĺ": 3769,
      "ĠØ§Ø¯": 3770,
      "ÙİÙĽ": 3771,
      "Ġsw": 3772,
      "Ġbu": 3773,
      "ised": 3774,
      "ÚªØ±": 3775,
      "ĠSt": 3776,
      "ĠSuddenly": 3777,
      "ĠÙĦØ¦ÛĴ": 3778,
      "ĠÚ¯ÛĮ": 3779,
      "Ġà¦¹à¦²": 3780,
      "à¤Ľà¤¨": 3781,
      "Ġjylla": 3782,
      "Ġstate": 3783,
      "Ġ2018": 3784,
      "ĠÂ»": 3785,
      "Ùĥ": 3786,
      "à¤°à¤Ĺ": 3787,
      "Ġàªĩ": 3788,
      "à¦¿,": 3789,
      "ĠÚ©Ø³ÛĮ": 3790,
      "ĠÙħÙĪÙĦ": 3791,
      "à¤ľà¤®": 3792,
      "à¤ľà¤ª": 3793,
      "ĠÚĨØ§Ûģ": 3794,
      "Ġê¯ĳê¯Ķ": 3795,
      "à®©à®¤": 3796,
      "Ġà¦¸à¦¬": 3797,
      "Ġê¯ĥê¯Ħ": 3798,
      "à¤Ńà¤°": 3799,
      "ÙĪØ±ÙĬ": 3800,
      "Ø§Ø¦ÙĦ": 3801,
      "à²¡à²²": 3802,
      "ĠØ¹ÙĦÙĬ": 3803,
      "Ġà¬¸à¬¹": 3804,
      "à¤¼à¤¿": 3805,
      "à¤łà¤ķ": 3806,
      "ĠØ§ÙĨÛģ": 3807,
      "Ġà´µà´°": 3808,
      "ember": 3809,
      "Ġà´Ĩà´°": 3810,
      "Ġdog": 3811,
      "12": 3812,
      "à¦ħ": 3813,
      "Ġà¨Ľ": 3814,
      "ĠÙ²": 3815,
      "à¤µà¤¡": 3816,
      "ÙĦØ§ÙĨ": 3817,
      "ÙħØ§Ø±": 3818,
      "ØªÙĪ": 3819,
      "Ú¾ÙĪ": 3820,
      "à¨¾,": 3821,
      "Ġsun": 3822,
      "à®¤à®©": 3823,
      "à¤¬à¤Ī": 3824,
      "à°°à°¸": 3825,
      "Ġkin": 3826,
      "Ġcount": 3827,
      "à´Łà´¨": 3828,
      "Ġà¦¬à§°": 3829,
      "Ù¾ÛĮ": 3830,
      "Ġà¥¬": 3831,
      "Ø§Ø¦ÙĨ": 3832,
      "Ġ27": 3833,
      "à´ļà´¤": 3834,
      "Ġà®µà®´": 3835,
      "Ġá±¯á±Łá±¹á±¨": 3836,
      "Ġà²ħà²§": 3837,
      "ool": 3838,
      "Ġthr": 3839,
      "Ġà¤Ĳà¤¸": 3840,
      "á±Ľá±¤": 3841,
      "Ġà¬Łà¬Ļ": 3842,
      "Ġwhile": 3843,
      "Ġê¯ıê¯Į": 3844,
      "àŃ¦àŃ¨àŃ§": 3845,
      "ê¯Ŀê¯Ħê¯ħ": 3846,
      "Ġcareful": 3847,
      "ĠÚ³ÙĪÙº": 3848,
      "li": 3849,
      "ull": 3850,
      "àªī": 3851,
      "Ø¯Ø§Ø¯": 3852,
      "à¤ļà¤°": 3853,
      "à¤Łà¤¤": 3854,
      "ĠÙĨØ§Ùħ": 3855,
      "Ġê¯ĥê¯Ī": 3856,
      "Ù²Ø±": 3857,
      "Ù¾ÙĪ": 3858,
      "Ġ21": 3859,
      "ĠThen": 3860,
      "Ġà§§": 3861,
      "Ġà¤¸à¤®à¤¯": 3862,
      "ØµÛģ": 3863,
      "Ġà¥§à¥¦": 3864,
      "Ġà²ľà²¨": 3865,
      "Ġpart": 3866,
      "Ġà¦§à§°": 3867,
      "Ġoffic": 3868,
      "++": 3869,
      "la": 3870,
      "ving": 3871,
      "à¥ģà¤ĥ": 3872,
      "à¨¾à¥¤": 3873,
      "ĠÙ¾Ø§Úª": 3874,
      "ens": 3875,
      "Ġmynta": 3876,
      "ÙĨØ¯ÛĮ": 3877,
      "á±©á±ł": 3878,
      "ĠØ´Ûģ": 3879,
      "à¦¹à§°": 3880,
      "Ġà¦ıà¦¨": 3881,
      "Ġá±Łá±ľ": 3882,
      "Ġà¨¬à¨¹": 3883,
      "Ġê¯ĩê¯Ģ": 3884,
      "ĠÚ¾Úª": 3885,
      "à¥¨à¥¦": 3886,
      "ĠÙĪØ§ÙĦÛĴ": 3887,
      "ĠØ¨ÛģØª": 3888,
      "à¤¨à¤°": 3889,
      "à¤¤à¤¯": 3890,
      "Ġà²Ł": 3891,
      "ĠØ§Ø¬": 3892,
      "ĠÙħØ¬": 3893,
      "Ġkit": 3894,
      "Ġà¤°à¤ķ": 3895,
      "à´°à´ķ": 3896,
      "Ġà¦¬à¦¹": 3897,
      "Ġà¦ıà¦°": 3898,
      "àªŁàª°": 3899,
      "Ġà§©": 3900,
      "Ġá±¢á±Łá±¨": 3901,
      "ĠMar": 3902,
      "ely": 3903,
      "Ġà®ħà®©": 3904,
      "àªľàª°": 3905,
      "ĠÛģÙĪØ§": 3906,
      "ĠàŃ§àŃ¦": 3907,
      "à¬Ľà¬¨": 3908,
      "ĠØ¶Ø±": 3909,
      "Ġmany": 3910,
      "ê¯ıê¯Ħê¯ĩ": 3911,
      "ĠÙħØ³ÙĦÙħØ§ÙĨ": 3912,
      "15": 3913,
      "30": 3914,
      "à°Ĩ": 3915,
      "à¨Ĭ": 3916,
      "à¤¸à¤¹": 3917,
      "Ġà¤¸à¤«": 3918,
      "ĠØ¬ÙĪÙĨ": 3919,
      "à´¤à´®": 3920,
      "Ø¨ÙĬ": 3921,
      "à¬¬à¬²à¬ª": 3922,
      "à¨¸à¨Ł": 3923,
      "ÙģØ¸": 3924,
      "âĢĻâĢĻ": 3925,
      "Ġgl": 3926,
      "ĠØ´Ø§": 3927,
      "à¬ªà¬¤": 3928,
      "ØłÙĨ": 3929,
      "ongress": 3930,
      "Ġrec": 3931,
      "Ġà®ĩà®²": 3932,
      "yng": 3933,
      "Ġlaug": 3934,
      "Ġà´ħà´µ": 3935,
      "à°·à°¨": 3936,
      "ÚĺÚ¾Ø§ÙĨ": 3937,
      "Ġà¤¹à¤®à¤°": 3938,
      "Ġá±§á±©á±Ľ": 3939,
      "ĠØªÙħØ§Ùħ": 3940,
      "ê¯¹": 3941,
      "à¨ĵ": 3942,
      "àµĹ": 3943,
      "Ø±ÛĴ": 3944,
      "à¤®à¤Ĺ": 3945,
      "Ġà¤¸à¤ļ": 3946,
      "ÙĦÙĩ": 3947,
      "à¤¦à¤Ĺ": 3948,
      "à±į,": 3949,
      "à¦°à¦¦": 3950,
      "Ú©Ø§": 3951,
      "à«ĢàªĤ": 3952,
      "á±®á±µ": 3953,
      "à®Łà®Ļ": 3954,
      "à´¯à´ķ": 3955,
      "Ġcle": 3956,
      "Ġà¤īà¤®": 3957,
      "Ġà¦Ĩà¦¬": 3958,
      "ĠÚ¯ÙĪ": 3959,
      "Ġunt": 3960,
      "à¥ĥà¥ĳ": 3961,
      "ê¯ĩê¯Ķ": 3962,
      "Ġà´¸à´®": 3963,
      "Ġà°¤à°°": 3964,
      "ement": 3965,
      "Ġ50": 3966,
      "ĠØ¢Ø±Ù¹Ø±ÛĮ": 3967,
      "Ġcalled": 3968,
      "Ġá±§á±©á±Ľá±©á±¢": 3969,
      "be": 3970,
      "opped": 3971,
      "á±ĸ": 3972,
      "à§©": 3973,
      "Ġtried": 3974,
      "ÙĦØ·": 3975,
      "Ġà´Ī": 3976,
      "Ġà´ĵ": 3977,
      "Ġà¤¨à¤¯": 3978,
      "Ġà¤Ĺà¤²": 3979,
      "à¤§à¤ķ": 3980,
      "ĠØ¨ÙĬ": 3981,
      "Ġfam": 3982,
      "ather": 3983,
      "à¨¸à¨¤": 3984,
      "à®¯à®°": 3985,
      "Ġá±łá±Łá±Ľá±®": 3986,
      "Ġá±łá±Łá±¹á±¢": 3987,
      "ĠÚªØ§Ø±": 3988,
      "àªķàª°": 3989,
      "Ġeach": 3990,
      "Ġrep": 3991,
      "Ġà¦ļà§°à¦ķ": 3992,
      "ational": 3993,
      "Ġlearn": 3994,
      "ction": 3995,
      "ourt": 3996,
      "Ġàª¥àª¯": 3997,
      "ĠØ§Ù¾ÙĨÛĮ": 3998,
      "Ġproud": 3999,
      "50": 4000,
      "OV": 4001,
      "ft": 4002,
      "Ġá±Ĳ": 4003,
      "ÙħØ§": 4004,
      "Ġsu": 4005,
      "Ġway": 4006,
      "Ú©ÙĪ": 4007,
      "à²²à²ķ": 4008,
      "Ġà¦ªà¦¡": 4009,
      "Ġà¦¸à¦¦": 4010,
      "ĠÚªØªØ§Ø¨": 4011,
      "ĠSar": 4012,
      "à¦ľà§°": 4013,
      "ĠÙĩØ¦ÙĬ": 4014,
      "ĠÙĩØ¦Ø§": 4015,
      "Ú»ÙĬ": 4016,
      "Ġstay": 4017,
      "à¬¦à¬°": 4018,
      "084": 4019,
      "Ġà®ıà®±": 4020,
      "me": 4021,
      "à§®": 4022,
      "ĠÙħØµ": 4023,
      "ĠÙħØ®Øª": 4024,
      "à°°à°Ń": 4025,
      "ĠØ³ÚĢ": 4026,
      "à©Ģ.": 4027,
      "ital": 4028,
      "Ġcro": 4029,
      "Ġdep": 4030,
      "Ġê¯ĳê¯ī": 4031,
      "à²¯à²°": 4032,
      "Ġà¦Ĩà¦¦": 4033,
      "ĠÙĦÚ³": 4034,
      "Ø¦Ø±": 4035,
      "ĠØ´ÛĮ": 4036,
      "Ġà¬¸à¬¨": 4037,
      "urn": 4038,
      "ĠDel": 4039,
      "ĠÚ¾ÙĨ": 4040,
      "Ġà¤īà¤¨à¤²": 4041,
      "Ġfirst": 4042,
      "OVID": 4043,
      "gan": 4044,
      "à¨Ĳ": 4045,
      "Ġà¨§": 4046,
      "Ġê¯Ķ": 4047,
      "Ġà®Ĭ": 4048,
      "ÙħØ¨Ø±": 4049,
      "Ø¯Ùħ": 4050,
      "à®¤à®°": 4051,
      "Ġcome": 4052,
      "à´Łà´Ļ": 4053,
      "Ġà¦¬à¦¨": 4054,
      "ÙĪØ±ÛĮ": 4055,
      "àªµàªµ": 4056,
      "Ġà¨¸à¨°": 4057,
      "Ġà¤īà¤¸à¤ķ": 4058,
      "Ġnow": 4059,
      "à¨ķà¨¤": 4060,
      "Ġà¦Ĩà¦ķ": 4061,
      "à¥Įà¤ģ": 4062,
      "Ġgave": 4063,
      "à´ªà´¤": 4064,
      "Ġà®ķà®²": 4065,
      "à¨Ĩà¨°": 4066,
      "ĠØ§ÙĨÙĩÙĨ": 4067,
      "Ġê¯Ĩê¯į": 4068,
      "ĠAnd": 4069,
      "ÙĨØ¯ÙĪØ³ØªØ§ÙĨ": 4070,
      "à§¦à§¦": 4071,
      "ĠØ¶ÙĦØ¹": 4072,
      "Ġparty": 4073,
      "à¦īà¦¨": 4074,
      "Ø§ÙĩÙĩ": 4075,
      "Ġá±´á±·": 4076,
      "It": 4077,
      "ait": 4078,
      "nong": 4079,
      "oe": 4080,
      "à¤Ĥ,": 4081,
      "hes": 4082,
      "Ġà®ľ": 4083,
      "ĠØ§Ø®": 4084,
      "à¤Ĺà¤µ": 4085,
      "à¤ľà¤¸": 4086,
      "à¬¿-": 4087,
      "Ġà¤Ĩà¤ĩ": 4088,
      "à¦ķà¦¤": 4089,
      "Ġkind": 4090,
      "à²²à²µ": 4091,
      "Ø´Øª": 4092,
      "Ġà¨¸à¨°à¨ķ": 4093,
      "à°¯à°²": 4094,
      "Ġàªķàª¹": 4095,
      "Ġ100": 4096,
      "à´³à´¤": 4097,
      "Ġàªªàª¡": 4098,
      "à¤łà¤¨": 4099,
      "à¦ļà¦²": 4100,
      "Ġà¦¤à¦¥": 4101,
      "àªªàª¨": 4102,
      "ĠØµØŃ": 4103,
      "ĠRs": 4104,
      "Ġà²ĩà²²": 4105,
      "à¤¾à¤ĥà¥¤": 4106,
      "Ġá±Łá±łá±Łá±«": 4107,
      "àŃ¦àŃ¨àŃ®àŃ": 4108,
      "Ġá±ŀá±®á±±á±Ł": 4109,
      "Ġuntil": 4110,
      "ee": 4111,
      "ket": 4112,
      "Ġà¤Ĭ": 4113,
      "á±ĺ": 4114,
      "ÙĦØ¨": 4115,
      "à¤ªà¤¸": 4116,
      "à¦°à¦¬": 4117,
      "à¦¤à¦¬": 4118,
      "à¦¤à¦®": 4119,
      "ĠØ¬Ø§Øª": 4120,
      "Ġà¤°à¤ĸ": 4121,
      "ĠÙ¾Ú»": 4122,
      "Ġcent": 4123,
      "à¬¨à¬°": 4124,
      "Ú¯Ø±ÛĮ": 4125,
      "àª¯àª®": 4126,
      "ĠØ¯ÛĦ": 4127,
      "á±©á±´": 4128,
      "à¦ĩà¦²": 4129,
      "Ġà®ªà®²": 4130,
      "ower": 4131,
      "à²ľà²¨": 4132,
      "ept": 4133,
      "ka": 4134,
      "ynd": 4135,
      "à§¬": 4136,
      "ĠØ¸": 4137,
      "à¤°à¤«": 4138,
      "à¤®à¤ª": 4139,
      "Ġà²«": 4140,
      "Ġai": 4141,
      "ĠØ§Ú¯Ø±": 4142,
      "Ø³ÙĬ": 4143,
      "ink": 4144,
      "àª°àª¸": 4145,
      "à¥Ĥà¥Ĵ": 4146,
      "ĠØªØ¨": 4147,
      "à¤·à¤®": 4148,
      "Ġpers": 4149,
      "ĠÙĨØ§ÙĪ": 4150,
      "Ġà¤īà¤ł": 4151,
      "àªķàª¨": 4152,
      "ĠØ¯Ø¹": 4153,
      "ê¯Ķê¯Ĺ": 4154,
      "á±¨á±¤": 4155,
      "ĠØ¹Ø±": 4156,
      "ÚĨÛĮ": 4157,
      "Ġà²¬à²³": 4158,
      "Ġà¦īà¦¤": 4159,
      "à´·à´£": 4160,
      "Ø§Ø¹Øª": 4161,
      "ĠÚ©Ú¾ÙĪ": 4162,
      "ĠDelhi": 4163,
      "form": 4164,
      "Ġà°ĵ": 4165,
      "Ø³ÙĦØ§Ùħ": 4166,
      "à§°à¦®": 4167,
      "à¥Īà¤ĥ": 4168,
      "à¦ķà¦°": 4169,
      "à²°à²¸": 4170,
      "Ġà¤Ĺà¤ı": 4171,
      "ities": 4172,
      "ÙĪØ±ÙĨ": 4173,
      "à°¤à°°": 4174,
      "Ġà¤īà¤ļ": 4175,
      "Ġ26": 4176,
      "Ġà§·": 4177,
      "Ġstat": 4178,
      "Ġà°ħà°§": 4179,
      "à¤°à¤®à¤£": 4180,
      "ĠØ²ÛĮØ§": 4181,
      "ĠCongress": 4182,
      "Ġàª¨àª¥": 4183,
      "Ġsmall": 4184,
      "ĠØ¯ÙĪØ±Ø§ÙĨ": 4185,
      "Ġê¯Ĩê¯łê¯ħ": 4186,
      "Ġlots": 4187,
      "ĠÛģÙĪÙĨÛĴ": 4188,
      "à®ŀ": 4189,
      "ĠÚĦ": 4190,
      "Ġà¤ķà¤ª": 4191,
      "Ø³Ù½": 4192,
      "à²¦à²¨": 4193,
      "à¦¼à§Ģ": 4194,
      "Ġà¤°à¤µ": 4195,
      "ÙıÛĶ": 4196,
      "à®²à®¤": 4197,
      "Ġmo": 4198,
      "à¤ıà¤¨": 4199,
      "Ġown": 4200,
      "ÙĤÛģ": 4201,
      "ĠØ¯ÙĪØ³": 4202,
      "Ġà¥Ń": 4203,
      "Ġ22": 4204,
      "à¦¹à¦¤": 4205,
      "ĠØ®Ø§Øµ": 4206,
      "Ġà´ķà´´": 4207,
      "àª¦àª°": 4208,
      "ĠBJP": 4209,
      "ĠØµØ±Ùģ": 4210,
      "Ġnear": 4211,
      "Ġà¬ħà¬§": 4212,
      "á±ŀá±Ł": 4213,
      "ĠÚıÙĬÙĨ": 4214,
      "ĠÙĦÛĮÚ©ÙĨ": 4215,
      "Ġá±Łá±¹á±°á±¤": 4216,
      "Ġà´ªà´±à´ŀ": 4217,
      "Ġá±¯á±Łá±¹á±¨á±¥á±¤": 4218,
      "ched": 4219,
      "red": 4220,
      "à¦¢": 4221,
      "á±ĳ": 4222,
      "à¤Ĥà¥Ĵ": 4223,
      "ÙħÛĮÙĨ": 4224,
      "ĠØ§Ø±": 4225,
      "ĠØ§Ú³": 4226,
      "à®¿.": 4227,
      "Ġà¤¬à¤¦à¤²": 4228,
      "Ú©Ù²": 4229,
      "Ġà¤ħà¤¦": 4230,
      "Ġbra": 4231,
      "à¤Łà¤®": 4232,
      "à´¯à´¨": 4233,
      "Ø²Ø±": 4234,
      "ÙģØª": 4235,
      "ê¯Łê¯Ĥ": 4236,
      "Ġà®µà®¨": 4237,
      "ĠØŃÙĬ": 4238,
      "ĠØŃÙĤ": 4239,
      "ÚĨÛģ": 4240,
      "àŃ¦àŃ©": 4241,
      "ĠØ²ÛĮ": 4242,
      "á±Ĳá±Ĳ": 4243,
      "Ġá±Ľá±Łá±Ńá±ļá±¢": 4244,
      "dy": 4245,
      "ix": 4246,
      "Ø¤": 4247,
      "Ûİ": 4248,
      "à²ĺ": 4249,
      "Ġà¤ķà¤ķ": 4250,
      "Ġtry": 4251,
      "ĠØ§ÛĮÙĨ": 4252,
      "à¬°à¬¬": 4253,
      "Ġà¤°à¤¸": 4254,
      "Ġpret": 4255,
      "ĠÙĪØ±": 4256,
      "Ġcol": 4257,
      "Ġá±¨á±Łá±¡á±½": 4258,
      "ÙĪÙĨÙĬ": 4259,
      "ĠØ¹Ø§ÙĦ": 4260,
      "ĠàŃ«": 4261,
      "Ø±ÛĮØ¨": 4262,
      "ĠØ®ÙĦØ§Ùģ": 4263,
      "ÛĮØ§Øª": 4264,
      "Ġà¨®à¨¹": 4265,
      "Ġàªħàª®": 4266,
      "Ø®Øµ": 4267,
      "à´·à´¨": 4268,
      "Ġatt": 4269,
      "Ġ2019": 4270,
      "âĢĺâĢĺ": 4271,
      "Ġê¯²ê¯°ê¯°ê¯°": 4272,
      "Ġimp": 4273,
      "Ġá±łá±Łá±±á±Łá±Ń": 4274,
      "Ġpolice": 4275,
      "!!": 4276,
      "Ġz": 4277,
      "à´ĺ": 4278,
      "à¤®à¤µ": 4279,
      "à¤¹à¤²": 4280,
      "Ġà¤¹à¤µ": 4281,
      "à¤ľà¤Ĺ": 4282,
      "Ġbest": 4283,
      "à¤£à¤¯": 4284,
      "ĠØ³Ø§": 4285,
      "rent": 4286,
      "à¤¶à¤²": 4287,
      "ĠØ¨Ø¯": 4288,
      "Ġpo": 4289,
      "á±¤á±ľ": 4290,
      "ĠÛģØ±": 4291,
      "à²¯à²¦": 4292,
      "Ġheard": 4293,
      "à²¸à²°": 4294,
      "Ġá±¨á±®á±±": 4295,
      "Ġà¥®": 4296,
      "ĠÚ¯Ø¦ÛĮ": 4297,
      "à´®à´¯": 4298,
      "ĠØ´Ø§Ø¹": 4299,
      "ĠØ¹ÙħÙĦ": 4300,
      "Ġà¤ıà¤ķà¤Ł": 4301,
      "ĠCOVID": 4302,
      "Ġlived": 4303,
      "Ġê¯ıê¯ģ": 4304,
      "Ġá±Ĵá±Ĳá±ĳá±": 4305,
      "ĠÙĤØ±Ø¢ÙĨ": 4306,
      "Ġà¬·": 4307,
      "à¤¦à¤¯": 4308,
      "ĠØ§Ú©": 4309,
      "Ġà¤ªà¤¶": 4310,
      "ĠÙħÛģ": 4311,
      "ĠÙħÛĮØ±": 4312,
      "à¦¯à¦¨": 4313,
      "ĠØ¬Ø§Ø¦ÛĴ": 4314,
      "erv": 4315,
      "ĠØ¨Ø§Øª": 4316,
      "Ġmat": 4317,
      "ĠØ¢Ø²Ø§Ø¯": 4318,
      "à¤ıà¤Ĺ": 4319,
      "Ġnoh": 4320,
      "àª¯àªķ": 4321,
      "à¦ªà¦ķ": 4322,
      "á±©á±²": 4323,
      "Ø§Ø¦ÙĪÙĨ": 4324,
      "Ġà²®à²¨": 4325,
      "Ġeat": 4326,
      "Ġà¤ĺà¤Łà¤¨": 4327,
      "ĠÙ¾Ø±ÙĪ": 4328,
      "Ġê¯ħê¯łê¯ĩ": 4329,
      "Ø¸Ùħ": 4330,
      "rab": 4331,
      "Ġàª¦àª°": 4332,
      "Ġ198": 4333,
      "Ġnamar": 4334,
      "Ġlead": 4335,
      "à¬Ĩà¬°": 4336,
      "ĠÙ¾Ø§ÚªØ³ØªØ§ÙĨ": 4337,
      "18": 4338,
      "led": 4339,
      "à¤µà¤¬": 4340,
      "Ġà¤®à¤ľ": 4341,
      "Ġà¤¹à¤¤": 4342,
      "ĠØ¬Ûģ": 4343,
      "à°°à°¨": 4344,
      "á±¤á±¯": 4345,
      "á±¤á±Ŀ": 4346,
      "à®²à®®": 4347,
      "Ø²Ø§": 4348,
      "Ġê¯ĳê¯į": 4349,
      "à¯Ī.": 4350,
      "ĠÛ²": 4351,
      "ÙĤÙĦ": 4352,
      "Ġhap": 4353,
      "ĠÚ¯Úı": 4354,
      "à°ªà°Ł": 4355,
      "Ġ28": 4356,
      "Ġá±¥á±ļá±¦": 4357,
      "ĠØ¹Ùħ": 4358,
      "ĠØ®Ù²": 4359,
      "á±Łá±¹á±²": 4360,
      "Ġrel": 4361,
      "uru": 4362,
      "Ġá±¡á±Łá±±": 4363,
      "Ġshould": 4364,
      "à¤ħà¤°": 4365,
      "à«ģàªĤ.": 4366,
      "Ġá±ŀá±®á±łá±·á±Ł": 4367,
      "Ġwork": 4368,
      "ĠØ³ÙĨÚĮÙĬ": 4369,
      "Ġà¤¸à¤¦à¤¸": 4370,
      "ollow": 4371,
      "ĠØŃÚ©ÙĪÙħØª": 4372,
      "ĠØ¹Ø¨Ø¯Ø§ÙĦ": 4373,
      "á±¹": 4374,
      "à§Ń": 4375,
      "ĠØ«": 4376,
      "à¤¤à¤¦": 4377,
      "à¦¨à¦¯": 4378,
      "à¬°à¬£": 4379,
      "ĠÙħÙĬ": 4380,
      "ĠØªÛĮ": 4381,
      "à°²à°²": 4382,
      "à¤§à¤µ": 4383,
      "Ġco": 4384,
      "arm": 4385,
      "ash": 4386,
      "à®©à®®": 4387,
      "àªµàª°": 4388,
      "Ġà¤īà¤²": 4389,
      "ê¯©)": 4390,
      "à¤ĩà¤ķ": 4391,
      "Ġà®ªà®¤": 4392,
      "à¨®à¨°": 4393,
      "Ġele": 4394,
      "Ġà¤¸à¤®à¤¸": 4395,
      "Ø±ÙĬÚª": 4396,
      "à´Ļàµ¾": 4397,
      "à®£à®®": 4398,
      "ê¯İê¯Ķ": 4399,
      "ĠÚĪÛĮ": 4400,
      "ĠàŃ¨àŃ«": 4401,
      "Ġcouldn": 4402,
      "Ġyears": 4403,
      "air": 4404,
      "Ġ=": 4405,
      "ÙĨØ³": 4406,
      "Ġà¤ķà¤¥": 4407,
      "Ġte": 4408,
      "Ġà²ı": 4409,
      "Ġfle": 4410,
      "ĠÛģÙĪÚº": 4411,
      "à²¤à²µ": 4412,
      "à²Ĺà²²": 4413,
      "ence": 4414,
      "ĠØ¢ÙĪ": 4415,
      "à¤ıà¤¤": 4416,
      "à®¯à®ķ": 4417,
      "Ġá±łá±®á±«": 4418,
      "ê¯Łê¯ģ": 4419,
      "Ø§Ø¦Ú»": 4420,
      "Ø¦ÙĬÙĨ": 4421,
      "ê¯¢ê¯Ĥ": 4422,
      "Ġá±Ľá±Łá±ŀ": 4423,
      "Ġà´¤à´¨": 4424,
      "ê¯¡ê¯Ĥê¯Ĺ": 4425,
      "Ġclos": 4426,
      "Ġà¤Ĩà¤µà¤¶": 4427,
      "ĠØ¬Ø§ÙĨØ§ÙĪØ§Ø±": 4428,
      "ĠÙħØ¯Ø¯": 4429,
      "Ġfamily": 4430,
      "br": 4431,
      "eg": 4432,
      "ta": 4433,
      "Úĩ": 4434,
      "Ġour": 4435,
      "à°ħ": 4436,
      "ĠÚ©ÚĨÚ¾": 4437,
      "ØªÙĦ": 4438,
      "à¤Ĺà¤ķ": 4439,
      "à¤Ĺà¤¦": 4440,
      "Ġà¤¹à¤¸": 4441,
      "Ġà¤ľà¤²": 4442,
      "à¤¡à¤¨": 4443,
      "ĠØ¨Ø§ÙĦ": 4444,
      "Ġdif": 4445,
      "ê¯ķê¯Ĺ": 4446,
      "Ú¯ÙĬ": 4447,
      "Ġà¤¶à¤¬": 4448,
      "Ġhigh": 4449,
      "ĠÚ¯Ú¾Ø±": 4450,
      "à¦¹à¦£": 4451,
      "Ġà¦ıà¦ĸà¦¨": 4452,
      "à¤ĩà¤Ł": 4453,
      "Ġà§«": 4454,
      "à®ļà®®": 4455,
      "Ġá±µá±®á±±": 4456,
      "Ġà®ħà®Ł": 4457,
      "Ø§Ø¯ÛĮ": 4458,
      "ĠÙĤØ¨": 4459,
      "Ø§Ø¨Øª": 4460,
      "ê¯ĥê¯Ľ": 4461,
      "Ġà¨Ĺà¨Ī": 4462,
      "Ġà°İà°¨": 4463,
      "Ġà°ľà°°": 4464,
      "Ġà¦§à¦°": 4465,
      "à¤ĥà¥ĳà¥¤": 4466,
      "weet": 4467,
      "Ġbetter": 4468,
      "ĠÙħØ®ØªÙĦÙģ": 4469,
      "17": 4470,
      "à¤Ĳ": 4471,
      "à¤¾?": 4472,
      "Ġà¤®à¤Ĺ": 4473,
      "Ġset": 4474,
      "Ġsky": 4475,
      "à²°à²²": 4476,
      "ĠØ³Ù¾": 4477,
      "ased": 4478,
      "Ġà¦¸à¦Ļ": 4479,
      "Ġminister": 4480,
      "Ġá±łá±ļá±¨": 4481,
      "àª¯àª¨": 4482,
      "Ù¹Ø³": 4483,
      "ama": 4484,
      "Ġà§ª": 4485,
      "Ġà°ķà°²": 4486,
      "Ġbeaut": 4487,
      "Ġà¤ıà¤ķà¤°": 4488,
      "àª¡àª¨": 4489,
      "àŃ¦àŃ¯": 4490,
      "ĠLuc": 4491,
      "raw": 4492,
      "ult": 4493,
      "ÙħÛĮØ±": 4494,
      "Ġnext": 4495,
      "ÚĬÙĬÙĪ": 4496,
      "Ġà¦¥à¦ķ": 4497,
      "ĠàŃ¨àŃ¬": 4498,
      "ĠÙ½ÙĬ": 4499,
      "Ġagainst": 4500,
      "Ġngut": 4501,
      "ĠBenny": 4502,
      "Ġroom": 4503,
      "iver": 4504,
      "ym": 4505,
      "£á±Łá±ľ": 4506,
      "à¤²à¤ļ": 4507,
      "à¤µà¤ľ": 4508,
      "à¥¤à¥¤": 4509,
      "Ġà¤Ĩà¤ĸ": 4510,
      "Ġà¤ľà¤¹": 4511,
      "à¤¬à¤¸": 4512,
      "Ġboth": 4513,
      "Ø§Ø¸": 4514,
      "rest": 4515,
      "à´ķàµ¾": 4516,
      "à´¤à´¤": 4517,
      "Ġpaid": 4518,
      "Ġfly": 4519,
      "Ø²Ûģ": 4520,
      "omm": 4521,
      "Ù¾Øª": 4522,
      "Ù¾Ú¾": 4523,
      "ĠÚ¯Ú¾": 4524,
      "ĠÚ¯Ø¦ÛĴ": 4525,
      "à¤Ľà¤²": 4526,
      "ĠMia": 4527,
      "Ø±ÙĬØ²": 4528,
      "Ġà´ķà´£": 4529,
      "Ġà¦²à¦ķ": 4530,
      "Ġá±®á±±": 4531,
      "Ġà¨Ĺà¨°": 4532,
      "resident": 4533,
      "á±Łá±¹á±¨á±¤": 4534,
      "ÙĪÙħÛĮ": 4535,
      "à«Į": 4536,
      "Ġà¬ĩ": 4537,
      "Ġà¤¸à¤ª": 4538,
      "Ġà¤¸à¤Ļ": 4539,
      "à³į,": 4540,
      "Ġball": 4541,
      "à°¨à°Ł": 4542,
      "Ġà¤Ĺà¤£": 4543,
      "ĠÙĪØ§Ù¾": 4544,
      "Ġlet": 4545,
      "Ġà¤¯à¤¤": 4546,
      "ÚªØ±ÙĬ": 4547,
      "à¨ķà¨²": 4548,
      "á±©á±«": 4549,
      "Ġá±¥á±Łá±±": 4550,
      "à¦¶à§°": 4551,
      "ĠØ¹ÙĦÙħ": 4552,
      "à¨¼à©ģ": 4553,
      "Ġà¦ħà¦¤": 4554,
      "ê¯¢ê¯ģ": 4555,
      "Ġà®ħà®±": 4556,
      "Ġà´ħà´±": 4557,
      "àµ¼à´¤": 4558,
      "à¬¼à¬¿": 4559,
      "Ġlook": 4560,
      "ĠIndian": 4561,
      "Ġá±§á±Łá±¢": 4562,
      "Ġthanked": 4563,
      "Ġbrave": 4564,
      "und": 4565,
      "à®ħ": 4566,
      "àªħ": 4567,
      "àŃ®àŃ": 4568,
      "Ġà¤¸à¤²": 4569,
      "à¦°à¦§": 4570,
      "à®¤à®ª": 4571,
      "eral": 4572,
      "ĠÙ¾Ú¾": 4573,
      "ĠÙ¾Ø§Ú»": 4574,
      "Ġtoday": 4575,
      "Ġfollow": 4576,
      "ĠÙĪØ³": 4577,
      "à§ĭà¦ģ": 4578,
      "ĠØ¢Ø¦ÛĮ": 4579,
      "ĠØ¢Ú¾ÙĨ": 4580,
      "à¤ıà¤°": 4581,
      "àª¤àª°": 4582,
      "Ú¯Ûģ": 4583,
      "ÚªÙĨ": 4584,
      "ĠÚªÙĬØª": 4585,
      "Ġhyn": 4586,
      "á±©á±¯": 4587,
      "Ġà¨¹à¨°": 4588,
      "à°ªà°¡": 4589,
      "Ø§Ø¦Ùħ": 4590,
      "ĠØ´ÙĬ": 4591,
      "à¤ĥà¥Ĵ": 4592,
      "à°µà°¡": 4593,
      "Ġá±¥á±ļá±¨": 4594,
      "amp": 4595,
      "Ġàª¸àª°àªķ": 4596,
      "à¤³à¤¤": 4597,
      "ĠØŃÚª": 4598,
      "ĠØ§ÙĨØª": 4599,
      "Ġà°ħà°¦": 4600,
      "Ġà®ħà®µ": 4601,
      "ĠÙĤØ³Ùħ": 4602,
      "Ġà²ħà²µ": 4603,
      "Ġà¦¯à¦¦": 4604,
      "Ġlah": 4605,
      "Ġá±ľá±®á±Ńá±Ł": 4606,
      "Ġà²Ĩà²¦à²°": 4607,
      "Ġê¯Ĭê¯ĭ": 4608,
      "Ġexp": 4609,
      "arden": 4610,
      "Ġmeet": 4611,
      "Ġá±¯á±·á±¤á±ŀ": 4612,
      "Ġwalked": 4613,
      "ĠÙĨØ¸Ø±": 4614,
      "Ġhard": 4615,
      "ĠØ®Ù²Ø·Ø±": 4616,
      "ss": 4617,
      "à¤¿à¤ģ": 4618,
      "à¤¨à¤ķà¤°": 4619,
      "Ġá±ĳ": 4620,
      "àµį,": 4621,
      "Ġà¤ķà¤¡": 4622,
      "àŃį,": 4623,
      "ÙĲÛĶ": 4624,
      "Ġà¤¦à¤²": 4625,
      "à²°à²¡": 4626,
      "Ġkept": 4627,
      "ĠÙĪÙº": 4628,
      "Ġà¦ķà¦²": 4629,
      "Ġche": 4630,
      "Ġduring": 4631,
      "à°ķà°²": 4632,
      "à¥ĩà¤Ĥ,": 4633,
      "ĠØ¯ÙĦ": 4634,
      "Ġà¤¶à¤ķà¤¤": 4635,
      "ĠÙģØ§Ø±": 4636,
      "Ġà²¸à²°": 4637,
      "Ġà¤¸à¤®à¤°": 4638,
      "Ġà®¤à®©": 4639,
      "ÛĮØ§Ø³": 4640,
      "Ġstill": 4641,
      "Ġà°ħà°¤": 4642,
      "à¨Ĺà¨°à¨¸": 4643,
      "àª¦àª¨": 4644,
      "Ġà²ħà²²": 4645,
      "Ġá±ľá±Łá±±": 4646,
      "àŃ§àŃ¦": 4647,
      "Ġ''": 4648,
      "hang": 4649,
      "Ġàª¥àªĪ": 4650,
      "Ġá±łá±ļá±£á±Ł": 4651,
      "Ġimport": 4652,
      "ures": 4653,
      "Û±Û": 4654,
      "ÙĨÚĬ": 4655,
      "à¤¸à¤¸": 4656,
      "Ġà®²": 4657,
      "à¬¾,": 4658,
      "ĠÙħØ®": 4659,
      "ĠÙħØ°": 4660,
      "Ø¯ÙĨ": 4661,
      "Ġwhere": 4662,
      "Ġbynta": 4663,
      "Ġkyr": 4664,
      "ĠØ¨Ø®": 4665,
      "Ġfil": 4666,
      "Ġlast": 4667,
      "enc": 4668,
      "Ġà¤Ńà¤ķ": 4669,
      "ê¯ħê¯Ĥ": 4670,
      "Ġà¤¶à¤¹à¤°": 4671,
      "Ù²Úĺ": 4672,
      "Ġà¦®à¦¤": 4673,
      "ĠàŃª": 4674,
      "Ġà²¸à²¹": 4675,
      "Ġàª¤àª°": 4676,
      "á±Łá±¨á±¤": 4677,
      "à²¬à²°": 4678,
      "tern": 4679,
      "Ġà¤§à¤¨": 4680,
      "¸á±°": 4681,
      "ĠàªĹàª¯": 4682,
      "à¨ħà¨°": 4683,
      "Ġá±Ľá±Łá±¦á±®á±¸á±«": 4684,
      "Ġcontin": 4685,
      "Ġofficial": 4686,
      "16": 4687,
      "self": 4688,
      "§à«": 4689,
      "à¥į_": 4690,
      "ÙĪØª": 4691,
      "à¤ķà¤ķ": 4692,
      "à¤µà¤ļ": 4693,
      "ÛģÛģ": 4694,
      "Ø³ÙĦ": 4695,
      "Ġà¤Ĩà¤ł": 4696,
      "ream": 4697,
      "Ø¨Ø§Ø±": 4698,
      "ark": 4699,
      "ĠÙĨÙĤ": 4700,
      "à¤ıà¤«": 4701,
      "Ġhere": 4702,
      "à°¯à°®": 4703,
      "ĠØ¯ÙĬ": 4704,
      "Ġgarden": 4705,
      "à¦·à¦¤": 4706,
      "Ġà¦ıà¦¸": 4707,
      "Ġjaka": 4708,
      "ĠØ§ÙĨÚ¯": 4709,
      "ĠØ§ÙĨØ³Ø§ÙĨ": 4710,
      "Ġreg": 4711,
      "Ġá±®á±Ľ": 4712,
      "ĠJoe": 4713,
      "Ġà°Ĩà°°": 4714,
      "Ġ2017": 4715,
      "ĠØ±ÛģØ§": 4716,
      "Ġà¥¨à¥¦à¥§à¥": 4717,
      "à°Ĩà°°": 4718,
      "Ġá±µá±®á±±á±Łá±£": 4719,
      "Ùĳ": 4720,
      "àµº": 4721,
      "à¤²à¤¸": 4722,
      "ĠÚĺ": 4723,
      "Ġà¤ķà¤¤": 4724,
      "Ġà¤ķà¤ıà¤²": 4725,
      "à¤¹à¤¸": 4726,
      "Ġact": 4727,
      "ĠÚ©ØªØ§Ø¨": 4728,
      "ĠØ§ÙĨØ¯Ø±": 4729,
      "Ú©Ø§ÙĨ": 4730,
      "à¦¯à¦¤": 4731,
      "à¨°à¨µ": 4732,
      "ĠØ¬ÙĦ": 4733,
      "à´¨à´Ļ": 4734,
      "hai": 4735,
      "à¤¡à¤°": 4736,
      "Ġà¦ķà¦¯": 4737,
      "Ġcor": 4738,
      "à¬¨à¬Ļ": 4739,
      "à¤Ńà¤¨": 4740,
      "à¦¸à¦¨": 4741,
      "Ġà¨¸à¨Ń": 4742,
      "Ġá±łá±ļá±¢": 4743,
      "Ġà¦Ĩà¦¶": 4744,
      "à¦ĩà¦ķ": 4745,
      "Ġà¦¹à¦¤": 4746,
      "Ġà¦¨à¦¤": 4747,
      "ĠÙĩØ±": 4748,
      "ents": 4749,
      "Ġright": 4750,
      "Ġá±Łá±¢": 4751,
      "ĠBah": 4752,
      "Ġà²ªà²¡": 4753,
      "yns": 4754,
      "Ġshnong": 4755,
      "á±łá±·": 4756,
      "ê¯Łê¯ħê¯ķ": 4757,
      "ĠàŃ§àŃ§": 4758,
      "Ġà¦ĩà¦¯": 4759,
      "iful": 4760,
      "ĠÙĨØ§ÙĦÙĪ": 4761,
      "Ġhugged": 4762,
      "ĠØ²ÛĮØ§Ø¯Ûģ": 4763,
      "ued": 4764,
      "à¤¯à¤¹": 4765,
      "à¤Ĥà¥ĳ": 4766,
      "Ġà¤®à¤¸": 4767,
      "Ú¾Ø§": 4768,
      "à¤Ĺà¤¸": 4769,
      "à¦¤à¦ķ": 4770,
      "à¦¯à§°": 4771,
      "ĠØ³Ø§Ùħ": 4772,
      "hal": 4773,
      "à¤¶à¤µ": 4774,
      "anu": 4775,
      "à´°à´Ļ": 4776,
      "à´¯à´ª": 4777,
      "à´¯à´Ļ": 4778,
      "ĠÙĪÙģ": 4779,
      "Ġdang": 4780,
      "à®®à®²": 4781,
      "à¨¸à¨ª": 4782,
      "ĠØ±Ùĩ": 4783,
      "á±·á±¤": 4784,
      "ê¯Ŀê¯ģ": 4785,
      "Ġá±¥á±®": 4786,
      "Ġà®ªà®¯": 4787,
      "Ġá±«á±ļá±¨": 4788,
      "ired": 4789,
      "à¨Ĩà¨¨": 4790,
      "ÛĮØ§Úº": 4791,
      "Ġà®ļà®®": 4792,
      "ĠÙĤÙĪÙħ": 4793,
      "Ø·ÙĨ": 4794,
      "à¤ĺà¤°": 4795,
      "Ġê¯Ħê¯Ķ": 4796,
      "ĠKh": 4797,
      "Ġà¬ħà¬ªà¬°": 4798,
      "Ġà¤¤à¤°à¤¹": 4799,
      "ÚĳÛĴ": 4800,
      "Ġà®Ĩà®ķ": 4801,
      "Ġà¤Ĩà¤ªà¤£": 4802,
      "ubor": 4803,
      "ock": 4804,
      "ĠÚĩÚı": 4805,
      "ĠÚªÙĨÙĩÙĨ": 4806,
      "Ġá±¨á±¤á±±á±¤á±¡": 4807,
      "ĠÛ±Û¹Û": 4808,
      "Ġlaughed": 4809,
      "ĠÚıÙĬÙĨÙĩÙĨ": 4810,
      "Ġbeautiful": 4811,
      ":-": 4812,
      "LA": 4813,
      "les": 4814,
      "Ã±": 4815,
      "Ù»": 4816,
      "Ġide": 4817,
      "à¤¾)": 4818,
      "àªĺ": 4819,
      "à¬ħ": 4820,
      "à¤¨à¤¹": 4821,
      "ÙĪÙ½": 4822,
      "Ø±ÙĦ": 4823,
      "à¤²à¤°": 4824,
      "à¤¸à¤ª": 4825,
      "à¤¸à¤¬": 4826,
      "à¤µà¤¥": 4827,
      "à¤µà¤§": 4828,
      "à¦°à¦¶": 4829,
      "Ú©Ø§Ø±": 4830,
      "à°°à°£": 4831,
      "à¤¶à¤®": 4832,
      "ĠØ¨Ø§Ø±": 4833,
      "ĠØ¨Ú¾Ø±": 4834,
      "Ġpor": 4835,
      "à´Łà´¯": 4836,
      "ÙĪØ±ÙĪ": 4837,
      "à´²à´ª": 4838,
      "à²¯à²®": 4839,
      "à¯Ī,": 4840,
      "Ø¬Ø§Ø¨": 4841,
      "Ġà¨¸à¨¨": 4842,
      "ĠØ¯Ø§Ø±": 4843,
      "ady": 4844,
      "Ġà¨ħà¨ľ": 4845,
      "à¤¤à¤°à¤£": 4846,
      "Ġà²¬à²Ĺ": 4847,
      "Ġà´¨à´²": 4848,
      "ĠÛģÙĪØªØ§": 4849,
      "Ġjingk": 4850,
      "à¤°à¤¦à¤°": 4851,
      "Ġà°ĩà°ª": 4852,
      "á±¯á±©á±¨": 4853,
      "àªĩàª¨": 4854,
      "ĠÙĪÙĬÙĨØ¯ÙĪ": 4855,
      "Ġê¯²ê¯°": 4856,
      "Ġà§§à§¯": 4857,
      "Ġà§¨à§¦à§§à§": 4858,
      "á±Łá±°á±Ł": 4859,
      "Ġà¬ªà¬¹à¬ŀ": 4860,
      "ĠAnna": 4861,
      "Ġlearned": 4862,
      "</": 4863,
      "TI": 4864,
      "io": 4865,
      "ram": 4866,
      "{{": 4867,
      "Ġà¤ĭ": 4868,
      "à¤°à¤¹à¤°": 4869,
      "Ø§ÙĬÙĪ": 4870,
      "Ġê¯ĸ": 4871,
      "à¤®à¤¬": 4872,
      "Ġà°§": 4873,
      "á±Łá±¶": 4874,
      "ĠØ§Øª": 4875,
      "ĠØ§ÙĪÙĦ": 4876,
      "Ø³ÙĪ": 4877,
      "à¦¯à§±à¦¸": 4878,
      "à®¤à®µ": 4879,
      "ÙĩÙĪØ±": 4880,
      "Ġkeep": 4881,
      "ĠØªÙģ": 4882,
      "ank": 4883,
      "Ġdistrict": 4884,
      "Ġmin": 4885,
      "à¨¸à¨°": 4886,
      "à®³à®µ": 4887,
      "Ġà¨ķà¨®": 4888,
      "ĠSp": 4889,
      "Ġà¥¯": 4890,
      "Ġsafe": 4891,
      "Ġà¤ªà¤°à¤®": 4892,
      "ĠØ®ÙĪØ¯": 4893,
      "ĠØ§ÙĨÙĩÙĬ": 4894,
      "Ġà°ħà°®": 4895,
      "àŃ¦àŃŃ": 4896,
      "ĠØµÙĪØ¨": 4897,
      "á±łá±Ł": 4898,
      "à¥Īà¤Ĥ,": 4899,
      "Ġà²İà²²": 4900,
      "á±ļá±²á±Ł": 4901,
      "used": 4902,
      "à´Ĺà´¤": 4903,
      "Ġgoing": 4904,
      "à¬ŃàŃŁ": 4905,
      "ê£´": 4906,
      "Ġà¤Ĩà¤®à¤ļ": 4907,
      "Ġà¬īà¬ŃàŃŁ": 4908,
      "ĠÙĪÚĮÙĬÚª": 4909,
      "Ġforest": 4910,
      "Ġflew": 4911,
      "uct": 4912,
      "à¤¿-": 4913,
      "ÙĪÙĬ": 4914,
      "Ġà¤ķà¤½": 4915,
      "Ġà¤¸à¤Ĺà¤³": 4916,
      "ÙĦÙĪÙħ": 4917,
      "ĠÚ©ÙĪØ±": 4918,
      "ĠØ§ÙĤ": 4919,
      "Ġà¤¬à¤ĺ": 4920,
      "Ġà¤ħà¤¥": 4921,
      "à¤£à¤¸": 4922,
      "ĠØ³Ø§Ø±": 4923,
      "Ø§Ø·": 4924,
      "ê¯¡ê¯ı": 4925,
      "Ġpic": 4926,
      "Ġdel": 4927,
      "Ġà¤Ńà¤µà¤¤": 4928,
      "Ġà¦¬à¦°": 4929,
      "ĠØ¢Ø®": 4930,
      "àª®àª¤": 4931,
      "Ġinv": 4932,
      "á±Łá±¹á±¦": 4933,
      "Ġrest": 4934,
      "à²ªà²¡": 4935,
      "Ġà®İà®¤": 4936,
      "Ġanim": 4937,
      "Ġà¦ĩà¦¨": 4938,
      "Ġname": 4939,
      "engal": 4940,
      "odd": 4941,
      "ĠØ¬ÙĬÚªÙĬ": 4942,
      "à§¨à§¦": 4943,
      "ĠØ¹ÙĦØ§ÙĤ": 4944,
      "ĠØ¹ÙĦÛĮÛģ": 4945,
      "Ġà¦¬à¦Ľà¦°": 4946,
      "Ġthrough": 4947,
      "'m": 4948,
      "11": 4949,
      "app": 4950,
      "lud": 4951,
      "Øĵ": 4952,
      "ÙĨÙ¹": 4953,
      "à¤®à¤®": 4954,
      "Ġà¤ķà¤Ī": 4955,
      "Ġà¤¬à¤Ĺ": 4956,
      "Ġwind": 4957,
      "à¦ķà¦Ł": 4958,
      "ont": 4959,
      "à´°à´¨": 4960,
      "à§ĭà¥¤": 4961,
      "àª®àª£": 4962,
      "à¤Ńà¤ķ": 4963,
      "àªµàª¤": 4964,
      "Ġhal": 4965,
      "Ġà¤īà¤¡": 4966,
      "à®µà®Ł": 4967,
      "Ġà¤ıà¤²": 4968,
      "Ø§ÙĦÙĬ": 4969,
      "ĠÙĦÙģØ¸": 4970,
      "á±¨á±Ł": 4971,
      "ĠØ¹ÙĪØ§Ùħ": 4972,
      "Ġà®ªà®°": 4973,
      "à¨¼à©ĩ": 4974,
      "ĠÚ©Ø±ÙĨØ§": 4975,
      "ê¯Ģê¯Ī": 4976,
      "à¨ªà¨°": 4977,
      "Ġê¯ģê¯Ľê¯ĩ": 4978,
      "à²¬à²¹": 4979,
      "olly": 4980,
      "Ġá±ļá±ŀ": 4981,
      "Ġàª¶àª°": 4982,
      "Ġà®īà®£": 4983,
      "á±¯á±·": 4984,
      "Ġà¦ĺà¦Łà¦¨": 4985,
      "ĠØ±ÙĩÙĬÙĪ": 4986,
      "Ġsays": 4987,
      "Ġimportant": 4988,
      "TM": 4989,
      "si": 4990,
      "ÙĪÙ¹": 4991,
      "Ø±Ûģ": 4992,
      "à¥ĭ-": 4993,
      "à¤ķà¤ª": 4994,
      "à¤ķà¤Ł": 4995,
      "à¤µà¤µ": 4996,
      "Ġà²ĸ": 4997,
      "à´¿à´Ĥ": 4998,
      "à¬¿,": 4999,
      "Ġà¤¦à¤¸": 5000,
      "Ġà¤ľà¤µ": 5001,
      "ĠØ¬ÛĮ": 5002,
      "á±®á±°": 5003,
      "ê¯¡ê¯ī": 5004,
      "àª¤àª®": 5005,
      "ĠSh": 5006,
      "ĠÚ¯ÛĴ": 5007,
      "ĠÚ¯ÛĦ": 5008,
      "àª²àª¨": 5009,
      "Ġ29": 5010,
      "ĠØ´Ø®Øµ": 5011,
      "Ġàª¸àª¹": 5012,
      "Ġà°ķà°°": 5013,
      "Ġà²ķà²²": 5014,
      "Ġá±µá±¤á±¨": 5015,
      "urt": 5016,
      "Ġà®ĩà®©": 5017,
      "á±Ľá±©": 5018,
      "Ġ31": 5019,
      "Ġjings": 5020,
      "ĠØ¬ÙĨÚ¾ÙĨ": 5021,
      "Ġadvent": 5022,
      "àŃ¦àŃ®àŃ«": 5023,
      "ĠÙĪÚıÙĬ": 5024,
      "ĠÚ©Ú¾ÙĪØªÛģ": 5025,
      "Ġdiffe": 5026,
      "25": 5027,
      "In": 5028,
      "eh": 5029,
      "to": 5030,
      "à¤¸à¤ļ": 5031,
      "Ġà¤ķà¤¶": 5032,
      "Ġtre": 5033,
      "ÙĦØł": 5034,
      "ÙĦØ§ÙĤ": 5035,
      "ÙħÙĬÙĨ": 5036,
      "à¦¨à¦ķ": 5037,
      "à¤Ĺà¤¡": 5038,
      "à¦¤à¦¤": 5039,
      "à¦¯à¦®": 5040,
      "Ġà¤µà¤ķ": 5041,
      "ĠØªØ§ÙĨ": 5042,
      "àŃĩà¥¤": 5043,
      "Ġà¦ªà¦¥": 5044,
      "Ø´ÙĬ": 5045,
      "Ø¬Ø§": 5046,
      "ÚªÙĦ": 5047,
      "à¦ĩà¦Ł": 5048,
      "ê¯Ŀê¯į": 5049,
      "ĠØ´Ø§Ûģ": 5050,
      "Ġà²®à²¹": 5051,
      "Ġà¦ħà¦°": 5052,
      "Ġà®®à®¤": 5053,
      "ĠØŃÙĪØ§ÙĦ": 5054,
      "à²Łà²°": 5055,
      "ĠØ®Ø¯Ø§": 5056,
      "Ġà°µà°°": 5057,
      "Ġbear": 5058,
      "Ġà¬®à¬¹": 5059,
      "ĠàªĨàªĹ": 5060,
      "iem": 5061,
      "àŃ¦àŃ«": 5062,
      "ÙĪÙĦÙĬ": 5063,
      "à¬³à¬¬": 5064,
      "Ġà¨²à¨Ĺ": 5065,
      "Ġplace": 5066,
      "Ġà®İà®Ł": 5067,
      "á±Łá±¦á±Ł": 5068,
      "à°¬à°¡": 5069,
      "ĠàŃ§àŃ«": 5070,
      "ĠÙ¿ÙĬÚ»": 5071,
      "Ġloc": 5072,
      "àŃ±à¬°à¬°": 5073,
      "Ġà²īà²¦": 5074,
      "ĠÃ¢": 5075,
      "ĠàªĨàªªàªµ": 5076,
      "ĠYou": 5077,
      "Ġclean": 5078,
      "Ġá±łá±Łá±¹á±¢á±¤": 5079,
      "Ġsupp": 5080,
      "Ġperson": 5081,
      "ĠLucy": 5082,
      "Ka": 5083,
      "ces": 5084,
      "ner": 5085,
      "Ġà¦¢": 5086,
      "Ġà¦ł": 5087,
      "ÛĮÙħ": 5088,
      "à¦¾-": 5089,
      "ØªÙĨ": 5090,
      "ĠÙħØ«": 5091,
      "à¤ļà¤ķ": 5092,
      "á±ļá±°": 5093,
      "ĠØ¨ÙĨØ§": 5094,
      "Ġcase": 5095,
      "Ġmag": 5096,
      "Ġê¯ĥê¯Ĩ": 5097,
      "à¬¤à¬ª": 5098,
      "Ġheld": 5099,
      "Ġuba": 5100,
      "Ġà¦ıà¦¤": 5101,
      "iced": 5102,
      "Ġà®®à®©": 5103,
      "ĠØŃØ³": 5104,
      "à¦§à¦¨": 5105,
      "Ġà°µà°¸": 5106,
      "Ġà°µà°ļ": 5107,
      "àªªàª°": 5108,
      "Ġà¨®à¨¨": 5109,
      "Ġonly": 5110,
      "Ġá±ľá±¤á±«": 5111,
      "ĠØµÙģ": 5112,
      "à°·à°²": 5113,
      "outh": 5114,
      "Ġvis": 5115,
      "ĠFin": 5116,
      "Ġà´°à´£": 5117,
      "uck": 5118,
      "Ġcomm": 5119,
      "Ġá±Ĵá±Ĳ": 5120,
      "Ġground": 5121,
      "Ġfeeling": 5122,
      "Ġá±Łá±¡á±Łá±ľ": 5123,
      "Ġá±ľá±ļá±´á±Łá±Ŀ": 5124,
      "Ġcountry": 5125,
      "ê¯¡ê¯ıê¯Łê¯ħ": 5126,
      "24": 5127,
      "He": 5128,
      "Yes": 5129,
      "der": 5130,
      "hy": 5131,
      "joy": 5132,
      "à²ł": 5133,
      "ÙĨÚĨ": 5134,
      "à¤ķà¤¦": 5135,
      "ĠàªĿ": 5136,
      "àµįâĢĭ": 5137,
      "à¦°à¦¯": 5138,
      "Ġà¤ħà¤«": 5139,
      "Ġbat": 5140,
      "à¤£à¤¤": 5141,
      "à¨°à¨§": 5142,
      "à´¤à´²": 5143,
      "Ġpu": 5144,
      "ĠÚĨØ§Ø±": 5145,
      "Ú¯Ø§": 5146,
      "Ø¬Ø¨": 5147,
      "Ø¬ÙĩÙĩ": 5148,
      "alth": 5149,
      "àµįâĢį.": 5150,
      "Ġind": 5151,
      "á±©á±¥": 5152,
      "Ġà¤ĩà¤²": 5153,
      "ĠØ´ÙĪ": 5154,
      "à´µà´¤": 5155,
      "Ġà®ªà®£": 5156,
      "Ġà¤¸à¤®à¤Ŀ": 5157,
      "ĠàªĨàª°": 5158,
      "Ġà°ħà°Ń": 5159,
      "Ġà®ħà®²": 5160,
      "á±Łá±¹á±¥": 5161,
      "Ġàªľàª£": 5162,
      "Ġà¤ĺà¤Ł": 5163,
      "àªĹàª¤": 5164,
      "Ġà¬ıà¬ª": 5165,
      "ĠØµÙĪØ±Øª": 5166,
      "Ġà¤ĵà¤°": 5167,
      "Ġdays": 5168,
      "Ġá±®á±±á±Ł": 5169,
      "á±Ľá±ļ": 5170,
      "Ġiss": 5171,
      "ÚĳØ§": 5172,
      "ĠàŃ§àŃ¨": 5173,
      "ohn": 5174,
      "àªĪàª¨": 5175,
      "istan": 5176,
      "ĠWe": 5177,
      "Ġngi": 5178,
      "Ø¬Ú¾ÛĴ": 5179,
      "Ġsurpr": 5180,
      "28": 5181,
      "bit": 5182,
      "com": 5183,
      "man": 5184,
      "}}": 5185,
      "Åĵ": 5186,
      "Ġ*": 5187,
      "à®Ĩ": 5188,
      "à¥ĩà¥ħ": 5189,
      "Ø§ÙĪØ±": 5190,
      "à¤¨à¤¯": 5191,
      "à¥Ģà¥ĳ": 5192,
      "Ġà¤ķà¤¦": 5193,
      "Ø³Øł": 5194,
      "à¬¾à¥¤": 5195,
      "à¥Īà¥Ĵ": 5196,
      "ĠØ³Ù²": 5197,
      "Ġkyn": 5198,
      "à©ĩ,": 5199,
      "à¤¥à¤¨": 5200,
      "Ġpos": 5201,
      "Ġà¤²à¤¡": 5202,
      "Ùķ.": 5203,
      "à®®à®©": 5204,
      "à´Łà´°": 5205,
      "ĠØ¢ÙĨ": 5206,
      "à¤ıà¤¹": 5207,
      "Ø´Ø±": 5208,
      "Ø´Ø´": 5209,
      "Ġà¨¸à¨¥": 5210,
      "Ġà¤ķà¤°à¤¬": 5211,
      "Ù²ÙĦÛĮ": 5212,
      "Ø§ÙħÛģ": 5213,
      "ĠØ´ÛģØ±": 5214,
      "àª¸àª°": 5215,
      "ÙĪÙĨÛĮ": 5216,
      "ĠØ¹Ø±Ø¨": 5217,
      "Ġey": 5218,
      "ĠØ®Ø·": 5219,
      "ØµØ¯": 5220,
      "Ġreal": 5221,
      "Ġà¨¤à¨°": 5222,
      "Ġà²ħà²Ń": 5223,
      "à¤īà¤¸": 5224,
      "ters": 5225,
      "Ġàª¨àª¹": 5226,
      "ê¯łê¯Ħ": 5227,
      "Ġà¦īà¦¨": 5228,
      "Ġleit": 5229,
      "Ġà¤ľà¤¨à¤¤": 5230,
      "à¬Ĩà¬¦": 5231,
      "ĠàŃ¨àŃŃ": 5232,
      "Ġprot": 5233,
      "ĠØ¯ÛĮÚ©Ú¾": 5234,
      "ĠØ¹ÙĦØ§ÙĪ": 5235,
      "ĠChief": 5236,
      "ĠØ±Ø³ÙĪÙĦ": 5237,
      "Ġidea": 5238,
      "ÙĴ": 5239,
      "à²Ĩ": 5240,
      "ÙĪØ§Ø±": 5241,
      "Ġà¨ı": 5242,
      "ĠàªĪ": 5243,
      "Ġter": 5244,
      "Ġtar": 5245,
      "Ġtang": 5246,
      "Ġà²§": 5247,
      "ĠØ§ÙĨØ¯": 5248,
      "Ġsure": 5249,
      "à¬¿à¬ģ": 5250,
      "Ġà¤ħà¤ªà¤°": 5251,
      "à°°à°µ": 5252,
      "Ġtop": 5253,
      "à²²à²¦": 5254,
      "à²Ĺà²¦": 5255,
      "Ġê¯ĳê¯ħ": 5256,
      "à¬¤à¬°": 5257,
      "ĠØ±ÙĨÚ¯": 5258,
      "ĠØ¯ÛĴ": 5259,
      "ê¯Łê¯Ĭ": 5260,
      "à´ªà´ķ": 5261,
      "à¬Łà¬ķ": 5262,
      "Ġà®®à®Ł": 5263,
      "Ġever": 5264,
      "à²Łà²¨": 5265,
      "Ġà¦¶à¦¤": 5266,
      "Ġà¤°à¤¹à¤¨": 5267,
      "ê¯ĥê¯į": 5268,
      "Ø¸Ø§Ùħ": 5269,
      "Ġà¬ľà¬£": 5270,
      "à¦łà¦¨": 5271,
      "ĠUn": 5272,
      "Ġshare": 5273,
      "ÚĺÚ¾": 5274,
      "Ġàª«àª°": 5275,
      "ê¯Ĳê¯Ŀ": 5276,
      "ĠØ¹ÙĦØ§Ø¦": 5277,
      "Ġopened": 5278,
      "Ġdisc": 5279,
      "Ġinclud": 5280,
      "Ġexplore": 5281,
      "ĠØ¨Ø§ÙĤÛĮ": 5282,
      "Ġá±¥á±ļá±¦á±ļá±¨": 5283,
      "Ġdifferent": 5284,
      "ki": 5285,
      "lic": 5286,
      "vak": 5287,
      "à²ħ": 5288,
      "à§¯": 5289,
      "à¤¨à¤ª": 5290,
      "Ġá±ĵ": 5291,
      "ÙĬØ¯": 5292,
      "à¤µà¤Ł": 5293,
      "Ġà²ĺ": 5294,
      "ÙħÙ¾": 5295,
      "ÙħØł": 5296,
      "Ġà¤ªà¤µ": 5297,
      "à¤ªà¤¶": 5298,
      "à§°à¦¸": 5299,
      "à¨¾.": 5300,
      "ince": 5301,
      "à¤ļà¤¤": 5302,
      "Ú©Ø´": 5303,
      "Ø§ÙĨØ¯": 5304,
      "ĠØ¬Ùĩ": 5305,
      "à°°à°¯": 5306,
      "Ø§Øº": 5307,
      "à°Ĥ,": 5308,
      "à°Ĥ.": 5309,
      "à¤¶à¤¯": 5310,
      "à¤·à¤¦": 5311,
      "à¦®à¦²": 5312,
      "ĠØ¨Ø¬": 5313,
      "ĠØ¨ÙĨØ¯": 5314,
      "ĠØ¨ÛĮÙĨ": 5315,
      "ĠØ¨ÙĪÙĦ": 5316,
      "ĠÙĪØ¬Ûģ": 5317,
      "à²Ĺà²°": 5318,
      "Ġhead": 5319,
      "à°¯à°µ": 5320,
      "Ġà¤ĩà¤ļ": 5321,
      "Ø§Ø¦ÛĮÚº": 5322,
      "Ġá±«á±Łá±²": 5323,
      "ĠàŃ¬": 5324,
      "Ġê¯Ĥê¯Ŀ": 5325,
      "Ġá±µá±Łá±°": 5326,
      "Ø§Ø¯ÙĬ": 5327,
      "ĠAfter": 5328,
      "àªĹàª¨": 5329,
      "Ġá±¯á±Łá±¨": 5330,
      "àŃ¦àŃ¬": 5331,
      "ĠØ²Ø¨Ø§ÙĨ": 5332,
      "Ġá±ľá±Łá±°á±Ł": 5333,
      "Ġà´¨à´Łà´¤": 5334,
      "Ġsoon": 5335,
      "Ġê¯Ħê¯ħ": 5336,
      "Ġbah": 5337,
      "ĠØ§ÙĦÙĦÙĩ": 5338,
      "Ġà²Ĩà²¯": 5339,
      "Ġà°Ĩà°¯à°¨": 5340,
      "Ġnoticed": 5341,
      "Ġà°ĩà°¦": 5342,
      "Ġdoor": 5343,
      "à¤¹à¤£à¤¤": 5344,
      "á±ľá±Ł": 5345,
      "à¨ħà¨¦": 5346,
      "Ø§Ø¬ÙĬ": 5347,
      "á±Ńá±Ł": 5348,
      "Ġchild": 5349,
      "ized": 5350,
      "Ġresp": 5351,
      "ission": 5352,
      "Ġê¯İê¯Ĩ": 5353,
      ".âĢĿ": 5354,
      "14": 5355,
      "ox": 5356,
      "ªá±®á±«": 5357,
      "«á±½": 5358,
      "ÙĨØ¬": 5359,
      "Ġtal": 5360,
      "Ġà°·": 5361,
      "ÙĦÙĨ": 5362,
      "à¤ªà¤Ł": 5363,
      "à¬°à¬¸": 5364,
      "à¤ľà¤¤": 5365,
      "Ġwr": 5366,
      "Ġà¤¦à¤ķ": 5367,
      "à¤¬à¤ķ": 5368,
      "Ġbel": 5369,
      "à¤£à¤®": 5370,
      "Ġà¤¤à¤®": 5371,
      "à°°à°ª": 5372,
      "à¤¡à¤£": 5373,
      "à¦¬à¦¤": 5374,
      "anch": 5375,
      "Ġpre": 5376,
      "Ġfin": 5377,
      "à´¯à´±": 5378,
      "Ġà¦¬à¦¡": 5379,
      "Ġà¦¸à¦ķ": 5380,
      "à¦Łà§°": 5381,
      "Ġá±łá±¤á±ŀ": 5382,
      "ali": 5383,
      "à°¦à°²": 5384,
      "àª¯àª°": 5385,
      "à¤«à¤²": 5386,
      "Ù¹Ûģ": 5387,
      "á±©á±µ": 5388,
      "à¦ĩà¦ľ": 5389,
      "Ġsam": 5390,
      "Ġà¦¹à¦ļ": 5391,
      "Ġá±¥á±¤á±¨": 5392,
      "à¤Ĩà¤¤": 5393,
      "Ġà²ķà²°": 5394,
      "Ġà¬ķà¬²": 5395,
      "Ġbegan": 5396,
      "ĠØ§Ø³ÛĴ": 5397,
      "á±ļá±±á±Ł": 5398,
      "ê¯Ģê¯Ħ": 5399,
      "ĠØµÙĪ": 5400,
      "Ġà¦īà¦²": 5401,
      "à¤½à¤¸": 5402,
      "Ġà²¤à²®": 5403,
      "Ø§ÙĪØ§ÙĨ": 5404,
      "à¥ī.": 5405,
      "Ġàª²àªĹ": 5406,
      "ê¯ŀê¯ģ": 5407,
      "ĠØ¬ÙĨÚ¯": 5408,
      "Ġ194": 5409,
      "Ø§ÙģÛĮ": 5410,
      "ĠÚ¾ÙĪ": 5411,
      "ĠÙ»ÙĬÙĨ": 5412,
      "ĠÙħÙĦÚ©": 5413,
      "ĠÙ¾ÛĮØ´": 5414,
      "ĠØªØ¹ÙĦÙĤ": 5415,
      "Ġá±¢á±¤á±«á±´": 5416,
      "Ġothers": 5417,
      "Ġenjoy": 5418,
      "á±¤á±´á±ļá±¨": 5419,
      "Ġwalk": 5420,
      "Ġopen": 5421,
      "ounc": 5422,
      "Ġá±¢á±Łá±¨á±Łá±Ŀ": 5423,
      "Ha": 5424,
      "New": 5425,
      "bed": 5426,
      "Ġent": 5427,
      "à¥ĩá³ļ": 5428,
      "Ø±Ø§Ø¯": 5429,
      "Ġá±Ń": 5430,
      "à¤²à¤¦": 5431,
      "ĠØ§Ø´": 5432,
      "Ġà¤ªà¤Ľ": 5433,
      "ina": 5434,
      "Ġà¤¹à¤²": 5435,
      "à®ķà®²": 5436,
      "à¤¬à¤¹": 5437,
      "Ġbre": 5438,
      "á±®á±¦": 5439,
      "á±®á±§": 5440,
      "à´¯à´°": 5441,
      "ĠÙĪØ¦ÙĬ": 5442,
      "à§Ģ,": 5443,
      "Ġà¨¸à¨¬": 5444,
      "Ġà¤īà¤ªà¤¨": 5445,
      "àµįâĢį,": 5446,
      "Ġà¦Ĩà¦¯": 5447,
      "ĠØ¬ÙĬØ¦ÙĨ": 5448,
      "Ġhop": 5449,
      "à¦ĩà¦Ľ": 5450,
      "ĠÚ¯ÙĩØ±": 5451,
      "à¬®à¬¬": 5452,
      "ĠØ´Ø¹": 5453,
      "ê¯Ľê¯Ī": 5454,
      "à°µà°¨": 5455,
      "Ġàª¸àª°": 5456,
      "àŃŁà¬ķ": 5457,
      "Ġà¬¸à¬ķ": 5458,
      "Ġjump": 5459,
      "à®ļà®°": 5460,
      "Ġà¬®à¬Ļ": 5461,
      "ĠØ§Ø³Úª": 5462,
      "Ġà®ħà®¨": 5463,
      "Ġá±Łá±±": 5464,
      "ĠAM": 5465,
      "ĠÙĤØ§Ø¦Ùħ": 5466,
      "ÛĮÙĨÛĮ": 5467,
      "ĠComm": 5468,
      "à¬Ĺà¬³à¬¬": 5469,
      "à¨¬à¨²": 5470,
      "Ġà´¨à´®": 5471,
      "Ġàª¨àªµ": 5472,
      "à¥¦à¥¦": 5473,
      "Ġjingp": 5474,
      "Ġà¤īà¤ªà¤¯": 5475,
      "ries": 5476,
      "ÙĬØ§Ø³Øª": 5477,
      "Ġàªĸàª°": 5478,
      "ĠÙ¾ÙĬØ´": 5479,
      "Ġà¦īà¦ªà¦¸": 5480,
      "à¬¼à¬¾-": 5481,
      "Ġquick": 5482,
      "á±ļá±¸á±°": 5483,
      "Ġblue": 5484,
      "ĠSarah": 5485,
      "DC": 5486,
      "sp": 5487,
      "ÙĨÚį": 5488,
      "Ġà¨¥": 5489,
      "à¤®à¤ĸ": 5490,
      "Ġà¤¸à¤ŀ": 5491,
      "ĠØ§ÙĩÙĬ": 5492,
      "Ġà¤¬à¤ķ": 5493,
      "Ġbit": 5494,
      "à©ĩà¥¤": 5495,
      "à¤¡à¤®": 5496,
      "à¤¡à¤µ": 5497,
      "ert": 5498,
      "à¦¬à¦¬": 5499,
      "ĠØ¨ÙĪ": 5500,
      "Ġfast": 5501,
      "Ġloud": 5502,
      "à«ĭ,": 5503,
      "Ġà¦¸à¦°à¦ķ": 5504,
      "Ġmost": 5505,
      "ĠØ¢Ú¯": 5506,
      "à¦Łà¦ķ": 5507,
      "à®¯à®ª": 5508,
      "Ġá±łá±Łá±Ľ": 5509,
      "Ġá±łá±ļá±²á±Ł": 5510,
      "ĠTh": 5511,
      "à¦ĩà¦¬": 5512,
      "àª²àª®": 5513,
      "Ġà¤ĩà¤¤à¤°": 5514,
      "à´µà´¸": 5515,
      "Ġá±¥á±Łá±¢": 5516,
      "Ġà¦ħà¦¸": 5517,
      "irus": 5518,
      "à°ļà°¡": 5519,
      "à²Łà²ķ": 5520,
      "à¨ľà¨¨": 5521,
      "ÛĮØ§Ø³Øª": 5522,
      "Ġá±µá±Łá±¨": 5523,
      "ĠÚ©Ø±ÛĮÚº": 5524,
      "ĠÙĤØ¯": 5525,
      "Ġrepl": 5526,
      "ÚĪÛĮØ§": 5527,
      "ĠØµØ¯Ø±": 5528,
      "ê¯ĥê¯Ĺ": 5529,
      "Ġshin": 5530,
      "Ġàªıàª¨": 5531,
      "Ġà´İà´¤": 5532,
      "Ġà¬ªà¬°à¬¬à¬°": 5533,
      "ush": 5534,
      "Ġ199": 5535,
      "ĠÙħÙĦÚª": 5536,
      "Ġá±Łá±łá±Łá±±": 5537,
      "ĠØ³ÙħØ¬Ú¾": 5538,
      "à´İà´¸": 5539,
      "ØµÙĪØµ": 5540,
      "Ġà¤®à¤¦à¤¦": 5541,
      "ĠØ§ÛģÙħ": 5542,
      "ÙĥÚ¾": 5543,
      "Ġpaidbah": 5544,
      "Ġhynrei": 5545,
      "oon": 5546,
      "à¤¨à¤ľ": 5547,
      "Ġà¤ķà¤ı": 5548,
      "ĠØ§Ø¯Ø§": 5549,
      "Ġà¤®à¤¹à¤°": 5550,
      "Ø³Ûģ": 5551,
      "à¨°à¨¬": 5552,
      "ĠÙ¾Ø³": 5553,
      "ĠØ¨ØŃ": 5554,
      "à´¯à´¯": 5555,
      "ĠÚĨÙĪÙĨ": 5556,
      "á±¤á±£": 5557,
      "á±¤á±¹": 5558,
      "ĠÙĪÙĨ": 5559,
      "Ġcur": 5560,
      "à®®à®¤": 5561,
      "Ġà¤ļà¤ķ": 5562,
      "Ġà¤¯à¤ľ": 5563,
      "Ġà¤¯à¤¥": 5564,
      "Ġà¨¸à¨¹": 5565,
      "Ġà¤īà¤ľ": 5566,
      "à®±à®©": 5567,
      "ÚªÙĪ": 5568,
      "ĠØ±Ø§Ø²": 5569,
      "ĠØ¯Ø³Øª": 5570,
      "à°¸à°°": 5571,
      "à´®à´¤": 5572,
      "Ġà¤ĩà¤¥": 5573,
      "ĠØ´ÙĩØ±": 5574,
      "lem": 5575,
      "lease": 5576,
      "Ġà¦¨à¦¹": 5577,
      "à¤³à¤£": 5578,
      "Ġà®ķà®°": 5579,
      "ĠÙģØ§Ø¦": 5580,
      "Ġear": 5581,
      "Ġà¬ķà¬¹": 5582,
      "Ġstopped": 5583,
      "à¤µà¤°à¤£": 5584,
      "à¨£à¨ķ": 5585,
      "ĠÙĤÙĪÙħÛĮ": 5586,
      "ĠØ§ÛĮÙħ": 5587,
      "Ġà¦²à¦Ĺ": 5588,
      "Ġà¤ĵà¤²": 5589,
      "umar": 5590,
      "ĠØ·Ø§ÙĤ": 5591,
      "Ġà¦īà¦ł": 5592,
      "à®´à®ķ": 5593,
      "à¨ĸà¨£": 5594,
      "¸á±ľ": 5595,
      "Ġà¤īà¤ªà¤¸": 5596,
      "ĠàŃ§àŃ¦àŃ¦": 5597,
      "Ġ197": 5598,
      "Ġà®Ĩà®©": 5599,
      "osp": 5600,
      "Ġcla": 5601,
      "arent": 5602,
      "Ġworld": 5603,
      "ĠÙħØ´ÙĩÙĪØ±": 5604,
      "Ġà²īà²¤": 5605,
      "Ġbecame": 5606,
      "ĠÙĦÙĪÚ¯ÙĪÚº": 5607,
      "velop": 5608,
      "ĠØ§ØµÙĦ": 5609,
      "Ġremember": 5610,
      "Ġbunny": 5611,
      "27": 5612,
      "pt": 5613,
      "Û²": 5614,
      "à¤°à¤ªà¤¤": 5615,
      "à¥Ģ)": 5616,
      "Ġà®ĵ": 5617,
      "á±ļá±¬": 5618,
      "à´¨à´¯": 5619,
      "Ġkynt": 5620,
      "à´¤à´°": 5621,
      "à¤¡à¤¤": 5622,
      "ĠÙ¾Ú¾Ø±": 5623,
      "ĠØ¨Ú»": 5624,
      "Ġph": 5625,
      "á±¤á±ª": 5626,
      "Ġcry": 5627,
      "à´Łà´ª": 5628,
      "Ġà¦ªà¦¦": 5629,
      "Ġmor": 5630,
      "ĠÙĨØ´": 5631,
      "Ġê¯ĥê¯Ĳ": 5632,
      "ĠØ¢Ø¨": 5633,
      "à²µà²£": 5634,
      "à¦¸à¦¹": 5635,
      "à¨²à¨ķ": 5636,
      "Ú¯Ø§Ùħ": 5637,
      "Ø¹ÙĬ": 5638,
      "ommy": 5639,
      "ÙģÙĪ": 5640,
      "Ù¹Ø§": 5641,
      "Ġinst": 5642,
      "Ù²Ø±ÛĮ": 5643,
      "Ù¾ÙĨ": 5644,
      "ĠÚ¯Ø°": 5645,
      "Ġuse": 5646,
      "Ġà¨µà¨²": 5647,
      "adesh": 5648,
      "à´£à´®": 5649,
      "ices": 5650,
      "Ú»ÙĪ": 5651,
      "Ġà®®à®°": 5652,
      "ott": 5653,
      "Ġà¬ķà¬®": 5654,
      "Ġà¨ħà¨¨": 5655,
      "Ġà²¨à²®": 5656,
      "Ġá±ľá±·": 5657,
      "âĢĿ,": 5658,
      "illong": 5659,
      "à¤ĺà¤Łà¤¨": 5660,
      "ĠÛģÙĪØ¦ÛĮ": 5661,
      "à¬§à¬¬": 5662,
      "àª³àªµ": 5663,
      "Ġà¤īà¤ªà¤ļ": 5664,
      "Ġà¦Ĩà§°à¦ķ": 5665,
      "Ġà¦°à¦¯": 5666,
      "à¥§à¥¦": 5667,
      "âĢĭâĢĭ": 5668,
      "Ø¢Ø¨Ø§Ø¯": 5669,
      "á±ļá±ľá±¼á±Ł": 5670,
      "ĠØ¨ÛĮØ§ÙĨ": 5671,
      "ĠØ¬ÙĬÚªØ§": 5672,
      "ĠÙ¾ÙĬØ¯Ø§": 5673,
      "ĠàŃ¨àŃ¦àŃ¨àŃ§": 5674,
      "ĠØ§ØŃÙħØ¯": 5675,
      "ĠÙĪØ²ÛĮØ±": 5676,
      "ĠÚªÙĬØ§Ø¦ÙĬÙĨ": 5677,
      "Ġpretty": 5678,
      "ever": 5679,
      "fect": 5680,
      "iet": 5681,
      "kay": 5682,
      "kam": 5683,
      "nad": 5684,
      "á±Ļ": 5685,
      "à°ĩ": 5686,
      "à¤°à¤¯à¤¤": 5687,
      "à©«": 5688,
      "Ġá±ĸ": 5689,
      "à¤¸à¤µ": 5690,
      "à¤®à¤ľ": 5691,
      "Ġair": 5692,
      "ÙħØ³": 5693,
      "Ġsing": 5694,
      "Ġsat": 5695,
      "Ġsuch": 5696,
      "Ġà¤¬à¤°à¤¤": 5697,
      "à«ĩàªĤ": 5698,
      "Ġà¤ħà¤ļ": 5699,
      "Ġbor": 5700,
      "à´¨à´®": 5701,
      "ĠØªØ§Ùħ": 5702,
      "á±®á±¯": 5703,
      "à¤¥à¤ķ": 5704,
      "Ø§Ø±Ø§": 5705,
      "Ġlist": 5706,
      "oup": 5707,
      "Ġgreat": 5708,
      "à¦Ĺà¦°": 5709,
      "à²³à²Ĺ": 5710,
      "Ġà¨µà¨§": 5711,
      "à°µà°²": 5712,
      "Ġà¦¦à§°": 5713,
      "ĠàŃŃ": 5714,
      "á±®á±±á±Ł": 5715,
      "à¦ļà§°": 5716,
      "à¨µà¨°": 5717,
      "Ġred": 5718,
      "Ġà¨ħà¨¸": 5719,
      "ĠØ§Ø³ÛĮ": 5720,
      "à²ªà²¤": 5721,
      "ÛĦÙħ": 5722,
      "Ġà²ħà²¦": 5723,
      "akh": 5724,
      "Ġà¦Ĺà¦¤": 5725,
      "ê¯Įê¯ħ": 5726,
      "ĠØ§ÛĮØ³ÛĮ": 5727,
      "Ġass": 5728,
      "à¤ħà¤®": 5729,
      "Ġani": 5730,
      "à°·à°¯": 5731,
      "àµįâĢĮ.": 5732,
      "á±¤á±±á±«": 5733,
      "ĠØ±ÛģÛĮ": 5734,
      "Ġà¬¶à¬¨": 5735,
      "Ø§ÙĩØ±": 5736,
      "Ġá±ŀá±®á±łá±Ł": 5737,
      "odi": 5738,
      "àŃ¦àŃ¨àŃ¦": 5739,
      "====": 5740,
      "Ġê¯³ê¯°ê¯°ê¯°": 5741,
      "ĠÙĨØ¸Ø§Ùħ": 5742,
      "Ù²ÛĮÛĮ": 5743,
      "ĠØªÙĤØ±ÛĮØ¨": 5744,
      "ĠØ²ÙĨØ¯Ú¯ÛĮ": 5745,
      "Ġcrore": 5746,
      "ê¯¢ê¯Ĥê¯Ŀ": 5747,
      "anuvak": 5748,
      "Ġanimals": 5749,
      "Ġeyes": 5750,
      "05": 5751,
      "ais": 5752,
      "à´ħ": 5753,
      "à´ĩ": 5754,
      "à®İ": 5755,
      "à¤¨à¤®à¤¨": 5756,
      "Ġà¤ķà¤Ł": 5757,
      "ÙĦØ¦ÛĴ": 5758,
      "Ġsy": 5759,
      "ĠÙħÚ©": 5760,
      "ĠÙħØ§ÙĦ": 5761,
      "Ú©Ù¹": 5762,
      "Ġbha": 5763,
      "á±ļá±ª": 5764,
      "ĠÙ¾ÚĳÚ¾": 5765,
      "ĠØ¨ÛĴ": 5766,
      "à²¨à²¦": 5767,
      "Ġdem": 5768,
      "Ġà¤Ńà¤ı": 5769,
      "Ġà¦¸à¦°": 5770,
      "Ġmet": 5771,
      "à°¤à°®": 5772,
      "ĠÛĮÛĮ": 5773,
      "àªķàª²": 5774,
      "ĠØ±Ø§": 5775,
      "âĢĻ,": 5776,
      "á±©á±£": 5777,
      "ê¯©ê¯«": 5778,
      "á±¨á±ļ": 5779,
      "Ġà¦ıà¦²": 5780,
      "Ġà¤ªà¤°à¤¤": 5781,
      "à¨¼à¨¾à¨Ĥ": 5782,
      "à¤³à¤²": 5783,
      "Ġà®ķà®£": 5784,
      "Ġà¦ħà¦ŀ": 5785,
      "Ø±ÛĮÙģ": 5786,
      "Ġá±¦á±Łá±¹á±": 5787,
      "Ġà²ķà²¡": 5788,
      "Ġá±Łá±¥": 5789,
      "Ø§Ø¯Ø±": 5790,
      "à²ªà²°": 5791,
      "âĢĿ.": 5792,
      "ÚĻØ§": 5793,
      "ĠØ§ÙĦØ³ÙĦØ§Ùħ": 5794,
      "ĠJohn": 5795,
      "Ø§ÛģØ±": 5796,
      "olog": 5797,
      "á±ŀá±¤": 5798,
      "Ġ|-": 5799,
      "Ġà²İà²°à²¡": 5800,
      "Ġá±łá±·á±Łá±±": 5801,
      "ê¯¡ê¯Ĺê¯Ŀ": 5802,
      "à¨ĩà¨¤": 5803,
      "Ġá±©á±¯": 5804,
      "ĠEm": 5805,
      "ĠàŃ¨àŃª": 5806,
      "oney": 5807,
      "Ø§Ø¹Ø¸Ùħ": 5808,
      "Ġá±łá±ļá±£á±Łá±ľ": 5809,
      "ĠÚĬÙĬ": 5810,
      "ĠÙħÙĤØ§Ùħ": 5811,
      "à²İà²¸": 5812,
      "Ġstrong": 5813,
      "artment": 5814,
      "Ġá±¥á±®á±ªá±®á±«": 5815,
      "Ġhands": 5816,
      "Ġàªĩàª¨": 5817,
      "Ġpicked": 5818,
      "Ġhalor": 5819,
      "Ġê¯ģê¯Ľê¯ĩê¯Ŀ": 5820,
      "That": 5821,
      "What": 5822,
      "ex": 5823,
      "ness": 5824,
      "Ùĭ": 5825,
      "Ûħ": 5826,
      "à¤¯à¤¯": 5827,
      "ÛĮØ¯": 5828,
      "à¤µà¤Ĺ": 5829,
      "Ġà®¯": 5830,
      "à¤¦à¤¤": 5831,
      "ĠØ§Úª": 5832,
      "à¦¨à¦Ł": 5833,
      "à¦¨à¦®à¦¨": 5834,
      "Ġwin": 5835,
      "Ġbed": 5836,
      "Ġà¤µà¤ľ": 5837,
      "à´¤à´¨": 5838,
      "à¤·à¤®à¤¤": 5839,
      "Ġfar": 5840,
      "Ġfood": 5841,
      "ision": 5842,
      "ÛĶÛĶ": 5843,
      "ater": 5844,
      "ates": 5845,
      "Ġob": 5846,
      "Ġà¨ķà¨²": 5847,
      "ĠØ±Ù¾ÙĪØ±": 5848,
      "ĠÙĦÙĬ": 5849,
      "Ġgre": 5850,
      "à±Ģ.": 5851,
      "ĠØ¹ÙħØ±": 5852,
      "Ġà®ªà®ķ": 5853,
      "Ġà§Ń": 5854,
      "à²®à²¨": 5855,
      "Ġà¨ľà¨¨": 5856,
      "Ġà¨ħà¨§": 5857,
      "Ġà°ħà°²": 5858,
      "urs": 5859,
      "Ġà²¬à²°": 5860,
      "ected": 5861,
      "Ġà´ħà´¦": 5862,
      "Ġshim": 5863,
      "à²·à²£": 5864,
      "rand": 5865,
      "ĠDistrict": 5866,
      "á±Łá±¦á±Łá±¨": 5867,
      "à¤½à¤ª": 5868,
      "ÙĦÙĬÙħ": 5869,
      "Ġvo": 5870,
      "Ġ40": 5871,
      "Ġà¤Ĩà¤ªà¤ķ": 5872,
      "Ġseen": 5873,
      "ĠØªØ¹Ø¯Ø§Ø¯": 5874,
      "ĠÙĪØ§ÙĦÛĮ": 5875,
      "upang": 5876,
      "ĠØ³Ú¯Ùĩ": 5877,
      "Ġà¦ħà¦¸à¦®à§°": 5878,
      "ĠÙĪÚıÙĪ": 5879,
      "ĠÙ¾ÛģÙĦÛĴ": 5880,
      "ĠàŃ©àŃ¦": 5881,
      "Ġadded": 5882,
      "wards": 5883,
      "ĠÙħÙĪÙĦØ§ÙĨØ§": 5884,
      "Ú©Ù²Ø´": 5885,
      "Ġá±¯á±·á±¤á±ŀá±¢": 5886,
      "Ġê¯²ê¯°ê¯±": 5887,
      "22": 5888,
      "49": 5889,
      "ues": 5890,
      "wa": 5891,
      "à®¹": 5892,
      "Ø§Ú¾": 5893,
      "Ø±Ø±": 5894,
      "Ġá±Ķ": 5895,
      "à¤ķà¤µ": 5896,
      "à¤®à¤¯": 5897,
      "Ġà°ĸ": 5898,
      "ĠÚ©ÙĦ": 5899,
      "ĠØ§Øł": 5900,
      "ĠØ§Ø«Ø±": 5901,
      "Ġà¤ªà¤¡à¤²": 5902,
      "à¦°à¦¥à¦®": 5903,
      "Ġseng": 5904,
      "ĠÙħØ§": 5905,
      "ĠÙħØ¬Ú¾ÛĴ": 5906,
      "à®ķà®Ł": 5907,
      "Ġà¤¨à¤¦": 5908,
      "Ġbro": 5909,
      "à¤£à¤ķ": 5910,
      "ĠØªØµÙĪ": 5911,
      "ĠÙ¾ÙĦÙĪ": 5912,
      "ĠÙĪØ±Øª": 5913,
      "Ġcas": 5914,
      "Ġcourt": 5915,
      "Ġmum": 5916,
      "à¦¸à¦²": 5917,
      "à¨¸à¨®": 5918,
      "à¨²à¨ľ": 5919,
      "ale": 5920,
      "àªķàª¡": 5921,
      "Ġà¦Ĩà¦ª": 5922,
      "à´ªà´¯": 5923,
      "Ġà¤ĸà¤¡": 5924,
      "ĠØ´Ù²": 5925,
      "Ġà¨¨à¨µ": 5926,
      "àª¸àª®": 5927,
      "à¤ĩà¤ľ": 5928,
      "Ġà°ķà°¨": 5929,
      "Ġê¯Ģê¯Į": 5930,
      "à¬¸à¬°": 5931,
      "à§±à§°": 5932,
      "Ø§ØªÙĬ": 5933,
      "Ġàªľàª°": 5934,
      "Ġà®ļà®°": 5935,
      "Ġà¨ĩà¨¨": 5936,
      "une": 5937,
      "á±±á±ļá±": 5938,
      "Ġà´®à´±": 5939,
      "Ġàªķàª°àª¤": 5940,
      "à¤ħà¤ªà¤¨": 5941,
      "Ġà¦īà¦ļ": 5942,
      "Ġang": 5943,
      "á±ļá±Ľá±ļ": 5944,
      "Ø§Ø³ÙĬ": 5945,
      "ê¯ŀê¯ħ": 5946,
      "Ġliang": 5947,
      "Ġà¦ĵà¦ª": 5948,
      "ĠÙħØ¹ÙĦÙĪÙħ": 5949,
      "Ġà¤¸à¤¬à¤¸": 5950,
      "amend": 5951,
      "Ġá±Łá±¹á±Ľá±©": 5952,
      "ĠÙĪØ§Ø±ÙĪ": 5953,
      "Ġá±´á±ļá±´": 5954,
      "........": 5955,
      "Ġàª§àª°": 5956,
      "ĠÙĨØ§ÙĦÙĬ": 5957,
      "Ġà´ªà´±à´¯": 5958,
      "ĠÙ¾ÛģÙĨÚĨ": 5959,
      "ĠÙĨØ§Ú¯": 5960,
      "á±Łá±¸á±¦": 5961,
      "ĠØ§ÙĨÛģÙĪÚº": 5962,
      "ĠØ¶Ø±ÙĪØ±Øª": 5963,
      "ĠØ¯ÛĦÛģ": 5964,
      "Ù¾ØªØ§ÙĦ": 5965,
      "engaluru": 5966,
      "anuvakamend": 5967,
      "45": 5968,
      "ike": 5969,
      "oi": 5970,
      "É¨": 5971,
      "à¤¿âĢĻ": 5972,
      "Ø§ÛĴ": 5973,
      "à¤ķà¤£": 5974,
      "Ġà´·": 5975,
      "ĠÙħÙ¿": 5976,
      "Ġà¤ľà¤¸": 5977,
      "à¦²à¦¬": 5978,
      "à¤ĸà¤®": 5979,
      "Ø¨ÙĨ": 5980,
      "ĠÛģÙĨØ¯": 5981,
      "ata": 5982,
      "à°¤à°²": 5983,
      "à¥ĳà¥¤": 5984,
      "à´²à´ķ": 5985,
      "idd": 5986,
      "à¬ķà¬¨": 5987,
      "àªķàª®": 5988,
      "à°Łà°¨": 5989,
      "Ù²Ø¯ÛĮ": 5990,
      "á±©á±¡": 5991,
      "Ġàªķàª²": 5992,
      "à²³à²²": 5993,
      "à°ªà°°": 5994,
      "ê¯Ĺê¯ķ": 5995,
      "à°Ĺà°°": 5996,
      "Ġà§¬": 5997,
      "à´¸à´°": 5998,
      "à¨µà¨¨": 5999,
      "ĠMa": 6000,
      "ĠMLA": 6001,
      "ĠØ¬ÙĪØ§Ø¨": 6002,
      "á±Łá±¹á±ŀ": 6003,
      "Ġàªħàª¥": 6004,
      "ĠAr": 6005,
      "Ġret": 6006,
      "Ġà´®à´¨": 6007,
      "Ġà¤ĵà¤ķà¤°": 6008,
      "angbah": 6009,
      "Ġà¬ħà¬Ĺ": 6010,
      "Ġwhy": 6011,
      "Ú¯Ø±Ø§Ùħ": 6012,
      "ĠÙ¿ÙĬÙĦ": 6013,
      "Ġà¤ķà¤¹à¤²": 6014,
      "à¥§à¥¯": 6015,
      "àŃ§àŃ¦àŃ¦àŃ¦": 6016,
      "Ġà¤¸à¤¹à¤¯": 6017,
      "à¨ħà¨¨": 6018,
      "á±µá±ļá±¨": 6019,
      "Ġlooking": 6020,
      "Ġtrans": 6021,
      "Ġàª¸àª®àª¯": 6022,
      "ĠÙħØªØ¹": 6023,
      "ĠØ¯ÙĨÙĬØ§": 6024,
      "ĠÙģØ±ÙħØ§ÛĮØ§": 6025,
      "Ġà¤¨à¤Ĺà¤°à¤ª": 6026,
      "ĠÙħØ§Ú»ÙĩÙĨ": 6027,
      "Ġtrain": 6028,
      "Ġbaroh": 6029,
      "Ġà¦¸à¦¦à¦¸": 6030,
      "ĠØŃÙĬØ¯Ø±": 6031,
      "ĠØ¯ÙĬÚ¾": 6032,
      "PTI": 6033,
      "bor": 6034,
      "ms": 6035,
      "ti": 6036,
      "ÙĨÙ¹Ø±": 6037,
      "Ġá±³": 6038,
      "à¤²à¤ª": 6039,
      "Ġà¤ķà¤Ń": 6040,
      "Ġtest": 6041,
      "à¤µà¤«": 6042,
      "ÛģÙĪ": 6043,
      "Ġà¤¸à¤ľ": 6044,
      "Ġà¤¸à¤§": 6045,
      "ĠÚ©Ø§ÙĦ": 6046,
      "Ġser": 6047,
      "ines": 6048,
      "ĠØ¬ÛĮØ³": 6049,
      "Ġkham": 6050,
      "ĠØªØ´": 6051,
      "ĠØªØ¬": 6052,
      "à¤¶à¤¸": 6053,
      "á±®á±¸": 6054,
      "Ø§Ø±Ùģ": 6055,
      "Ġcre": 6056,
      "ari": 6057,
      "Ġà¦¸à§°": 6058,
      "ataka": 6059,
      "à§Ģà¥¤": 6060,
      "à¦¸à¦Ń": 6061,
      "à¨²à¨®": 6062,
      "à®¯à®±": 6063,
      "à®±à®ª": 6064,
      "à°Łà°²": 6065,
      "Ġà¤ıà¤¤": 6066,
      "ĠØ¯Ø§ÙĨ": 6067,
      "Ġà¦Ĩà¦ĩ": 6068,
      "à´±à´¤": 6069,
      "à¦ľà¦¤": 6070,
      "Ġgive": 6071,
      "ĠØ´Ú¾Ø±": 6072,
      "Ġá±¥á±®á±«": 6073,
      "à¦¶à¦ķ": 6074,
      "à¤Ĩà¤¨": 6075,
      "ØŃØ¯": 6076,
      "àªŁàª®": 6077,
      "ĠMay": 6078,
      "ĠàªħàªŃ": 6079,
      "Ø§Ø¨ÙĦ": 6080,
      "ĠÙ¿Ø¦ÙĬ": 6081,
      "Ġà°¤à°®": 6082,
      "Ġhadien": 6083,
      "ange": 6084,
      "ills": 6085,
      "Ġanother": 6086,
      "ĠKa": 6087,
      "á±¤á±Ńá±Łá±±": 6088,
      "Ø§Ø±ÙĬØ®": 6089,
      "àµ¼à´ķ": 6090,
      "ĠÙ¾ÛĮÙ¹Ú¾": 6091,
      "ĠÚªØ±Ø§": 6092,
      "Ġprom": 6093,
      "à²ķà²°à²£": 6094,
      "Ġprov": 6095,
      "Ġbright": 6096,
      "Ġá±¤á±±": 6097,
      "Ġà¬²à¬ķ": 6098,
      "ĠØ³Ú¯ÙĩÙĬ": 6099,
      "arnataka": 6100,
      "ĠTommy": 6101,
      "ĠØ³Ø¨Ø¨": 6102,
      "ĠØ¬Ø¨Ú©Ûģ": 6103,
      "Ġà¨ĺà¨°": 6104,
      "Ġused": 6105,
      "Ġà¤ĳà¤«": 6106,
      "Ġá±¥á±ļá±¨á±ł": 6107,
      "ĠØŃÚªÙĪÙħØª": 6108,
      "Ġá±´á±ļá±´á±·á±Ł": 6109,
      "You": 6110,
      "cess": 6111,
      "dd": 6112,
      "ØĽ": 6113,
      "á±Ŀ": 6114,
      "à´Ĩ": 6115,
      "àª¢": 6116,
      "à¤¨à¤«": 6117,
      "Ġà¬§": 6118,
      "ĠØ§ÛĴ": 6119,
      "ØªØŃ": 6120,
      "Ġà¤ªà¤¸": 6121,
      "à¤ªà¤·": 6122,
      "à¦¨à¦¨": 6123,
      "à¤ľà¤µ": 6124,
      "à¤¥à¤®": 6125,
      "à®Łà®ª": 6126,
      "Ø¨Ø§": 6127,
      "Ġpyr": 6128,
      "Ġfur": 6129,
      "à´°à´¯": 6130,
      "ÙĪØ±Ûģ": 6131,
      "à¦¸à¦¬": 6132,
      "Ø¬Ø¯": 6133,
      "à´Ĥ,": 6134,
      "Ġnight": 6135,
      "à¤Īà¤ķ": 6136,
      "ĠÚªÙĨØ¯Ø§": 6137,
      "à¦ªà¦¦": 6138,
      "à¨ķà¨Ł": 6139,
      "Ù²Ø¨": 6140,
      "ĠÙĦÛĮØ§": 6141,
      "à¬²à¬Ł": 6142,
      "Ġà¦ıà¦®": 6143,
      "Ġà®ªà®±": 6144,
      "ĠÙģÙĬ": 6145,
      "à¨Ĩà¨¦": 6146,
      "Ġà§®": 6147,
      "à³ĩà²Ĥ": 6148,
      "Ù½ÙĨ": 6149,
      "Ġà²ķà²¨": 6150,
      "à¦£à§°": 6151,
      "ØµÙĦ": 6152,
      "à§±à¦¨": 6153,
      "Ġàªľàªµ": 6154,
      "ê¯ıê¯Ķ": 6155,
      "Ġàªħàª°": 6156,
      "Ġà²ħà²¥": 6157,
      "ĠØ²Ø±": 6158,
      "à¤īà¤Ł": 6159,
      "Ġá±¡á±ļá±ł": 6160,
      "à¬ĩà¬¬": 6161,
      "Ġà¬°à¬¬": 6162,
      "Ø·ÙĦ": 6163,
      "Ġym": 6164,
      "Ġàª¦àª°àª®": 6165,
      "Ġann": 6166,
      "Ù²ÙĨÛĮ": 6167,
      "á±¢á±¤": 6168,
      "àª¬àª°": 6169,
      "à«ĤàªĤ": 6170,
      "Ġàªıàªµ": 6171,
      "Ġà²ĩà²¨": 6172,
      "Ġ2016": 6173,
      "ained": 6174,
      "ĠUS": 6175,
      "Ġdoll": 6176,
      "Ġá±ªá±Łá±ŀ": 6177,
      "ĠÙħÙĨØª": 6178,
      "ĠÙ¾ÙĨØ¬Ø§Ø¨": 6179,
      "ĠÙħØ´Øª": 6180,
      "----": 6181,
      "Ġà´ıà´±": 6182,
      "Ġá±®á±¢á±Łá±±": 6183,
      "ĠÙĪØ³ÙĦÙħ": 6184,
      "\")": 6185,
      "\".": 6186,
      "long": 6187,
      "ror": 6188,
      "Ġ+": 6189,
      "à¤¨à¤ĸ": 6190,
      "à¥Ģ'": 6191,
      "à¤²à¤¹": 6192,
      "à¦¿-": 6193,
      "Ġà®¸": 6194,
      "ĠØ§Ø¯Ø§Ø±": 6195,
      "à³į.": 6196,
      "à§°à¦¦": 6197,
      "ĠÙħÚª": 6198,
      "Ġà¤ľà¤µà¤³": 6199,
      "à°¨à°ª": 6200,
      "à¥Ĥ,": 6201,
      "à¦¼à§ģ": 6202,
      "à¤¥à¤²": 6203,
      "à¤ĸà¤¦": 6204,
      "ê¯¡ê¯Ī": 6205,
      "Ġfinis": 6206,
      "ĠÚĨÙĬÙĪ": 6207,
      "ĠÙĪÙĬØ§": 6208,
      "à°ķà°¡": 6209,
      "orted": 6210,
      "ÙĤÙĪ": 6211,
      "Ġà¨¸à¨Ł": 6212,
      "Ġà¤īà¤ķ": 6213,
      "Ø¹Øª": 6214,
      "aya": 6215,
      "illy": 6216,
      "Ġhurt": 6217,
      "ĠÙĦÛĴ": 6218,
      "à¦Ľà§°": 6219,
      "Ġgi": 6220,
      "ĠàªªàªĽ": 6221,
      "ĠÚ©ÛĮÙĦØ¦ÛĴ": 6222,
      "Ġà¦ıà¦Ľ": 6223,
      "Ġá±¥á±©á±¨": 6224,
      "ĠØ¹ÙĪØ±Øª": 6225,
      "Ø±ÛĮÚ©": 6226,
      "à¤¼à¥Ī": 6227,
      "ĠModi": 6228,
      "ĠØ®ØªÙħ": 6229,
      "àªªàª¤": 6230,
      "Ġà°¸à°°": 6231,
      "Ġà®ħà®ª": 6232,
      "ster": 6233,
      "Ġá±¯á±©á±¨": 6234,
      "Ġàª¹àªµ": 6235,
      "ech": 6236,
      "ê¯Įê¯Ķ": 6237,
      "Ġà¤ĵà¤®": 6238,
      "Ġshop": 6239,
      "Ġá±®á±´": 6240,
      "ĠâĢĺâĢĺ": 6241,
      "Ġà²¤à²¨": 6242,
      "Ġà²İà²¨": 6243,
      "Ġà®īà®±": 6244,
      "Ġarri": 6245,
      "Ġshah": 6246,
      "Ġà°²à°ķ": 6247,
      "á±µá±·": 6248,
      "ublic": 6249,
      "Ġà®ħà®¤à®©": 6250,
      "Ġà¦īà¦ªà¦ľ": 6251,
      "ĠØ§ÙħØ§Ùħ": 6252,
      "Ġchief": 6253,
      "ĠØ®ÙĪØ´": 6254,
      "Ġeveryone": 6255,
      "Ø§Ø¤ÙĨ": 6256,
      "ĠÚĨÛĮØ²": 6257,
      "à°İà°¸": 6258,
      "ĠÙģÙĪØ¬": 6259,
      "Ġà§§à§¦": 6260,
      "ĠÚ¯ÛĦÚĪ": 6261,
      "ĠØ§ÙĨØ¯Ø§Ø²": 6262,
      "Ġreplied": 6263,
      "arents": 6264,
      "23": 6265,
      "37": 6266,
      "60": 6267,
      "KK": 6268,
      "No": 6269,
      "Sh": 6270,
      "ead": 6271,
      "ya": 6272,
      "Ø±Øł": 6273,
      "ĠÚ©Ø±ÛĮ": 6274,
      "ĠÚ©ÛĦ": 6275,
      "ĠØ§Ø²": 6276,
      "ĠÙħÚ¯Ø±": 6277,
      "à°¿..": 6278,
      "à¤ļà¤¯": 6279,
      "à¥Īà¤ģ": 6280,
      "à¦ķà¦ķ": 6281,
      "à¨°à¨ļ": 6282,
      "ĠØ¬Ú¾": 6283,
      "ĠØ³Øª": 6284,
      "haw": 6285,
      "à´ķà´²": 6286,
      "à°²à°¤": 6287,
      "ĠÙ¾ÙĪÙĦ": 6288,
      "Ġparents": 6289,
      "Ġcast": 6290,
      "Ġdr": 6291,
      "à²µà²²": 6292,
      "Ú¯ÙĪ": 6293,
      "ĠÛĮÙĪØ§ÙĨ": 6294,
      "Ġà¨ķà¨¹": 6295,
      "ĠÚªØ¬ÙĩÙĩ": 6296,
      "Ġà¤ıà¤ª": 6297,
      "ê¯¦.": 6298,
      "à°¯à°°": 6299,
      "Ġàªķàª®": 6300,
      "let": 6301,
      "ĠÙĩÙĦ": 6302,
      "à¤łà¤²": 6303,
      "Ġá±¢á±Łá±±": 6304,
      "à°ļà°¨": 6305,
      "Ø±ÙĬØ§": 6306,
      "ution": 6307,
      "Ġstory": 6308,
      "Ø§ØªÛĴ": 6309,
      "Ġá±Łá±«": 6310,
      "Ġref": 6311,
      "Ġreally": 6312,
      "Ġà°®à°§": 6313,
      "Ġà®ĩà®ª": 6314,
      "Ġland": 6315,
      "à¨¬à¨ķ": 6316,
      "à¤¢à¤²": 6317,
      "Ġà¦Ĺà¦£": 6318,
      "Ġà´ħà´Ń": 6319,
      "à¤°à¤¸à¤Ń": 6320,
      "Ġà°¤à°ª": 6321,
      "ê¯łê¯Ģ": 6322,
      "illed": 6323,
      "ĠRaj": 6324,
      "Ø¶ÙĪ": 6325,
      "à¬ľà¬°": 6326,
      "à¬ľà¬¨": 6327,
      "Ġà²ĩà²°": 6328,
      "Ġà¦ĩà¦¤": 6329,
      "ĠÙ»ÙĨ": 6330,
      "thing": 6331,
      "ĠÙĬÙĪÙĨÙĬ": 6332,
      "ĠÙħÙĦØ§Ø²": 6333,
      "ific": 6334,
      "à¥§à¥¨": 6335,
      "Ġ60": 6336,
      "ĠÙ¾ÛĮØº": 6337,
      "ĠØºÛĮØ±": 6338,
      "085": 6339,
      "retary": 6340,
      "ĠØ§ÙĩØ§": 6341,
      "Ġàªīàªªàª¯": 6342,
      "Ġà²ľà²¨à²°": 6343,
      "Ġmeeting": 6344,
      "Ġcontinued": 6345,
      "Ġá±Ĵá±Ĳá±Ĳá±": 6346,
      "Ġquickly": 6347,
      "Ġà²ħà²¥à²µ": 6348,
      "ĠÙĬÙĪÙĨÙĬÙĪØ±Ø³": 6349,
      "01": 6350,
      "07": 6351,
      "09": 6352,
      "We": 6353,
      "ient": 6354,
      "ject": 6355,
      "Ú±": 6356,
      "Ûį": 6357,
      "à¦Ŀ": 6358,
      "à¨¢": 6359,
      "à¥įà¥¥": 6360,
      "Ø±Ø§Ùħ": 6361,
      "ÙĬØ²": 6362,
      "Ġà¤ķà¤§": 6363,
      "à¤µà¤ľà¤¨": 6364,
      "à¤¦à¤¸": 6365,
      "á±Łá±¬": 6366,
      "á±Łá±¸": 6367,
      "Ø³Ù¹": 6368,
      "ĠÙħÙĦÙĬ": 6369,
      "à´¿,": 6370,
      "Ġà¤Ĩà¤ıà¤ķ": 6371,
      "à¨°à¨²": 6372,
      "à¦²à¦ª": 6373,
      "Ġkine": 6374,
      "à¥Ĥà¤ģ": 6375,
      "à®Łà®²": 6376,
      "any": 6377,
      "Ø§Ø±ÙĪ": 6378,
      "à²¨à²¡": 6379,
      "ĠÙĪØº": 6380,
      "Ġcond": 6381,
      "Ġà¦¸à¦¤": 6382,
      "ĠÙĨÙĬ": 6383,
      "ĠÙĨÚ¯": 6384,
      "à´²à´¤": 6385,
      "à²¯à²¤": 6386,
      "à²¯à²µà²°": 6387,
      "à¨²à¨¤": 6388,
      "Ġá±łá±Ł": 6389,
      "ÙģÙĬ": 6390,
      "à¨ķà¨Łà¨°": 6391,
      "esp": 6392,
      "Ġà¦Ĩà¦ĩà¦¨": 6393,
      "ĠSing": 6394,
      "Ġá±¥á±®á±ŀ": 6395,
      "à°Ĺà°¨": 6396,
      "à¬Łà¬£": 6397,
      "ĠØ®ÛĮ": 6398,
      "Ġà²ķà²³": 6399,
      "ached": 6400,
      "Ġà¤ħà¤¸à¤®": 6401,
      "ĠAt": 6402,
      "ĠÙĤØ§ÙĨ": 6403,
      "à²ªà²Ł": 6404,
      "Ġà¨ĩà¨²": 6405,
      "Ġà²ħà²°": 6406,
      "akistan": 6407,
      "Ġthing": 6408,
      "Ġàª¬àª¹": 6409,
      "room": 6410,
      "à¬ĸà¬°": 6411,
      "ĠDep": 6412,
      "Ġà¨Ĺà¨ı": 6413,
      "Ġà²Ĩà²¸": 6414,
      "ĠàŃ§àŃ¬": 6415,
      "Ġvac": 6416,
      "Ġà¥§à¥«": 6417,
      "Ġà°ĩà°ļ": 6418,
      "istry": 6419,
      "ĠÙ»ÚĮ": 6420,
      "Ġà¦Ľà¦¬": 6421,
      "Ġà°İà°ķ": 6422,
      "Ġclim": 6423,
      "yntri": 6424,
      "à¤¨à¤¸à¤Ń": 6425,
      "á±¤á±łá±Ł": 6426,
      "à¦ıà¦¨": 6427,
      "Ġsmile": 6428,
      "Ġê¯±ê¯¸": 6429,
      "maz": 6430,
      "ĠâĢĻâĢĻ": 6431,
      "ĠØ¯ÙĨÛĮØ§": 6432,
      "ording": 6433,
      "á±Łá±¹á±±á±¤": 6434,
      "Ġneeded": 6435,
      "Ġmonth": 6436,
      "ĠØ§ÙĨÛģÛĮÚº": 6437,
      "Ù²Ø±Øł": 6438,
      "ĠÙĪÙºÙĬ": 6439,
      "ospital": 6440,
      "Rupang": 6441,
      "ek": 6442,
      "ib": 6443,
      "row": 6444,
      "where": 6445,
      "Ì¡": 6446,
      "à¤¾'": 6447,
      "à²ĩ": 6448,
      "à´Ĳ": 6449,
      "Ġá±ķ": 6450,
      "Ġá±ĺ": 6451,
      "à¤ķà¤¶": 6452,
      "à¤Ĥà¥¤": 6453,
      "hea": 6454,
      "ÙĦÚ©": 6455,
      "Ġap": 6456,
      "Ġà´ŀ": 6457,
      "ĠØ§ÚĨÙĬ": 6458,
      "ØªØ§ÙĨ": 6459,
      "Ġà¤ªà¤²": 6460,
      "Ġà¤ªà¤Ł": 6461,
      "à¤Ĺà¤łà¤¨": 6462,
      "Ġà¤¦à¤¹": 6463,
      "ê¯¥,": 6464,
      "Ġà¤Ĩà¤ı": 6465,
      "ĠØ¬Ø§Ø±ÛĮ": 6466,
      "àª¨àª®": 6467,
      "à¤¾à¤Ĥ,": 6468,
      "à¦®à¦¬": 6469,
      "à¤ĸà¤¤": 6470,
      "Ġpie": 6471,
      "Ġfav": 6472,
      "Ø§Ø±ØªÛĮ": 6473,
      "à²¨à²µ": 6474,
      "ĠÙĪÚĨ": 6475,
      "ished": 6476,
      "Ġà¦¬à¦ķ": 6477,
      "Ġmoney": 6478,
      "à¦¸à§°": 6479,
      "à¦¦à¦°": 6480,
      "ala": 6481,
      "Ġnice": 6482,
      "ĠÛĮÙħ": 6483,
      "à®µà®®": 6484,
      "ĠØ±Ø§Øª": 6485,
      "ĠØ±Ø¶": 6486,
      "ê¯ģê¯ħ": 6487,
      "Ġgu": 6488,
      "ê¯Ŀê¯Ĥ": 6489,
      "Ġà¨µà¨°à¨¤": 6490,
      "à¦¹à¦°": 6491,
      "Ġà¦ħà¦ª": 6492,
      "Ġá±¢á±ļá±±": 6493,
      "ĠØŃÙħ": 6494,
      "ĠØŃØµ": 6495,
      "Ġà¤¸à¤®à¤ľ": 6496,
      "ĠMaw": 6497,
      "Ġà¨ħà¨Ĺ": 6498,
      "ĠàªĨàªľ": 6499,
      "ĠàªĨàª§": 6500,
      "á±Łá±¹á±ł": 6501,
      "á±Łá±¨á±®": 6502,
      "àŃ¦àŃ®": 6503,
      "ĠØ²ÙħØ§ÙĨ": 6504,
      "à¤īà¤¤": 6505,
      "Ġá±¡á±Łá±¹á±Ľ": 6506,
      "à±Ĥ.": 6507,
      "Ġà´ħà´Ł": 6508,
      "Ġà¦ķà¦°à¦Ľ": 6509,
      "Ġà¤ĵà¤¨à¤¸": 6510,
      "Ġshuh": 6511,
      "à°ľà°¨": 6512,
      "Ġà¤¸à¤°à¤¬": 6513,
      "Ġà°Ĩà°®": 6514,
      "Ġà´İà´²": 6515,
      "Ġà°īà°¦": 6516,
      "ĠÚıÙĨÙĪ": 6517,
      "Ġà®īà®°": 6518,
      "hank": 6519,
      "Ġà°ĩà°ķ": 6520,
      "Ġseat": 6521,
      "ctor": 6522,
      "Ġshar": 6523,
      "abbit": 6524,
      "ants": 6525,
      "ĠØªØ¹Ø§ÙĦÛĮ": 6526,
      "ĠØºÙĦØ§Ùħ": 6527,
      "hip": 6528,
      "Ġá±§á±®á±ŀ": 6529,
      "ĠAss": 6530,
      "ĠØ¨ÙĦÚ©Ûģ": 6531,
      "Ġsnem": 6532,
      "ĠÙ¾Ù²Ú©": 6533,
      "à¤°à¤¥à¤®": 6534,
      "ĠÙħØ§Ú»ÙĩÙĪ": 6535,
      "ĠÙħÛĮØ±ÛĴ": 6536,
      "Ġvisit": 6537,
      "Ġchildren": 6538,
      "Ġcases": 6539,
      "Ġàªħàª¥àªµ": 6540,
      "38": 6541,
      "mit": 6542,
      "Ûª": 6543,
      "à´ł": 6544,
      "ÛĮÛĴ": 6545,
      "Ġá±Ĺ": 6546,
      "ĠÚ¦": 6547,
      "âĢ¢": 6548,
      "à³įâĢį": 6549,
      "Ġsk": 6550,
      "à¤Ĺà¤ļ": 6551,
      "Ġthese": 6552,
      "à±ģ..": 6553,
      "Ġà¤¨à¤Ń": 6554,
      "à²°à²¹": 6555,
      "à¤¬à¤¥": 6556,
      "Ø§ÙĨÙĬ": 6557,
      "Ġbiang": 6558,
      "Ġà¤¤à¤¬": 6559,
      "Ġà¤¤à¤¹à¤¤": 6560,
      "ĠØªØµ": 6561,
      "ĠØªØ§Ø±ÙĬØ®": 6562,
      "à°²à°ª": 6563,
      "à¤·à¤°": 6564,
      "à¦®à¦ķ": 6565,
      "à´°à´³": 6566,
      "ĠÙĪØ§Øª": 6567,
      "Ġdet": 6568,
      "à¤Ńà¤µà¤¤": 6569,
      "ator": 6570,
      "ĠØ¯Ùģ": 6571,
      "à´±à´µ": 6572,
      "à¨¹à¨°": 6573,
      "Ġá±«á±Łá±ľ": 6574,
      "ĠàŃ¯": 6575,
      "Ġà¬¸à¬°à¬ķ": 6576,
      "àªŁàªķ": 6577,
      "ÚĨØ±": 6578,
      "à¦¼à§ĩà¥¤": 6579,
      "Ġstud": 6580,
      "Ġà°ħà°¸": 6581,
      "ĠØ§Ø³Ù½": 6582,
      "ê¯ıê¯ĳ": 6583,
      "Ġà®ļà®¨": 6584,
      "à¨Łà¨¨": 6585,
      "ĠÚ©Ø±ÙĨÛģ": 6586,
      "ĠÙĤØªÙĦ": 6587,
      "Ø®ÙĪ": 6588,
      "àŃ¦àŃª": 6589,
      "ynn": 6590,
      "à¨ªà¨¤": 6591,
      "Ġà¦Ĺà§°": 6592,
      "Ġà´ħà´®": 6593,
      "Ġà´ħà´§": 6594,
      "Ġá±±á±Łá±ľ": 6595,
      "á±Ľá±Ł": 6596,
      "á±Ľá±Łá±²": 6597,
      "ĠKarnataka": 6598,
      "Ġà¨Ĩà¨ľ": 6599,
      "Ġà¥§à¥ª": 6600,
      "Ġà¥§à¥®": 6601,
      "Ġlok": 6602,
      "Ġlove": 6603,
      "ÙĨØ§ÙĪÙĨÛģ": 6604,
      "Ġ2014": 6605,
      "Ġà´Ĩà´¦": 6606,
      "à¥§à¥Ń": 6607,
      "ĠÚĪØ§Ú©": 6608,
      "ĠÙĩÙĪÙĨØ¯ÙĪ": 6609,
      "ĠØ°Ø±ÛĮ": 6610,
      "ĠØ¨ÙĨÙĬ": 6611,
      "Ġbrother": 6612,
      "ĠÙħÙĤØ±Ø±": 6613,
      "Ġgrow": 6614,
      "ÙħÙĨÙ¹": 6615,
      "Ġdevelop": 6616,
      "Ø¯ÙĪØ³ØªØ§ÙĨ": 6617,
      "Ġá±¥á±®á±¨á±®á±§": 6618,
      "Ġunderst": 6619,
      "à®ĩà®¨": 6620,
      "Ġbuild": 6621,
      "Ġá±¡á±Łá±±á±Łá±Ŀ": 6622,
      "ĠØ§ÙĨÚ¯Ø±ÙĬØ²": 6623,
      "ĠKhubor": 6624,
      "Ġà¦ĵà¦ªà§°à¦¤": 6625,
      "Ġá±®á±´á±Łá±ľ": 6626,
      "\",": 6627,
      "PI": 6628,
      "az": 6629,
      "min": 6630,
      "Û±": 6631,
      "Ġ&": 6632,
      "Ø§ÙĪÙĨ": 6633,
      "à¤¤à¤¹": 6634,
      "à¤¯à¤£": 6635,
      "ĠØ§ÚĨ": 6636,
      "ĠØ§ÙĦÙħ": 6637,
      "ĠØ§Ø¶": 6638,
      "Ø³Ø±": 6639,
      "ĠÙħØ²": 6640,
      "ĠÙħØ³Øª": 6641,
      "ĠÙħØ¶": 6642,
      "Ġwa": 6643,
      "àª°àª¦": 6644,
      "Ġà¤ħà¤¡": 6645,
      "Ġà¤¤à¤¨": 6646,
      "ĠØ³ÛĦ": 6647,
      "ĠØ³ÙĦØ³": 6648,
      "Ġà¤Ĺà¤ľ": 6649,
      "à´ķà´¨": 6650,
      "à®Łà®ķ": 6651,
      "ana": 6652,
      "ĠØ¨Ø§Ù¾": 6653,
      "Ġpet": 6654,
      "Ġfew": 6655,
      "Ġfell": 6656,
      "à´°à´³à´¤": 6657,
      "á±¤á±°": 6658,
      "Ø§Ø±ÙĨ": 6659,
      "Ġchan": 6660,
      "Ġcap": 6661,
      "Ġcook": 6662,
      "à¬¨à¬¨": 6663,
      "Ġdress": 6664,
      "Ġdire": 6665,
      "Ġdream": 6666,
      "Ġà¤Ńà¤½": 6667,
      "ĠØ¢Ø¬": 6668,
      "àª®àªľ": 6669,
      "à´²à´µ": 6670,
      "Ú¯ÙĨ": 6671,
      "Ġà¤ıà¤«": 6672,
      "Ġà¦Ĩà¦ªà¦¨": 6673,
      "á±©á±°": 6674,
      "à¬²à¬ķ": 6675,
      "Ù¾ÙĦ": 6676,
      "à¨¹à¨¨": 6677,
      "à¦Ĺà¦łà¦¨": 6678,
      "à¬®à¬¨": 6679,
      "Ġá±¥á±®á±±": 6680,
      "á±Łá±ľá±¼á±Ł": 6681,
      "à¨¼à©ĭ": 6682,
      "à°Ĺà°¤": 6683,
      "ets": 6684,
      "Ġju": 6685,
      "Ġà²¸à²²": 6686,
      "à¨¾à¨Ĥ,": 6687,
      "ĠØ®Ø¯": 6688,
      "ĠØ®Ø¨Ø±": 6689,
      "ê¯¢ê¯Ĺ": 6690,
      "ÛĮØ§Ø¯": 6691,
      "ØµØ±": 6692,
      "Ġste": 6693,
      "Ġstand": 6694,
      "Ġà°ħà°°": 6695,
      "à¤°à¤®à¤®": 6696,
      "Ġreport": 6697,
      "ieh": 6698,
      "à¦ĸà¦¤": 6699,
      "à¦ĸà¦¨à§°": 6700,
      "Ġà²¹à²£": 6701,
      "Ġà®¨à®²": 6702,
      "à¤¢à¤¤": 6703,
      "Ġà¤Łà¤ķ": 6704,
      "à±Īà°Ĥ": 6705,
      "Ġplan": 6706,
      "ÙĦÛĮÙħ": 6707,
      "Ġà²Ĩà²¦": 6708,
      "à²¶à²¨": 6709,
      "àªļàª¨": 6710,
      "rib": 6711,
      "ĠØ¬ÙĨØ±ÙĦ": 6712,
      "Ġà°īà°ª": 6713,
      "Ġà®īà®²": 6714,
      "Ġalle": 6715,
      "Ġleh": 6716,
      "ĠØ¬Ø§ÛĴ": 6717,
      "Ġà¦§à¦¨": 6718,
      "ĠØ°Ø±ÙĬ": 6719,
      "ĠØ¬Ø§ÙĨØ¨": 6720,
      "Ġworked": 6721,
      "Ġcoming": 6722,
      "ĠàŃ¨àŃ¦": 6723,
      "ĠØªØ±Ø¬": 6724,
      "Ġà¬īà¬ªà¬°": 6725,
      "ĠÛģÙħØ§Ø±ÛĴ": 6726,
      "Ġá±µá±·á±Łá±¨": 6727,
      "'''": 6728,
      "Ġenough": 6729,
      "ĠÙĨÙħØ¨Ø±": 6730,
      "ĠØ§ÛģÙĦ": 6731,
      "Ġàªīàªªàª°": 6732,
      "Ġrunning": 6733,
      "Ġà®µà®´à®Ļ": 6734,
      "Ġmove": 6735,
      "ĠØ´ÙĬØ®": 6736,
      "¸á±°á±®": 6737,
      "ĠØ§ÙĨÙĩÙĬØ¡": 6738,
      "ĠØ¹ÙĦØ§ÙĪÛģ": 6739,
      "aisy": 6740,
      "Ġvoice": 6741,
      "57": 6742,
      "As": 6743,
      "bar": 6744,
      "mat": 6745,
      "ni": 6746,
      "ual": 6747,
      "Ûµ": 6748,
      "à¤¾:": 6749,
      "ÙĨØ³Ø§ÙĨ": 6750,
      "à¤¦à¤¶": 6751,
      "à³įâĢĭ": 6752,
      "à¦°à¦¨": 6753,
      "à¦°à¦²": 6754,
      "ĠÙħØ§Ø¯": 6755,
      "Ø¯ÙĬÙĨ": 6756,
      "Ġà¤¬à¤¦": 6757,
      "Ġà¤¬à¤¸à¤²": 6758,
      "Ġwait": 6759,
      "Ġà¤¨à¤Ļ": 6760,
      "à²°à²¦à²²": 6761,
      "Ø§ÙĨÙĩÙĨ": 6762,
      "Ġà¤µà¤¨": 6763,
      "Ġà¤Ĺà¤¨": 6764,
      "à´ķà´®": 6765,
      "Ġà¤°à¤ķà¤®": 6766,
      "ĠÙ¾ØªÛģ": 6767,
      "à¦¬à¦¸": 6768,
      "Ġpick": 6769,
      "à²²à²¸": 6770,
      "à´°à´¦": 6771,
      "Ġmed": 6772,
      "Ġmem": 6773,
      "à¤Ńà¤¯": 6774,
      "ating": 6775,
      "ative": 6776,
      "à²¯à²¦à²²": 6777,
      "à¨²à¨£": 6778,
      "ÙĤØ¹": 6779,
      "Ø¹ÛĮ": 6780,
      "ĠÛĮÙĪ": 6781,
      "à®µà®©": 6782,
      "ê¯Ĵê¯łê¯Ħ": 6783,
      "ĠSec": 6784,
      "Ù²ÙħÛĮ": 6785,
      "à¬²à¬°": 6786,
      "ĠÚ¯ÙĦ": 6787,
      "à°¡à°²": 6788,
      "Ġà¤ĩà¤ī": 6789,
      "imes": 6790,
      "Ġà¦ıà¦®à¦¨": 6791,
      "Ġà¦¨à¦¯": 6792,
      "ĠÙĩÙĬØ¡": 6793,
      "Ġà°ªà°¨": 6794,
      "ĠÙģÙĦÙħ": 6795,
      "Ġá±¢á±ļá±¦": 6796,
      "Ġà´ªà´¤": 6797,
      "Ġà®µà®ķ": 6798,
      "ĠØŃØ¯": 6799,
      "Ġem": 6800,
      "Ġà¦¤à¦¬": 6801,
      "iah": 6802,
      "Ġà¨ľà¨¦": 6803,
      "Ġà°ħà°¡": 6804,
      "Ġàªµàª¡": 6805,
      "à¨Ĺà¨¤": 6806,
      "ÛĮÙĨÛĴ": 6807,
      "Ġá±Ľá±¤á±¨": 6808,
      "Ġà²ħà²¤": 6809,
      "Ġà°ļà°°": 6810,
      "à¨ªà¨¨": 6811,
      "ĠCourt": 6812,
      "Ġà®¨à®®": 6813,
      "á±ļá±¨á±ļá±¢": 6814,
      "Ġá±±á±¤á±Ńá±Łá±¹": 6815,
      "ĠPar": 6816,
      "ĠPresident": 6817,
      "à¤ħà¤¸": 6818,
      "ĠDaisy": 6819,
      "ular": 6820,
      "à¤½à¤¨": 6821,
      "ĠÙ¿ÙĬÙĪÙĨ": 6822,
      "Ġà¨ķà¨°à¨µ": 6823,
      "ĠNong": 6824,
      "Ġà¦ĩà¦²": 6825,
      "Ġà¥§à¥Ń": 6826,
      "Ġà¦ĵà¦¯": 6827,
      "ĠÙ»ÙĬ": 6828,
      "Ġboat": 6829,
      "ĠÙħÙĪØ¬Ø¨": 6830,
      "àª·àª£": 6831,
      "Ġcons": 6832,
      "ucky": 6833,
      "Ġá±łá±ļá±ŀ": 6834,
      "obal": 6835,
      "à´Ńà´µ": 6836,
      "Ġà²īà²ª": 6837,
      "Ġê¯±ê¯µ": 6838,
      "ê¯Ŀê¯Ĵê¯ł": 6839,
      "á±Ĵá±Ĳá±ĳá±": 6840,
      "ĠÙħØªØŃ": 6841,
      "ĠØ§ÙģØ±Ø§Ø¯": 6842,
      "Ġá±¥á±Łá±¶á±Ľá±®": 6843,
      "oint": 6844,
      "ĠÚıÙĬÚ»": 6845,
      "ĠEveryone": 6846,
      "Ġá±ļá±łá±Ľá±ļ": 6847,
      "Ġsecond": 6848,
      "ê¯Ľê¯Ĥê¯Ľê¯ĩ": 6849,
      "ĠØ´ÛģØ¯": 6850,
      "Ġá±´á±·á±Łá±¶": 6851,
      "ĠØ¨Ø®Ø´": 6852,
      "Ġá±µá±Łá±°á±Łá±Ń": 6853,
      "ĠÙħØªØ¹ÙĦÙĤ": 6854,
      ")ØĮ": 6855,
      "**": 6856,
      "04": 6857,
      "13": 6858,
      "gr": 6859,
      "iar": 6860,
      "men": 6861,
      "ÛĮØ¨": 6862,
      "Ø±Ø¯": 6863,
      "à¥ĭà¤ĥ": 6864,
      "à¤²à¤Ń": 6865,
      "Ġtak": 6866,
      "à¤µà¤¹": 6867,
      "à¤µà¤ĸ": 6868,
      "Ġà²Ĳ": 6869,
      "ĠÚ©Ú¾ÛĮ": 6870,
      "ÙħØ±Ø§ÙĨ": 6871,
      "Ġà¤ªà¤ķà¤¡": 6872,
      "ĠÙħÙĩÙĬ": 6873,
      "Ġwell": 6874,
      "Ġwond": 6875,
      "àª°àª§": 6876,
      "à®¤à®ķ": 6877,
      "à²°à²°": 6878,
      "Ġà¤°à¤¨": 6879,
      "Ġpig": 6880,
      "Ġfac": 6881,
      "Ġfull": 6882,
      "à´¯à´¸": 6883,
      "ĠÙĪÙ½": 6884,
      "eneral": 6885,
      "à°ķà°¨": 6886,
      "Ġà¤Ńà¤¯": 6887,
      "à¤Ńà¤Ĺ": 6888,
      "atur": 6889,
      "Ø¹ÙĨÛĮ": 6890,
      "à±ĩ.": 6891,
      "ĠThat": 6892,
      "ĠØ±Ú¾": 6893,
      "Ġhold": 6894,
      "à²¸à²¬": 6895,
      "Ù²ÙĪ": 6896,
      "ê¯Łê¯ĩ": 6897,
      "ĠÚ¯Ø§ÙĨ": 6898,
      "Ø§Ø¦Ø´": 6899,
      "ĠâĢĶ": 6900,
      "Ġá±«á±ļá±¦": 6901,
      "ĠàŃ®": 6902,
      "Ġà¦ħà§±à¦¸": 6903,
      "Ġá±¢á±®á±Ľ": 6904,
      "à¬¶à¬°": 6905,
      "Ġeff": 6906,
      "ĠMama": 6907,
      "Ġà´ķà´°": 6908,
      "Ġà®¤à®°": 6909,
      "Ġá±µá±®á±µ": 6910,
      "Ġkiwei": 6911,
      "Ġà¨ħà¨®à¨°": 6912,
      "ĠÚ©Ø±Ø¯": 6913,
      "ĠÚ©Ø±ØªØ§": 6914,
      "ÙĬÙĨÚĬ": 6915,
      "ĠAll": 6916,
      "Ġà°®à°¹": 6917,
      "Ġà´µà´¨": 6918,
      "Ø§Ú©Ûģ": 6919,
      "á±±á±Łá±£": 6920,
      "Ġshu": 6921,
      "ÙĦÛĮÚ©": 6922,
      "Ġ35": 6923,
      "à°·à°£": 6924,
      "ĠJane": 6925,
      "Ø§ÛģÙħ": 6926,
      "chool": 6927,
      "Ġà¦ĵà¦ĩ": 6928,
      "á±«á±·": 6929,
      "ught": 6930,
      "Ġhimself": 6931,
      "ĠÙħÙĨØ²": 6932,
      "Ġà¤ĩà¤¤à¤ķ": 6933,
      "ĠØ¬Ø§ÙĨÙĪ": 6934,
      "ĠØ®Ø§ÙĨØ¯Ø§ÙĨ": 6935,
      "Ġable": 6936,
      "Ġbriew": 6937,
      "Ġà´īà´£": 6938,
      "ĠÚ³Ø§ÙĦ": 6939,
      "ĠØ´Ø±Ø·ÙĨ": 6940,
      "Ġsngew": 6941,
      "Ġshowed": 6942,
      "Ġstatement": 6943,
      "ĠØ¢ÙĪØ§Ø²": 6944,
      "Ġá±łá±¤á±ŀá±ļá±¢": 6945,
      "36": 6946,
      "ove": 6947,
      "Ġve": 6948,
      "à¤¿'": 6949,
      "Ġá±£": 6950,
      "Ġà¤ķà¤¯": 6951,
      "Ġturn": 6952,
      "à¥ģ,": 6953,
      "à§°à¦¹à¦£": 6954,
      "à®¤à®µà®°": 6955,
      "á±ļá±£": 6956,
      "à°¨à°¨": 6957,
      "ĠØ³Úı": 6958,
      "Ġkim": 6959,
      "à´ķà´¤": 6960,
      "ĠÙ¾Ø§ÙĨ": 6961,
      "ĠÙ¾Ø±ÛĮ": 6962,
      "ĠÙ¾ÚĻ": 6963,
      "à¦¬à¦ª": 6964,
      "ê¯¡ê¯İ": 6965,
      "Ġpres": 6966,
      "Ġface": 6967,
      "à´¯à´²": 6968,
      "à²Ĺà²¤": 6969,
      "Ġà¦ªà¦¤": 6970,
      "Ġà¤Ńà¤Ĺà¤µ": 6971,
      "à¬¬à¬¸": 6972,
      "à²ķà²³": 6973,
      "à®³à®®": 6974,
      "Ø¬Ú»": 6975,
      "Ġà¤īà¤Ń": 6976,
      "àª¯àª¤": 6977,
      "ĠÚªØ§": 6978,
      "ĠØ±ÙĬØ§Ø³Øª": 6979,
      "Ġà¤ıà¤¬": 6980,
      "Ø§ÙħÛĮ": 6981,
      "ĠÚ¯Ø±ÙĪ": 6982,
      "aduh": 6983,
      "icy": 6984,
      "à¦¶à¦¤": 6985,
      "à¨®à¨£": 6986,
      "Ġà²¸à²ļ": 6987,
      "ĠMum": 6988,
      "Ù½ÙĪ": 6989,
      "Ġrabbit": 6990,
      "owers": 6991,
      "Ġà¬®à¬¨": 6992,
      "àŃĢ,": 6993,
      "Ġyell": 6994,
      "ê¯ľê¯ģ": 6995,
      "Ġà¬ħà¬Ń": 6996,
      "ĠRi": 6997,
      "ĠÙ¿ÙĬÙĨØ¯ÙĪ": 6998,
      "à©Įà¨Ĥ": 6999,
      "Ġ2015": 7000,
      "ĠÙ»Ø¦ÙĬ": 7001,
      "ĠÚªØ±ÙĬÙĪ": 7002,
      "ĠÙħØŃØ¨Øª": 7003,
      "Ġà¦Łà¦ķ": 7004,
      "à¤¿à¥ĳà¥¤": 7005,
      "ĠÚĪØ§ÙĦ": 7006,
      "Ġá±¥á±Łá±¥": 7007,
      "Ø²ÛĮØ¯": 7008,
      "Ġà¦Ĩà¦®à¦°": 7009,
      "Ġà´²à´Ń": 7010,
      "Ġà«¨": 7011,
      "Ġwalking": 7012,
      "ĠØ±ÙĪØ²Ø§ÙĨ": 7013,
      "Ġàªµàª°àª¸": 7014,
      "ween": 7015,
      "ĠÚ©Ø§Ø±ÚĪ": 7016,
      "ĠPradesh": 7017,
      "++++": 7018,
      "Ġhapoh": 7019,
      "ĠÙĤØ¨ÙĪÙĦ": 7020,
      "Ġá±®á±Ľá±ļá±¢": 7021,
      "Ġadventure": 7022,
      "ĠØµÙģØŃ": 7023,
      "Ġincluding": 7024,
      "Ġshiny": 7025,
      "Ġremembered": 7026,
      "ĠØ¬ÛĮØ³ÛĴ": 7027,
      "ĠSingh": 7028,
      "Can": 7029,
      "con": 7030,
      "ger": 7031,
      "ph": 7032,
      "{}": 7033,
      "Ġ{{": 7034,
      "à¬¢": 7035,
      "à¥ĩ?": 7036,
      "Ġà¦Ŀ": 7037,
      "Ø§ÙĬ": 7038,
      "à¤¨à¤Ĺà¤°": 7039,
      "ÙĪÛģ": 7040,
      "à¤¯à¤¶": 7041,
      "Ġà¤¸à¤¯": 7042,
      "à§°à¦¥à¦®": 7043,
      "ĠÙħØ§Ûģ": 7044,
      "ĠÙħØº": 7045,
      "à¦¯à§±": 7046,
      "àª°àª¥": 7047,
      "Ġbus": 7048,
      "Ġà¤¤à¤Ĺà¤°": 7049,
      "ĠØ³Ûģ": 7050,
      "Ġà¤µà¤¡": 7051,
      "Ġà¤°à¤®": 7052,
      "à¤¥à¤°": 7053,
      "ĠÙ¾Ú©": 7054,
      "Ġtowards": 7055,
      "ĠØ¨ÛĦ": 7056,
      "ĠØ¨ÛĨ": 7057,
      "ĠØ¨ÙĬØ§ÙĨ": 7058,
      "Ġpur": 7059,
      "Ġpri": 7060,
      "à´°à´µà´°": 7061,
      "ĠÚĨÙĬ": 7062,
      "Ġdraw": 7063,
      "outed": 7064,
      "à®²à®ª": 7065,
      "Ġmay": 7066,
      "ĠÙĨØ§Ø±": 7067,
      "à¦¸à¦ª": 7068,
      "Ġopp": 7069,
      "àµĨ.": 7070,
      "Ø´ÙĪ": 7071,
      "Ġnum": 7072,
      "ĠTr": 7073,
      "ĠØ±ÙĬ": 7074,
      "Ù¾ÙĬ": 7075,
      "Ġgame": 7076,
      "à´ªà´¨": 7077,
      "à´ªà´°": 7078,
      "Ġà¦®à§İà¦¸": 7079,
      "ĠØ´Ø§ÙĩÙĩ": 7080,
      "à¦·à¦®": 7081,
      "à¤ĩà¤ıà¤ķ": 7082,
      "à¨®à¨¤": 7083,
      "Ġà°ªà°¦": 7084,
      "Ġà°ªà°Ł": 7085,
      "ĠàŃŁ": 7086,
      "Ġà´ķà´®": 7087,
      "à®ļà®¤": 7088,
      "Ġrace": 7089,
      "Ġá±µá±Łá±±": 7090,
      "stit": 7091,
      "Ġà²ªà²¤": 7092,
      "ppy": 7093,
      "Ġá±¡á±®á±ľ": 7094,
      "Ġwithout": 7095,
      "Ġà¦ļà¦¨à¦¤": 7096,
      "Ġthose": 7097,
      "ĠØµÙĦ": 7098,
      "Ġà°¨à°®": 7099,
      "à¬·à¬°": 7100,
      "à®´à®°": 7101,
      "à®´à®¨": 7102,
      "Ġà¨īà¨¤": 7103,
      "á±¤á±Ńá±Łá±¹á±¨á±¤": 7104,
      "¸á±Ń": 7105,
      "á±®á±«á±ļ": 7106,
      "Ġext": 7107,
      "Ġ2011": 7108,
      "à¨ĩà¨¸": 7109,
      "ĠÙħØŃÙģÙĪ": 7110,
      "ĠÙħÙĨØ¸": 7111,
      "aves": 7112,
      "á±®á±ŀá±Ł": 7113,
      "2021": 7114,
      "aper": 7115,
      "ĠØ§ÙĬÙħ": 7116,
      "Ġhelped": 7117,
      "Ġsomeone": 7118,
      "Ġê¯±ê¯¹": 7119,
      "Ġà¬¸à¬®àŃŁ": 7120,
      "Ġnoise": 7121,
      "athuh": 7122,
      "ĠÙĤØ±Ø§Ø±": 7123,
      "Ġà¤®à¤¤à¤¦": 7124,
      "ĠÚ¯ÙĩÙ½": 7125,
      "Ġbetween": 7126,
      "Ø´ÛģÙĪ": 7127,
      "á±ĳá±Ļá±": 7128,
      "yngk": 7129,
      "Ġà®Ĭà®°": 7130,
      "ĠÛ²Û°": 7131,
      "Ġá±Ľá±Łá±ŀá±Ł": 7132,
      "Ġcloser": 7133,
      "ĠÙĪÙģØ§Øª": 7134,
      "Ġtarik": 7135,
      "ĠØ§Ø³ÚªÙĪÙĦ": 7136,
      "ĠØ·Ø§ÙĤØª": 7137,
      "ĠØªØµÙĪÙĬØ±": 7138,
      "ĠØŃÙĬØ¯Ø±Ø¢Ø¨Ø§Ø¯": 7139,
      "ĠÙ¾ÛĮØºÙħØ¨Ø±": 7140,
      "',": 7141,
      ".)": 7142,
      "Let": 7143,
      "This": 7144,
      "fl": 7145,
      "fr": 7146,
      "med": 7147,
      "vi": 7148,
      "year": 7149,
      "Ġà¤ŀ": 7150,
      "à¤°à¤µà¤°": 7151,
      "à¤°à¤ļà¤¨": 7152,
      "Ø§ÚĨÛĮ": 7153,
      "Ġà¨¢": 7154,
      "à«ī": 7155,
      "à¤¯à¤ķà¤°": 7156,
      "Ø±Ø§Øª": 7157,
      "à¥ĭà¤ģ": 7158,
      "à¤¸à¤Ĺ": 7159,
      "à¤¸à¤«": 7160,
      "Ġtaking": 7161,
      "Ġà®Ĳ": 7162,
      "ÙĦØ§Ø³": 7163,
      "á±Łá±º": 7164,
      "Ġà¤®à¤ļ": 7165,
      "à¤ªà¤ļ": 7166,
      "Ġsit": 7167,
      "Ġside": 7168,
      "ĠÙħÙģ": 7169,
      "ĠÙħØ¸": 7170,
      "à¦¤à§°à¦¤": 7171,
      "à°¾,": 7172,
      "Ú©Ø±ÛĮ": 7173,
      "à¦¯à¦¸": 7174,
      "àª°àª¶": 7175,
      "Ġà¤ħà¤ĸ": 7176,
      "Ġbas": 7177,
      "à¤£à¤¨": 7178,
      "Ġà¤¤à¤²": 7179,
      "à°°à°ľ": 7180,
      "Ġke": 7181,
      "Ġà¤µà¤Ł": 7182,
      "Ø§Ø«": 7183,
      "Ġà¤°à¤ļà¤¨": 7184,
      "à°²à°¯": 7185,
      "itive": 7186,
      "à¤§à¤®": 7187,
      "à¤·à¤¸": 7188,
      "à§ģà¦ģ": 7189,
      "ĠØ¨Ø§Ø²": 7190,
      "ĠØ¨Ø§Ø¨Øª": 7191,
      "à´¯à´µ": 7192,
      "á±¤á±¦": 7193,
      "ĠÛģØ³": 7194,
      "Ġca": 7195,
      "à²¤à²®": 7196,
      "à²¤à²¹": 7197,
      "ÙķØĮ": 7198,
      "à°ķà°ª": 7199,
      "Ġà¦¬à¦¸": 7200,
      "Ġmess": 7201,
      "ĠØ¢Ø¦": 7202,
      "Ġ(\"": 7203,
      "Ġokay": 7204,
      "à¨¨à¨ķ": 7205,
      "Ø¬Ùĩ": 7206,
      "Ġà¨¸à¨µ": 7207,
      "Ġà¤īà¤ªà¤°": 7208,
      "ÚªØ³": 7209,
      "ĠÚªÙĨØ¯ÙĪ": 7210,
      "ĠÚªÙĨØ¯ÙĬ": 7211,
      "ĠÚªÙĨØ¯ÚĻ": 7212,
      "ĠTo": 7213,
      "ĠThis": 7214,
      "ĠØ±ÛĮØ§Ø³Øª": 7215,
      "Ø§ÙĦÛģ": 7216,
      "Ù¹Ú¾ÛĮ": 7217,
      "Ù²ÙĦØł": 7218,
      "à°ªà°¤": 7219,
      "à´µà´¶": 7220,
      "Ġá±¥á±ļá±¢": 7221,
      "ames": 7222,
      "Ø³ØªÛģ": 7223,
      "ØŃØ¶Ø±Øª": 7224,
      "ĠÙģÙĤ": 7225,
      "à¤¼à¥ĭ": 7226,
      "Ġà´ªà´Ļ": 7227,
      "Ø±ÙĬÙĪÙĨ": 7228,
      "ĠHills": 7229,
      "ute": 7230,
      "Ġà¨ħà¨ķ": 7231,
      "àª¡àªµ": 7232,
      "Ø§Ø¨ÛĮ": 7233,
      "ĠØ²Ø®": 7234,
      "ÚĪÛĮÙĪ": 7235,
      "Ġá±¡á±ļá±Ľá±ļ": 7236,
      "Ġà´®à´°": 7237,
      "Ġà²¬à²¸": 7238,
      "ĠØ§ÛĮÙģ": 7239,
      "àŃ§àŃ«": 7240,
      "Ġsol": 7241,
      "ĠPakistan": 7242,
      "Ġshouted": 7243,
      "ĠÚ©ÙĬØ³": 7244,
      "illion": 7245,
      "á±łá±©": 7246,
      "à¥Īà¤Ĥ.": 7247,
      "à²·à²¦": 7248,
      "à²¹à²¨": 7249,
      "Ġà¤ĩà¤¸à¤¸": 7250,
      "Ġà¤ĩà¤¸à¤¦": 7251,
      "ĠØ§ÙĦØŃ": 7252,
      "Ġ:-": 7253,
      "á±¤á±Ńá±ļá±±": 7254,
      "Ġjingj": 7255,
      "ching": 7256,
      "Ġàª¶àª¹": 7257,
      "uss": 7258,
      "àªĪàªı": 7259,
      "Ġà°¦à°°": 7260,
      "ÙĪØ¯Ú¾": 7261,
      "aint": 7262,
      "ialam": 7263,
      "Ġà®ĩà®°à®£": 7264,
      "ĠØºÙĦØ·": 7265,
      "ĠØ³ÛĮØ¯": 7266,
      "Ġà´ľà´¨": 7267,
      "ĠÙĪØ§ÙĦØ¯": 7268,
      "Ġà²Īà²Ĺ": 7269,
      "ĠÚĩÙĪ": 7270,
      "Ø§ÛĮØª": 7271,
      "àŃ©àŃ¦": 7272,
      "Ġà«§à«": 7273,
      "Ġquest": 7274,
      "Ġàªĺàª£": 7275,
      "á±®á±ľá±®": 7276,
      "ĠÙĨÙħØ§Ø²": 7277,
      "á±Łá±ªá±·": 7278,
      "à¦¸à¦ķà¦²à§°": 7279,
      "Ġcompany": 7280,
      "Ġá±ŀá±®á±«á±Ł": 7281,
      "____": 7282,
      "Ġlada": 7283,
      "ĠØ¯ÙĪØ³Ø±ÛĴ": 7284,
      "ĠØ´Ø§Ø¹Ø±ÙĬ": 7285,
      "ĠÙĨÙĤØµ": 7286,
      "Ġá±«á±Łá±²á±®á±Ń": 7287,
      "ĠEmma": 7288,
      "randma": 7289,
      "ĠÙħØ´ØªÙħÙĦ": 7290,
      "35": 7291,
      "BI": 7292,
      "On": 7293,
      "[[": 7294,
      "ible": 7295,
      "nai": 7296,
      "over": 7297,
      "ðŁ": 7298,
      "Ġ$": 7299,
      "à°ĺ": 7300,
      "Ø§ÚĻ": 7301,
      "à¤µà¤Ń": 7302,
      "ÛģÛĮ": 7303,
      "ÙħÙĪÙĦ": 7304,
      "à¦°à¦ļ": 7305,
      "à§°à¦¬": 7306,
      "à§°à¦¶": 7307,
      "Ġsound": 7308,
      "à¦¨à¦¹": 7309,
      "ĠÙħØ±ÛĮ": 7310,
      "à¤Ĺà¤ª": 7311,
      "Ġwarm": 7312,
      "à¦¯à¦®à¦¨": 7313,
      "àª°àª¬": 7314,
      "Ġà¤¨à¤¸": 7315,
      "Ġà¤ħà¤Ĺà¤°": 7316,
      "à¤Łà¤¸": 7317,
      "à¨°à¨Ĺ": 7318,
      "à¨°à¨«": 7319,
      "àª¨àªµ": 7320,
      "à¦®à¦°": 7321,
      "à¤ĸà¤ķ": 7322,
      "ĠØ¨ÙĪØ±": 7323,
      "ê¯¡ê¯Ħ": 7324,
      "Ġpul": 7325,
      "Ġfive": 7326,
      "ĠÙĪØ§ÙĨ": 7327,
      "ĠÙĪÙĨØ§ÙĨ": 7328,
      "Ġchar": 7329,
      "à²¤à²ķ": 7330,
      "Ġdone": 7331,
      "à²Ĺà²µ": 7332,
      "isa": 7333,
      "Ġà¤Ńà¤Ĺ": 7334,
      "Ġmod": 7335,
      "ĠØ¢Ø¯": 7336,
      "Ġà¤ļà¤¤": 7337,
      "Ġà¤ļà¤¢": 7338,
      "à¨²à¨¦": 7339,
      "à¨²à¨µ": 7340,
      "Ø´ÙĦ": 7341,
      "Ġá±łá±¤á±±": 7342,
      "Ġá±łá±©á±²": 7343,
      "Ġnodd": 7344,
      "Ġà¨ķà¨Ī": 7345,
      "ĠÚªÙĩ": 7346,
      "à®µà®²": 7347,
      "Ġà¤ıà¤ĸ": 7348,
      "ĠØ¯Ú¾": 7349,
      "ĠØ¯ÙĪÙĨ": 7350,
      "ĠØ¯Ø§Ø®": 7351,
      "à¤«à¤¤": 7352,
      "Ġhill": 7353,
      "Ġhospital": 7354,
      "ĠÙĦÙĨ": 7355,
      "à°¡à°Ĺ": 7356,
      "Ġgrab": 7357,
      "à´µà´¦": 7358,
      "Ġà¤«à¤¸": 7359,
      "à¤Ĩà¤²": 7360,
      "àŃŁà¬Ĺà¬¡": 7361,
      "Ġà¦ħà¦¹": 7362,
      "à¤łà¤¤": 7363,
      "à¤°à¤ķà¤°à¤£": 7364,
      "ĠØŃØµÙĪ": 7365,
      "Ġel": 7366,
      "à²®à²°": 7367,
      "à²®à²¦": 7368,
      "ĠMeg": 7369,
      "ĠMolly": 7370,
      "Ġê¯Ģê¯Ķ": 7371,
      "à¬¸à¬®": 7372,
      "ØµÙĪÛĮ": 7373,
      "Ġà°ħà°ķ": 7374,
      "Ġàªħàª§": 7375,
      "Ġà´¸à´°": 7376,
      "Ġà´¸à´¹": 7377,
      "à²ªà²¨": 7378,
      "ÛĮÙĨØ§": 7379,
      "Ġà®ĩà®±": 7380,
      "ĠCha": 7381,
      "ĠÚ©ÙĪØ´Ø´": 7382,
      "Ġà´ħà´µà´°": 7383,
      "Ġà¦ķà¦°à¦¬": 7384,
      "à²¬à²²": 7385,
      "Ġsoft": 7386,
      "á±łá±Łá±±": 7387,
      "á±łá±·á±Łá±±": 7388,
      "rol": 7389,
      "ross": 7390,
      "Ġ36": 7391,
      "Ø§Ø³Ù¹": 7392,
      "ĠKha": 7393,
      "Ġà°Ĩà°¦": 7394,
      "Ġê¯ıê¯ķ": 7395,
      "Ġhappened": 7396,
      "Ġá±łá±·á±®á±ŀ": 7397,
      "ĠNow": 7398,
      "ĠÚıØ³": 7399,
      "ĠÚıØ¦ÙĬ": 7400,
      "Ġà¦ĩà¦ī": 7401,
      "Ġà¥§à¥¨": 7402,
      "Ġfriendly": 7403,
      "á±®á±łá±ļ": 7404,
      "Ġá±ªá±·": 7405,
      "ugg": 7406,
      "andy": 7407,
      "ĠÙĩÙĪÙĨØ¯ÙĬ": 7408,
      "á±³á±¨": 7409,
      "Ġagre": 7410,
      "Ġà¦ĺà¦Ł": 7411,
      "Ġê¯ĥê¯ĩê¯Ŀê¯Ĺ": 7412,
      "Ġiing": 7413,
      "Ġpynp": 7414,
      "Ġà´Ĵà´¨": 7415,
      "à²ĸà²²": 7416,
      "ĠÙ¾Ø§Ú©Ø³ØªØ§ÙĨÛĮ": 7417,
      "ĠØ³Ú©ØªØ§": 7418,
      "ĠØ¯ÙĪØ³Øª": 7419,
      "àŃ¨àŃ®àŃ": 7420,
      "ĠØ¢Ø³Ûģ": 7421,
      "ĠÙºØ§ÙĩÙĬ": 7422,
      "ĠØ¬ÙħØ§Ø¹Øª": 7423,
      "Ġà¦ħà¦¬à¦¸": 7424,
      "ĠØŃØ§ÙĦØª": 7425,
      "Ġá±Łá±Ńá±¢á±Ł": 7426,
      "Ġkitei": 7427,
      "ĠÙ¾Ø±ÙĪÚ¯Ø±Ø§Ùħ": 7428,
      "Ġfilm": 7429,
      "ĠSpot": 7430,
      "Ġá±ľá±¤á±«á±½á±¨": 7431,
      "Ġà¬ħà¬Ĺà¬·": 7432,
      "ĠÙĬÙĪÙĨÙĬÙĪØ±Ø³Ù½ÙĬ": 7433,
      "Ġá±¥á±®á±ŀá±®á±«": 7434,
      "ĠØ¨ÛĨÚĪ": 7435,
      "Ġnodded": 7436,
      "55": 7437,
      "99": 7438,
      "Ind": 7439,
      "cc": 7440,
      "ling": 7441,
      "land": 7442,
      "oor": 7443,
      "ral": 7444,
      "ves": 7445,
      "¡á±½": 7446,
      "ÉĻ": 7447,
      "Ù®": 7448,
      "Ġ..": 7449,
      "á±Ļá±": 7450,
      "à¤°à¤·": 7451,
      "ÙĨÚĪ": 7452,
      "à¤¸à¤Ĺà¤³": 7453,
      "Ġtell": 7454,
      "Ġtired": 7455,
      "ÙħÙĬÙĪ": 7456,
      "Ġsub": 7457,
      "Ú©ÛĮÙĨ": 7458,
      "Ġà¤ľà¤²à¤µ": 7459,
      "à¤Łà¤°à¤¨": 7460,
      "Ġà¤¤à¤¹": 7461,
      "Ġà¤¤à¤ķà¤°": 7462,
      "à²¾.": 7463,
      "à°¨à°®": 7464,
      "ĠØ³ÙĪÙĨ": 7465,
      "ĠØ³ÙĦØ·": 7466,
      "à¥Ĥ.": 7467,
      "ĠØªÛĮÙĨ": 7468,
      "ĠØªÙ²ÙĦÛĮ": 7469,
      "iti": 7470,
      "ĠØ¨ÛĮÙĪ": 7471,
      "Ġfour": 7472,
      "Ġfair": 7473,
      "Ġdro": 7474,
      "aring": 7475,
      "Ġà¤Ńà¤¸": 7476,
      "Ġmih": 7477,
      "à¥ĩà¤Ĥà¥¤": 7478,
      "à²ķà²²": 7479,
      "Ġà¤ļà¤¨": 7480,
      "à¨¸à¨µ": 7481,
      "à®³à®ķ": 7482,
      "ÙĤÙĨ": 7483,
      "ÚªØ§": 7484,
      "ĠÛĮÙħÙĨ": 7485,
      "àª¯àª¦": 7486,
      "à°¯à°¡": 7487,
      "Ġà¤¶à¤¨": 7488,
      "Ġsah": 7489,
      "lect": 7490,
      "àª¸àªª": 7491,
      "à´µà´¯": 7492,
      "Ġà¦ıà¦ľà¦¨": 7493,
      "Ġà¤«à¤ķ": 7494,
      "ament": 7495,
      "ics": 7496,
      "Ġà¦¦à¦ķ": 7497,
      "Ġà¤ªà¤°à¤¸": 7498,
      "à©Īà©±": 7499,
      "ĠÙģØ§Ø¦ÙĦ": 7500,
      "à¨µà¨²": 7501,
      "ĠØ®ØµÙĪØµ": 7502,
      "Ġà®¤à®Ł": 7503,
      "Ġstore": 7504,
      "Ġreached": 7505,
      "àªľàªķ": 7506,
      "Ġá±¯á±ļá±¨": 7507,
      "à¬¡à¬°": 7508,
      "Ġà²ħà²ª": 7509,
      "à¤īà¤¦": 7510,
      "Ġà¬ıà¬¸": 7511,
      "Ġà¦¶à¦ķ": 7512,
      "Ġforg": 7513,
      "Ġà´®à´£": 7514,
      "Ġthink": 7515,
      "Ġà´ħà´²": 7516,
      "Ġsoc": 7517,
      "Ġhaduh": 7518,
      "à¨Īà¨Ĩ": 7519,
      "Ġá±®á±ł": 7520,
      "Ġá±®á±«": 7521,
      "Ġà®İà®²": 7522,
      "ĠÛģÙĪÚ¯": 7523,
      "à²ļà²°": 7524,
      "Ø§ÛģÙĪØ±": 7525,
      "à¤½à¤§": 7526,
      "à¨ĸà¨°": 7527,
      "á±ŀá±Łá±¹": 7528,
      "Ġjingth": 7529,
      "Ġà¤¬à¤¨à¤²": 7530,
      "ĠàŃ§àŃ¯": 7531,
      "Ġà¨ķà¨°à¨ķ": 7532,
      "ĠNew": 7533,
      "ĠÚıÚ©": 7534,
      "Ġà¥§à¥§": 7535,
      "Ġà´Ĩà´ķ": 7536,
      "à¤¶à¤¨à¤²": 7537,
      "Ġà¤ľà¤¨à¤¸": 7538,
      "ĠGo": 7539,
      "à¦ľà¦¨à¦ķ": 7540,
      "ours": 7541,
      "Ø´ÙĨÙĦ": 7542,
      "á±³á±ŀ": 7543,
      "Ġ75": 7544,
      "ÛĮØ³Ù¹": 7545,
      "ĠÙħØ³Ø¬Ø¯": 7546,
      "Ġorder": 7547,
      "à¦ıà¦ĩ": 7548,
      "Ġpynb": 7549,
      "eared": 7550,
      "ection": 7551,
      "á±®á±Ľá±®": 7552,
      "à§¨à§§": 7553,
      "Ġacross": 7554,
      "Ġgetting": 7555,
      "Ġàªĺàª°": 7556,
      "Ġà°¸à°®à°¯": 7557,
      "Ġà®ĩà®¤à®©": 7558,
      "ĠØ§ÛĮØ³Ø§": 7559,
      "à¬¸à¬¨à¬°": 7560,
      "Ġá±ľá±ļá±´á±Ł": 7561,
      "ĠØ¶ÙĦØ¹ÙĬ": 7562,
      "ĠØ¹Ø§ÙĦÙħ": 7563,
      "Ġá±Ĵá±Ĳá±ĳá±ĳ": 7564,
      "ency": 7565,
      "Ġinvest": 7566,
      "Ġsupport": 7567,
      "ology": 7568,
      "Ġangry": 7569,
      "Ġfinished": 7570,
      "Ġarrived": 7571,
      "ĠÚĪØ§Ú©Ù¹Ø±": 7572,
      "Ġunderstand": 7573,
      "ĠØ§Ø¶Ø§Ùģ": 7574,
      "ĠÙĨÙĤØµØ§ÙĨ": 7575,
      "46": 7576,
      "mu": 7577,
      "oke": 7578,
      "rat": 7579,
      "tal": 7580,
      "uj": 7581,
      "uff": 7582,
      "à°ł": 7583,
      "àªĥ": 7584,
      "à¤¨à¤¶": 7585,
      "àŃĪ": 7586,
      "Ġà¨Ŀ": 7587,
      "à¤¸à¤Ĩ": 7588,
      "ĠÚ©ÙħÛĮ": 7589,
      "ÙħØ¹": 7590,
      "ĠØ§Ù¿": 7591,
      "Ø³Ø§": 7592,
      "à¦¨à¦¬": 7593,
      "ĠÙħÙĪÙĨ": 7594,
      "ĠÙħØ²ÛĮØ¯": 7595,
      "Ø¯ÛĴ": 7596,
      "Ġà¤¹à¤®à¤¨": 7597,
      "à¬¿à¬Ĥ": 7598,
      "à®¤à®©à®°": 7599,
      "Ġà¤¨à¤¸à¤¤": 7600,
      "ndra": 7601,
      "Ø§ÙĨÚ¯": 7602,
      "Ġà¤ħà¤ŀ": 7603,
      "Ġbook": 7604,
      "à¤£à¤µ": 7605,
      "à¨°à¨¥": 7606,
      "ĠØ¬ØªÙĬ": 7607,
      "à³ģ:": 7608,
      "ĠØ³Ø§Øª": 7609,
      "ĠØ³Ø·": 7610,
      "à²¦à²ķ": 7611,
      "à¤·à¤§": 7612,
      "Ġfix": 7613,
      "ĠÙĪÙĪÙĦ": 7614,
      "Ġcity": 7615,
      "Ġdin": 7616,
      "Ġdist": 7617,
      "à²Ĺà²¡": 7618,
      "à´Łà´±": 7619,
      "Ø²ÙĨ": 7620,
      "ister": 7621,
      "Ġà¤Ńà¤Ł": 7622,
      "à®ªà®µà®°": 7623,
      "Ġmus": 7624,
      "Ġmaking": 7625,
      "ĠØ¢ÙĬÙĪ": 7626,
      "à²¯à²Ĺà²³": 7627,
      "Ø´Ø§Ûģ": 7628,
      "à®¯à®Ļ": 7629,
      "à®±à®©à®°": 7630,
      "Ġhealth": 7631,
      "ĠÚªÙĬØ§": 7632,
      "Ġkawei": 7633,
      "ility": 7634,
      "Ù¹ÙĪ": 7635,
      "Ġhopped": 7636,
      "à´±à´±": 7637,
      "ĠÚ¯Ø²": 7638,
      "Ġà¦¹à¦ĵà¦¯": 7639,
      "à²¡à²°": 7640,
      "ĠàªªàªĹ": 7641,
      "amil": 7642,
      "ĠÙĩÙĨØ¯": 7643,
      "ĠÙĩÙ¿": 7644,
      "ĠØ¹ÙĬØ³": 7645,
      "à¤³à¤ĸ": 7646,
      "Ġà²¸à²¦": 7647,
      "Ġà¤¸à¤®à¤¨": 7648,
      "ĠØ®Ø±": 7649,
      "ĠØ®ÙĪØ¨": 7650,
      "Ġà´ķà´²": 7651,
      "Ġrain": 7652,
      "àªªàª£": 7653,
      "Ġà¬¬à¬¨": 7654,
      "ØµÛĮÙĦ": 7655,
      "à¦¥à¦¨": 7656,
      "Ġstep": 7657,
      "à§±à¦¤": 7658,
      "Ø§ØªÛĮ": 7659,
      "Ġàªµàªļ": 7660,
      "Ġá±Łá±²": 7661,
      "à¨Ĺà©ľ": 7662,
      "ĠApr": 7663,
      "à¦ĸà¦²": 7664,
      "ÛĮÙĨÛģ": 7665,
      "Ġà®ĩà®¯à®ķ": 7666,
      "Ġà²ªà²¦": 7667,
      "Ø§Ø¨Ø·": 7668,
      "ĠØ²Ù²Úĺ": 7669,
      "Ġá±¡á±®": 7670,
      "Ġá±¡á±Łá±Ń": 7671,
      "Ġá±¡á±Łá±¹á±±á±¤": 7672,
      "ĠCent": 7673,
      "ê¯Įê¯Ŀ": 7674,
      "Ġà°¨à°Ł": 7675,
      "à¤ħà¤Ń": 7676,
      "à¬·à¬£": 7677,
      "ĠÛģÙĪØªÛĮ": 7678,
      "rah": 7679,
      "ĠÛĮÛģÛĮ": 7680,
      "à²ļà²¨": 7681,
      "ê¯ª.": 7682,
      "ê¯ŀê¯Ģ": 7683,
      "Ġà¨Ĩà¨¦": 7684,
      "Ġspe": 7685,
      "Ġleg": 7686,
      "ĠàªĨàªµàª¶": 7687,
      "Ġshared": 7688,
      "ĠÙħØ¹Ø¬": 7689,
      "ĠÙħØ¹Ø§Ø´": 7690,
      "à¬Ĩà¬¯": 7691,
      "Ġê¯±ê¯°ê¯°ê¯°": 7692,
      "Ġàª¥àªµ": 7693,
      "ĠØªØ¹ÙĦÙĬÙħ": 7694,
      "ĠØ°ÙħÙĬÙĪ": 7695,
      "á³ļà¥¤": 7696,
      "Ġàªīàª¤": 7697,
      "ÙĬÚªÙĦ": 7698,
      "Ġà´¬à´¨": 7699,
      "àŃ¨àŃ¦àŃ¨àŃ§": 7700,
      "ĠØ¬ÙĬÚªÚıÙĩÙĨ": 7701,
      "Ġà¤īà¤¸à¤¦": 7702,
      "á±Łá±¡á±Łá±¨": 7703,
      "Ġwatched": 7704,
      "Ġà´²à´ķ": 7705,
      "Ġà°ıà°°": 7706,
      "ĠChina": 7707,
      "ĠÚªÙĪÚĬ": 7708,
      "Ġgoodby": 7709,
      "Ø§Ø¶ØŃ": 7710,
      "ĠÚ©Ø´ÙħÛĮØ±": 7711,
      "ĠØ¤Ø²ÛĮ": 7712,
      "à¦¯à¦¬à¦¸": 7713,
      "ĠÚĨØ§ÛģÛĮÛĴ": 7714,
      "Ġà®µà®´à®ķ": 7715,
      "Ù¾ÙĪØ¡": 7716,
      "ĠØ´ÛĮØ®": 7717,
      "Ġà¤Ĭà¤°": 7718,
      "Ġleaders": 7719,
      "ĠØ¹ÙħØ±Ø§ÙĨ": 7720,
      "Ġflying": 7721,
      "Ġcoron": 7722,
      "halaya": 7723,
      "Ġá±µá±¤á±¨á±«": 7724,
      "ĠThurs": 7725,
      "Ġá±¥á±Łá±¢á±Łá±Ŀ": 7726,
      "Ġà¦¨à¦¹à¦¯": 7727,
      "ÙĨÙ¹Ø±Ø§Ø³Ù¹": 7728,
      "Ġá±³á±°": 7729,
      "Ġgiven": 7730,
      "Ġvacc": 7731,
      "Ġalleged": 7732,
      "Ġá±łá±¤á±ŀá±ļá±¢á±¤á±´á±ļá±¨": 7733,
      "ĠMeghalaya": 7734,
      "ĠThursday": 7735,
      ")à¥¤": 7736,
      "06": 7737,
      "29": 7738,
      "40": 7739,
      "48": 7740,
      "75": 7741,
      "ior": 7742,
      "iel": 7743,
      "pur": 7744,
      "µá±¤á±¡": 7745,
      "ÂŃ": 7746,
      "Û·": 7747,
      "ÛĤ": 7748,
      "Ġ#": 7749,
      "à¤¾!": 7750,
      "à²ŀ": 7751,
      "à¤¨à¤¥": 7752,
      "à¤¤à¤¶": 7753,
      "à¤¯à¤°à¤¸": 7754,
      "à¤®à¤¥": 7755,
      "Ġà²ĵ": 7756,
      "hem": 7757,
      "Ġà¤¸à¤¡": 7758,
      "ĠØ§Ú©Ú¾": 7759,
      "Ø³ÙĪØ³": 7760,
      "à¦°à¦¹à¦£": 7761,
      "à§°à¦¯": 7762,
      "à§°à¦§": 7763,
      "ĠÙħÙĬØ§ÙĨ": 7764,
      "à¤ļà¤®": 7765,
      "à¤ľà¤ĸ": 7766,
      "Ú©Øª": 7767,
      "Ú©Ø§Ùħ": 7768,
      "Ġà¤¨à¤ľà¤°": 7769,
      "à¦ķà¦¬": 7770,
      "Ġà¤ħà¤ĺ": 7771,
      "ĠØ¬Ú¯Ûģ": 7772,
      "à°°à°¬": 7773,
      "ĠØ³ÙĨÚ¯": 7774,
      "ÙĩÚ»": 7775,
      "rem": 7776,
      "Ġà¤Ĺà¤¡": 7777,
      "à´¤à´ª": 7778,
      "Ġà¤°à¤¤": 7779,
      "à®°à®£": 7780,
      "à¦®à¦¦": 7781,
      "Ø¨Ø§ÙĦ": 7782,
      "Ġfish": 7783,
      "ĠÚĨÙĦ": 7784,
      "ĠÙĪÛĦ": 7785,
      "Ġà¤Ńà¤²": 7786,
      "ĠÙĨÙĨÚį": 7787,
      "à¨¸à¨ķ": 7788,
      "Ġow": 7789,
      "à¨¤à¨®": 7790,
      "à®³à®©": 7791,
      "Ġhaving": 7792,
      "Ø´Ø§": 7793,
      "à±ĩ..": 7794,
      "ĠTweet": 7795,
      "à¥Įà¥¤": 7796,
      "ĠSy": 7797,
      "ÙĨØ¯Ûģ": 7798,
      "Ġá±¨á±Łá±¡": 7799,
      "ĠÙĦÛĦ": 7800,
      "à¦ĩà¦¯": 7801,
      "Ġà¤ĩà¤®": 7802,
      "Ġà¨µà¨ľ": 7803,
      "ĠØ´ÙħØ§Ø±": 7804,
      "lea": 7805,
      "à¦¹à¦®": 7806,
      "à¦¹à¦¸": 7807,
      "à¦·à§°": 7808,
      "à²¡à²¦": 7809,
      "ĠàªªàªŁ": 7810,
      "ĠÚ©ÛĮØ³": 7811,
      "Ġá±¥á±¤á±ł": 7812,
      "Ġà¤«à¤²": 7813,
      "àª¾àªĤ,": 7814,
      "àŃŁà¬¤": 7815,
      "ĠÙģÙĨ": 7816,
      "Ġà§¯": 7817,
      "à´ļà´°": 7818,
      "à¤°à¤¤à¤ķ": 7819,
      "Ġá±¦á±ļá±Ľ": 7820,
      "à¦¡à§°": 7821,
      "Ġàªµàª¸": 7822,
      "àª¹àª¨": 7823,
      "Ġàªħàª¤": 7824,
      "Ġàª¤àª¥": 7825,
      "Ġà®ļà®Ł": 7826,
      "ĠÚ©Ø±Ø§ÙĨ": 7827,
      "ĠAct": 7828,
      "Ġready": 7829,
      "Ġà´¸à´¨": 7830,
      "ÛĮÙĨÚĪ": 7831,
      "Ġá±¯á±Łá±²": 7832,
      "Ġàª¹àªľ": 7833,
      "ĠØ§ÛĮØ±Ø§ÙĨ": 7834,
      "Ġà´ħà´ª": 7835,
      "Ġá±±á±¤á±Ľ": 7836,
      "Ġá±®á±¥": 7837,
      "ĠDad": 7838,
      "Ø§Ø³ÙĬÙĨ": 7839,
      "Ġà¤ĩà¤¸à¤²": 7840,
      "à°¬à°°": 7841,
      "Ġá±ļá±²": 7842,
      "ĠØªÙĬØ§Ø±": 7843,
      "Ġjingia": 7844,
      "Ġà°Ĩà°¸": 7845,
      "à´§à´¤": 7846,
      "Ġà²°à²¸": 7847,
      "Ġvot": 7848,
      "ĠÚıØ§ÙĨÙĩÙĨ": 7849,
      "á±´á±¤": 7850,
      "á±´á±ļá±¨": 7851,
      "Ġà¥§à¥©": 7852,
      "Ġà¥§à¥¬": 7853,
      "à©ľà¨ķ": 7854,
      "ÙĪØ¯ÛĮ": 7855,
      "Ġ2013": 7856,
      "ĠÚ¾ÙĬ": 7857,
      "ified": 7858,
      "á±©á±¨á±©": 7859,
      "andhi": 7860,
      "Ġà¬Ĩà¬®": 7861,
      "Ġà¬Ĩà¬ľ": 7862,
      "à¦īà¦²": 7863,
      "Ġà°İà°²": 7864,
      "Ú³ÙĪ": 7865,
      "ĠÚ©Ú¾ÛĦ": 7866,
      "Ġà®Ĵà®©": 7867,
      "ÙĬÚªÙĨ": 7868,
      "Ġà¤ļà¤²à¤¤": 7869,
      "Ġà¤ļà¤²à¤ļ": 7870,
      "ĠàªŁàªķ": 7871,
      "àŃªàŃ«": 7872,
      "Ġà¤ħà¤µà¤§": 7873,
      "Ġroad": 7874,
      "ended": 7875,
      "á±ļá±«á±ļá±¨": 7876,
      "ĠØ§ÙģØª": 7877,
      "ĠÙĨÙĪØ§Ø²": 7878,
      "ĠàŃ©àŃ§": 7879,
      "Ġincident": 7880,
      "Ġàªĵàª«": 7881,
      "Ġkata": 7882,
      "ĠØªÙĨÙĩÙĨ": 7883,
      "Ġbuy": 7884,
      "ĠÙħØ³ÙĦÙħØ§ÙĨÙĪÚº": 7885,
      "Ġjumped": 7886,
      "Ġê¯²ê¯°ê¯±ê¯µ": 7887,
      "Ġfurther": 7888,
      "Ġcastle": 7889,
      "ĠÙħØŃÙģÙĪØ¸": 7890,
      "Ġpulit": 7891,
      "Ġá±ľá±¤á±«á±½á±¨á±Łá±¹": 7892,
      "ĠØ³Ø·ØŃ": 7893,
      "Ġgoodbye": 7894,
      "26": 7895,
      "down": 7896,
      "eet": 7897,
      "hon": 7898,
      "tar": 7899,
      "ually": 7900,
      "Û´": 7901,
      "Û¶": 7902,
      "ĠZ": 7903,
      "à²Ī": 7904,
      "ĠàªĬ": 7905,
      "ÙĬØ§Ø±": 7906,
      "à¯į!": 7907,
      "Ġamaz": 7908,
      "ĠÚ©Ø³": 7909,
      "ĠØ§ØªØ±": 7910,
      "à§°à¦ļ": 7911,
      "Ġsweet": 7912,
      "à¬°à¬¨": 7913,
      "ĠÙħÙĩ": 7914,
      "Ø¯Ø³": 7915,
      "à®ķà®ķ": 7916,
      "à®ķà®©": 7917,
      "Ġà¤¦à¤¬": 7918,
      "Ġà¤ľà¤¯": 7919,
      "Ġà¤ľà¤ĸà¤¨": 7920,
      "à²°à²ª": 7921,
      "à¤Łà¤¬": 7922,
      "à°°à°¶": 7923,
      "rep": 7924,
      "à¤¾à¤Ĥá³ļ": 7925,
      "ery": 7926,
      "iting": 7927,
      "ĠÙ¾Ø±ÙĬ": 7928,
      "à¦®à¦Ĺ": 7929,
      "ĠÚĨØ§ÙĨ": 7930,
      "ĠÙĪØ±ÙĬ": 7931,
      "Ġlang": 7932,
      "Ġdri": 7933,
      "à®²à®Ļ": 7934,
      "orth": 7935,
      "Ġà¤Ńà¤µà¤¨": 7936,
      "à®ªà®®": 7937,
      "Ġà¦¬à¦ľ": 7938,
      "ĠÙĨÚ©": 7939,
      "ĠØ¢ÛĮØ§": 7940,
      "àª®àª²": 7941,
      "ê¯ķê¯Ĵ": 7942,
      "à®³à®©à®°": 7943,
      "Ġà¤īà¤°": 7944,
      "à¤Īà¤¨": 7945,
      "à¬ķà¬Ļ": 7946,
      "ĠØ¯Ûģ": 7947,
      "ĠSab": 7948,
      "ĠSue": 7949,
      "Ġá±¨á±ļá±²": 7950,
      "á±©á±ª": 7951,
      "à°¡à°¨": 7952,
      "Ø§Ø¦Ø¯": 7953,
      "leep": 7954,
      "à¦¹à¦ķ": 7955,
      "à°µà°¤": 7956,
      "à°®à°°": 7957,
      "Ġà¦¨à¦®": 7958,
      "á±Łá±ľá±½": 7959,
      "Ġà°ªà°¡": 7960,
      "ÚĨØ§": 7961,
      "ĠMommy": 7962,
      "Ġà®¤à®¯": 7963,
      "à®ļà®©": 7964,
      "Ġá±¦á±ļá±¨": 7965,
      "ĠØ§ÙĨÚ¾ÙĨ": 7966,
      "Ġà¦ľà¦®": 7967,
      "Ġà¤ıà¤ķà¤¤": 7968,
      "stem": 7969,
      "àª¦àª®": 7970,
      "ĠÚ©Ø±ÙĪ": 7971,
      "ĠÚ©Ø±Ú©ÛĴ": 7972,
      "Ġá±¯á±Ł": 7973,
      "Ġà®ĩà®Ł": 7974,
      "ĠØ²Ø§ÙĨ": 7975,
      "ynr": 7976,
      "akes": 7977,
      "ÙĪÙĦØª": 7978,
      "Ġfrog": 7979,
      "Ġà²¬à²¹": 7980,
      "á±Łá±Ńá±Ł": 7981,
      "ĠØ§ÙĦØ¹": 7982,
      "ĠÙ¿ÙĬØ§": 7983,
      "Ù¹Ú¾Øł": 7984,
      "Ġate": 7985,
      "Ġlost": 7986,
      "Ġà´Ĩà´¶": 7987,
      "ê¯¡ê¯Ĥê¯ķê¯Ĺ": 7988,
      "Ġ45": 7989,
      "Ġdoes": 7990,
      "Ġarrest": 7991,
      "ĠÙħÙĨØµ": 7992,
      "avirus": 7993,
      "ĠØ§Ù¾ÙĨØ§": 7994,
      "ĠÙħØ³Ø¦": 7995,
      "Ġê¯ĥê¯ĩê¯Ŀê¯ģ": 7996,
      "Ġprog": 7997,
      "ĠÙĪØ§ÙĦØ§": 7998,
      "ĠÙħÙĤØ§Ø¨": 7999,
      "Ġà¬°à¬¹à¬£": 8000,
      "à¦Ĩà¦®": 8001,
      "Ġflowers": 8002,
      "Ġà§¨à§¦à§¦": 8003,
      "á±ļá±«á±®á±¥": 8004,
      "ĠØ§Ø¹ÙĦØ§ÙĨ": 8005,
      "Ġà¤ħà¤²à¤Ĺ": 8006,
      "ĠàŃ¦àŃ®àŃ": 8007,
      "Ġappro": 8008,
      "Ġà¤®à¤¦à¤¤": 8009,
      "á±®á±¢á±µá±ļá±¨": 8010,
      "ovid": 8011,
      "á±Łá±ªá±®": 8012,
      "á±ļá±¡á±®á±ŀá±Ł": 8013,
      "Ġslow": 8014,
      "ĠØ³ÚĢÙĨÙĬ": 8015,
      "ĠØ§Ø±Ø¯ÙĪ": 8016,
      "Ġà¤®à¤ľà¤¬": 8017,
      "Ø±ÙĬÚªØ§": 8018,
      "Ġá±®á±±á±®á±¡": 8019,
      "TMs": 8020,
      "Ġlock": 8021,
      "ĠFinally": 8022,
      "ĠÙĤØ¯ÙĬÙħ": 8023,
      "Ġá±¡á±Łá±¹á±Ľá±¤á±Ńá±Łá±¹á±¨á±¤": 8024,
      "ĠÙħØªØŃØ¯Ûģ": 8025,
      "à¦¯à§±à¦¹": 8026,
      "Ġá±¡á±®á±ľá±®á±Ľ": 8027,
      "ield": 8028,
      ".,": 8029,
      "200": 8030,
      "70": 8031,
      "erest": 8032,
      "ier": 8033,
      "ken": 8034,
      "ple": 8035,
      "zy": 8036,
      "Ã¯": 8037,
      "Ġ028": 8038,
      "à¤¾âĢĻ": 8039,
      "à¤¿à¤ĥà¥¤": 8040,
      "ÙĨØ§ÙĪ": 8041,
      "à¥Ģà¤ģ": 8042,
      "Ø±Ø§Ûģ": 8043,
      "à¤ķà¤ļ": 8044,
      "Ġà¤ķà¤ł": 8045,
      "hei": 8046,
      "à§ĩà¦ģ": 8047,
      "ÙĦÙĤÙĬ": 8048,
      "á±Łá±¸á±«": 8049,
      "ĠÚ©ÙĪÙĨ": 8050,
      "à¤ªà¤µ": 8051,
      "à¤ªà¤¹": 8052,
      "à¦°à¦¹": 8053,
      "Ġserv": 8054,
      "ĠÙħØ³ÛĮ": 8055,
      "ÙĲØĮ": 8056,
      "Ġwom": 8057,
      "Ġwood": 8058,
      "Ġà¤ľà¤¤": 8059,
      "à²°à²¶": 8060,
      "à¤¬à¤¡": 8061,
      "ĠØ¬Ø§Ø±ÙĬ": 8062,
      "ĠØ³Ø§Ø²": 8063,
      "ĠØ³ÚĦ": 8064,
      "Ġkt": 8065,
      "rel": 8066,
      "Ġà¤Ĺà¤ª": 8067,
      "ĠØªÙĦ": 8068,
      "à®°à®£à®®": 8069,
      "ĠÙ¾Ø§ÙĦ": 8070,
      "ĠÙ¾ÙĬØ±": 8071,
      "ĠØ¨Øº": 8072,
      "ĠØ¨Ø§Ø±ÛĴ": 8073,
      "Ġpand": 8074,
      "Ġpond": 8075,
      "Ġpynd": 8076,
      "Ġpresident": 8077,
      "à´°à´¶": 8078,
      "ÙıÙĽ": 8079,
      "Ġcool": 8080,
      "à®®à®°": 8081,
      "à®²à®µ": 8082,
      "à°ķà°Ł": 8083,
      "Ġà¤Ńà¤ĩ": 8084,
      "Ġê¯ĥê¯ĳ": 8085,
      "ĠØ¢ÛĮ": 8086,
      "àª®àªļ": 8087,
      "à¦¸à¦¦": 8088,
      "à¨¨à¨²": 8089,
      "à¨¨à¨µ": 8090,
      "ÙĤØ±": 8091,
      "à®¯à®©": 8092,
      "Ġà¤īà¤¹": 8093,
      "Ø¹ÛĴ": 8094,
      "à®±à®®": 8095,
      "Ġnaduh": 8096,
      "àªķàª¤": 8097,
      "Ġà¤ıà¤īà¤Ł": 8098,
      "ĠØ¯ÛĮÙĪ": 8099,
      "à¤«à¤°": 8100,
      "Ø§ÙĦØ§": 8101,
      "Ġhi": 8102,
      "á±·á±ļá±±": 8103,
      "à´±à´°": 8104,
      "à´±à´¯": 8105,
      "à¦ĩà¦°": 8106,
      "Ġà¤ĸà¤®": 8107,
      "à²¡à²¬": 8108,
      "ada": 8109,
      "ØłÙħ": 8110,
      "Ġàª¸àª¤": 8111,
      "à¤Ĩà¤¯": 8112,
      "à¤Ĩà¤¸": 8113,
      "à¤Ĩà¤§": 8114,
      "Ġá±«á±ļá±¥": 8115,
      "Ġjob": 8116,
      "Ġà°ķà°³": 8117,
      "Ġà®®à®£": 8118,
      "à´¸à´¨": 8119,
      "ĠMin": 8120,
      "à§±à¦²": 8121,
      "à¤µà¤°à¤ļ": 8122,
      "Ġà®ħà®³à®µ": 8123,
      "Ġá±Łá±¯": 8124,
      "ĠBl": 8125,
      "ĠAug": 8126,
      "ĠÙĤØ¨ÙĦ": 8127,
      "Ġrequ": 8128,
      "Ġà°®à°¨": 8129,
      "urity": 8130,
      "ĠØ²ÛĮØ±": 8131,
      "ÚĪÚ¯Ø§Ùħ": 8132,
      "Ġà¤Ĺà¤°à¤ľ": 8133,
      "ÚĻÙĨ": 8134,
      "Ġà¦īà§İ": 8135,
      "á±¥á±ļá±±": 8136,
      "semb": 8137,
      "ĠDec": 8138,
      "à¥¥\\": 8139,
      "ĠJust": 8140,
      "à±įâĢĮ,": 8141,
      "Ø¶ÙĪÚº": 8142,
      "olice": 8143,
      "emic": 8144,
      "à°¶à°ķ": 8145,
      "Ġà¨Ĩà¨®": 8146,
      "Ġvi": 8147,
      "àµ½à´ķ": 8148,
      "Ġà°ĩà°µ": 8149,
      "àµ¼à´Ł": 8150,
      "Ġspot": 8151,
      "Ġà´ĩà´°": 8152,
      "á±¤á±¥á±Ł": 8153,
      "àªĸàª¤": 8154,
      "Ġá±ªá±®á±Ľ": 8155,
      "ments": 8156,
      "à¥§à¥©": 8157,
      "Ġsmell": 8158,
      "àªıàª¸": 8159,
      "à¦īà¦Ł": 8160,
      "orts": 8161,
      "ĠàŃ¨àŃ®": 8162,
      "Ġá±ŀá±®á±łá±Łá±±": 8163,
      "Ġstart": 8164,
      "ÚĨÚ¾ÙĨÛģ": 8165,
      "Ġà¤ħà¤µà¤¤à¤°à¤£": 8166,
      "ĠØ¨Ú¾Ø§Ø±ØªÛĮ": 8167,
      "Ġsorry": 8168,
      "ĠÙ¾Ø§Ø±Ø§ÙĨ": 8169,
      "ĠØ§Ø³ÙĦØ§ÙħÛĮ": 8170,
      "ĠØ±ÙĩÙĬØ§": 8171,
      "Ġ2009": 8172,
      "ĠØ§ÛĮØ³ÛĴ": 8173,
      "Ġà®¨à®Łà®¨": 8174,
      "Ġamong": 8175,
      "ĠÙ²Ø³Øł": 8176,
      "Ġglad": 8177,
      "Ġreported": 8178,
      "Ġstayed": 8179,
      "Ġá±Łá±łá±Łá±«á±Ł": 8180,
      "ĠØ¬Ø§ØªØ§": 8181,
      "Ġowner": 8182,
      "Ġá±¥á±Łá±±á±Ľá±Łá±²": 8183,
      "Ġfollowed": 8184,
      "Ġissue": 8185,
      "Ġrealized": 8186,
      "Ġsamla": 8187,
      "Ġclaim": 8188,
      "Ġá±©á±¯á±ļá±¡á±®á±ŀá±Ł": 8189,
      "ĠSecretary": 8190,
      "Ġtaken": 8191,
      "aturday": 8192,
      "ĠKhasi": 8193,
      "Ġá±ļá±²á±Łá±ľ": 8194,
      "Ġá±ªá±®á±Ľá±Łá±±": 8195,
      "CC": 8196,
      "ED": 8197,
      "Thank": 8198,
      "bers": 8199,
      "hind": 8200,
      "lang": 8201,
      "set": 8202,
      "Êĥ": 8203,
      "Í¡": 8204,
      "Û³": 8205,
      "à°ı": 8206,
      "à¤°à¤°": 8207,
      "à¥ĩ)": 8208,
      "à¤¿à¥¥": 8209,
      "à««": 8210,
      "à¥ĭ\\-": 8211,
      "à¤ķà¤¯": 8212,
      "à¤²à¤£": 8213,
      "Ġtight": 8214,
      "Ġteam": 8215,
      "ÛģØ±ÙĪ": 8216,
      "à¤¹à¤Łà¤²": 8217,
      "Ġà´§": 8218,
      "ÙħÛĮÚº": 8219,
      "ĠØ§Ú¯": 8220,
      "ĠØ§Ù¹Ú¾": 8221,
      "Ø³Ú©Ø±": 8222,
      "Ġà¤ªà¤ŀ": 8223,
      "à¦°à¦ª": 8224,
      "à§°à¦¨": 8225,
      "Ġsign": 8226,
      "à²¿:": 8227,
      "ĠÙħÙĬØ±": 8228,
      "à¥Ī-": 8229,
      "à¦¤à¦¦": 8230,
      "Ġà¤¦à¤¶": 8231,
      "Ú©Øł": 8232,
      "Ġà¤Ĩà¤īà¤¨": 8233,
      "à®¤à®Ļ": 8234,
      "Ġà¤¨à¤¶": 8235,
      "à²°à²¨": 8236,
      "à²°à²¯": 8237,
      "à°°à°²": 8238,
      "à°¨à°¦": 8239,
      "ĠØ³ÙĪÙĦ": 8240,
      "ĠØ³Ø§Ø¦ÙĬ": 8241,
      "ĠØ³ÙĬÚª": 8242,
      "rew": 8243,
      "à´ķà´£": 8244,
      "à®°à®ļ": 8245,
      "ĠÙ¾Ø§Ú»ÙĬ": 8246,
      "ĠØ¨Ø¹": 8247,
      "Ġpot": 8248,
      "Ġpost": 8249,
      "Ġfire": 8250,
      "Ġà¤²à¤¹": 8251,
      "Ġless": 8252,
      "Ġdark": 8253,
      "ening": 8254,
      "Ġê¯ĳê¯ĩ": 8255,
      "Ġà¦ªà¦ķ": 8256,
      "isha": 8257,
      "Ġmad": 8258,
      "Ġmight": 8259,
      "ĠÙĨÙģ": 8260,
      "Ġà¨¦à¨²": 8261,
      "ÚªÙĬÙ½": 8262,
      "iday": 8263,
      "à¬ķà¬®": 8264,
      "àªķàªµ": 8265,
      "ÙģØ§Ø¸": 8266,
      "à±ĩ,": 8267,
      "ĠTamil": 8268,
      "Ø§ÙĦÙĪ": 8269,
      "Ġà¤¶à¤¹": 8270,
      "Ġinter": 8271,
      "ĠSaturday": 8272,
      "Ġho": 8273,
      "à²¸à²¦": 8274,
      "Ù²ÛĴ": 8275,
      "Ù¾Ø±ÛĮ": 8276,
      "ĠÚ¯ÙĪÙĦ": 8277,
      "à¦Ĺà¦¦": 8278,
      "à¦·à¦¦": 8279,
      "à±Ģà°Ĥ": 8280,
      "à°µà°ļ": 8281,
      "à¬ªà¬²": 8282,
      "Ġà¦¨à¦Ĺ": 8283,
      "Ġà¦¨à¦ķà§°": 8284,
      "ĠÙĩØªÙĬ": 8285,
      "Ġàª¸àªµ": 8286,
      "Ġà¦ħà¦ķ": 8287,
      "Ġevent": 8288,
      "à²®à²ķ": 8289,
      "ĠMan": 8290,
      "ĠMond": 8291,
      "Ù½Ø³": 8292,
      "uty": 8293,
      "Ġá±¦á±¤á±±á±«": 8294,
      "à¨ľà¨µ": 8295,
      "Ġri": 8296,
      "ĠàªĨàª¶": 8297,
      "Ġà®ħà®´": 8298,
      "á±Łá±¹á±«á±½": 8299,
      "ĠàªľàªĹ": 8300,
      "ĠBS": 8301,
      "Ġá±Ľá±·": 8302,
      "ĠØ²ÙħÙĬÙĨ": 8303,
      "Ġà¦¶à§°": 8304,
      "ĠCan": 8305,
      "Ø·Ø§ÙĨ": 8306,
      "Ġyes": 8307,
      "à¤¯à¤ķà¤¤": 8308,
      "à¤¹à¤°à¤£": 8309,
      "àŃ§àŃ¨": 8310,
      "bai": 8311,
      "ê¯łê¯ģ": 8312,
      "ummy": 8313,
      "Ġà®İà®´": 8314,
      "à°ľà°ķ": 8315,
      "àŃ±à¬¡": 8316,
      "Ġà¦¸à¦®à¦¸": 8317,
      "Ġà²¤à²²": 8318,
      "ÚĬÙĬØ§": 8319,
      "Ġà¬ľà¬¨": 8320,
      "ĠàŃ§àŃŃ": 8321,
      "ĠÚ©Ø§ÙĨÙ¾ÙĪØ¡": 8322,
      "Ġà¬¨à¬Ń": 8323,
      "Ġvill": 8324,
      "Ġ195": 8325,
      "Ġ196": 8326,
      "ists": 8327,
      "Ø§ÙģØª": 8328,
      "à¥§à¥«": 8329,
      "à´¡à´¨": 8330,
      "à´¹à´¤": 8331,
      "Ġàª¥àª¤": 8332,
      "Ġà¤¸à¤¹à¤ľ": 8333,
      "ÙĬØ±Ùĩ": 8334,
      "Ġ70": 8335,
      "ĠØ¨ÛĮØªØ±": 8336,
      "Ġà¤¸à¤Ńà¤¨": 8337,
      "Ġá±Ľá±Łá±¦á±®á±±á±Ł": 8338,
      "Ġworry": 8339,
      "á±¤á±¡á±©á±ľ": 8340,
      "àŃ¨àŃ¦": 8341,
      "Ġprod": 8342,
      "ĠÙĪØ§Ø±ÙĨ": 8343,
      "ĠÙħÛĮÚĨ": 8344,
      "Ġ80": 8345,
      "ĠÙħÙĤØµØ¯": 8346,
      "ĠÚĩÙ¾": 8347,
      "Ġbirds": 8348,
      "ĠàŃ¨àŃ¦àŃ§": 8349,
      "á±Łá±łá±Ł": 8350,
      "á±Łá±¹á±ľá±Łá±²": 8351,
      "Ġinterest": 8352,
      "ffic": 8353,
      "Ġà®ķà®Łà®¨": 8354,
      "Ġnga": 8355,
      "ĠÚĢØ±": 8356,
      "ÙĬØ³Ø±": 8357,
      "ê¯ıê¯ħê¯ģ": 8358,
      "ĠØ§Ø¨Øª": 8359,
      "ĠØ³ÙĨØ¯ÙĨ": 8360,
      "à¬īà¬Ľ": 8361,
      "á±²á±Ł": 8362,
      "Ġà¤¬à¤ľà¤Ł": 8363,
      "Ġpolit": 8364,
      "ê¯Ŀê¯ħê¯ĥê¯Ľ": 8365,
      "ĠØ±Ú©Ú¾Ø§": 8366,
      "ĠØ§Ø¯Ø¨": 8367,
      "àªīàª¨": 8368,
      "Ġcolor": 8369,
      "ĠØ¬ÛģØ§Úº": 8370,
      "Û±Û¹Û": 8371,
      "Ġàª¤àª°àª«": 8372,
      "Ġofficials": 8373,
      "ĠØ¬ÙĦØ¯": 8374,
      "Ġà®ªà®¯à®©": 8375,
      "ĠÙħØ«Ø§ÙĦ": 8376,
      "Ġsurprised": 8377,
      "ÙħÙ¾ÛĮÙĪ": 8378,
      "Ġenjoyed": 8379,
      "Ġmorning": 8380,
      "Ġgreen": 8381,
      "ĠÙħÚªÙħÙĦ": 8382,
      "echn": 8383,
      "Shillong": 8384,
      "ĠÙĪØ§ÙĨÚ¯Ø±": 8385,
      "Ġá±łá±©á±²á±¤": 8386,
      "Ġá±µá±¤á±¨á±«á±Łá±¹á±ľá±Łá±²": 8387,
      "Ġowl": 8388,
      "sembly": 8389,
      "80": 8390,
      "Bengaluru": 8391,
      "HA": 8392,
      "cted": 8393,
      "ev": 8394,
      "eal": 8395,
      "hor": 8396,
      "ieng": 8397,
      "nes": 8398,
      "zz": 8399,
      "Ġx": 8400,
      "à«§à«": 8401,
      "ÛĮØŃ": 8402,
      "ÙĬØ¨": 8403,
      "Ġtri": 8404,
      "à¤µà¤ķà¤°": 8405,
      "ê¯¤)": 8406,
      "âĢĶ": 8407,
      "ĠÚ©ÙĨ": 8408,
      "ĠÚ©Ø¨": 8409,
      "ĠØ§Ø¸": 8410,
      "Ġà¤®à¤£": 8411,
      "Ġà¤ªà¤ł": 8412,
      "à¦°à¦Ł": 8413,
      "à¤Ĺà¤ľ": 8414,
      "ination": 8415,
      "Ġà¤¬à¤°à¤ĸ": 8416,
      "à²°à²Ĺà²³": 8417,
      "à²°à²ķà²°à²£": 8418,
      "Ġben": 8419,
      "à¨°à¨ª": 8420,
      "ĠØ¬Ø§Ø³": 8421,
      "à°¨à°°": 8422,
      "à°¨à°²": 8423,
      "à´ķà´±": 8424,
      "à¤¡à¤¸": 8425,
      "ern": 8426,
      "ĠÙ¾ÙĬÙĪ": 8427,
      "Ġtown": 8428,
      "àŃĩ,": 8429,
      "à¦®à¦ķà¦°": 8430,
      "ĠØ¨Ø§Ø¯": 8431,
      "ĠØ¨ØªØ§": 8432,
      "ĠØ¨ÙĦÙĪ": 8433,
      "Ġpower": 8434,
      "Ġpublic": 8435,
      "Ġpaper": 8436,
      "ĠÚĨØ¦": 8437,
      "ĠÙĪØ§": 8438,
      "ĠÙĪØ§Ø¨": 8439,
      "Ġlakh": 8440,
      "Ġà¦ķà¦¬": 8441,
      "Ġce": 8442,
      "Ġdes": 8443,
      "arr": 8444,
      "à´Łà´®": 8445,
      "orite": 8446,
      "à®ªà®©": 8447,
      "Ġmust": 8448,
      "ĠØ¢Ø¦ÛĴ": 8449,
      "à¥ĩà¤Ĥ.": 8450,
      "à¨Ĥ,": 8451,
      "à¨¸à¨¥": 8452,
      "à¨¤à¨ķ": 8453,
      "à¨¨à¨°": 8454,
      "Ø¬ÛĴ": 8455,
      "Ø¹ÙĦ": 8456,
      "àª¯àªµ": 8457,
      "ĠÚªÙĬÙĦ": 8458,
      "ĠØ±ÙĤ": 8459,
      "Ġà¦Ĩà¦¤": 8460,
      "ĠSup": 8461,
      "Ġhot": 8462,
      "ÙĨØ¯ÙĬÙĪÙĨ": 8463,
      "á±©á±Ŀ": 8464,
      "ê¯Łê¯Ī": 8465,
      "à´®à´¨": 8466,
      "Ġà¤ĸà¤¤": 8467,
      "à²³à²ķ": 8468,
      "ĠØ´Ùĩ": 8469,
      "á±¨á±®": 8470,
      "Ġá±¥á±Łá±¨": 8471,
      "Ġá±¥á±¤á±¢": 8472,
      "Ġá±«á±¤á±±": 8473,
      "Ġà¤¥à¤ª": 8474,
      "Ġà²®à²ķ": 8475,
      "à´ļà´¯": 8476,
      "à¤°à¤ķà¤²": 8477,
      "ĠMP": 8478,
      "à¦£à¦¤": 8479,
      "acy": 8480,
      "à¨£à¨Ĺ": 8481,
      "Ġàªµàªĸàª¤": 8482,
      "Ġá±Łá±ŀ": 8483,
      "à¨Ĺà¨®": 8484,
      "àµģà´Ĥ,": 8485,
      "ĠÚ©Ø±ÛĴ": 8486,
      "ĠÚ©Ø±Ø§ÚĨÛĮ": 8487,
      "ĠÙĤÛĮ": 8488,
      "ĠÙĤØ³": 8489,
      "àªľàªª": 8490,
      "Ø®Ø§Ø±": 8491,
      "àª¡àªª": 8492,
      "Ġá±¯á±©á±Ń": 8493,
      "Ġá±¯á±Łá±¥": 8494,
      "Ġá±Ľá±Łá±¸á±¦": 8495,
      "Ġà´µà´´": 8496,
      "Ġà¬ıà¬²à¬Ł": 8497,
      "Ġà¦¶à¦°": 8498,
      "à¬ĩà¬¨": 8499,
      "Ġà®¨à®Łà®¤": 8500,
      "oop": 8501,
      "à³ĭà²Ĥ": 8502,
      "Ġà¦ķà¦°à¦²": 8503,
      "à¤ħà¤¹": 8504,
      "à´·à´¤": 8505,
      "Ġ38": 8506,
      "Ġbag": 8507,
      "Ø§Ø³ÛĮ": 8508,
      "Ø§Ø³ÙĦØ§Ùħ": 8509,
      "ĠJune": 8510,
      "ê¯İê¯ħ": 8511,
      "ĠKumar": 8512,
      "á±ŀá±©": 8513,
      "itten": 8514,
      "Ġlik": 8515,
      "Ġlife": 8516,
      "Ġà¤®à¤¨à¤¸": 8517,
      "Ġhappily": 8518,
      "Ġvar": 8519,
      "Ġà°īà°¤": 8520,
      "Ġà¦ĩà¦£": 8521,
      "Ġà¦Ĩà§°à¦®": 8522,
      "Ġà¥¨à¥ª": 8523,
      "àµ¼à´¨": 8524,
      "Ø§ÙģÙĬ": 8525,
      "ĠWhat": 8526,
      "ĠWest": 8527,
      "à¤ĵà¤°": 8528,
      "á±«á±¤": 8529,
      "à¨ĩà¨ķ": 8530,
      "à¦ľà¦¨à§°": 8531,
      "Ġà¦«à¦²": 8532,
      "ØºØ±": 8533,
      "ĠÙĦÛĮÚ¯": 8534,
      "Ġà°ľà°¨": 8535,
      "Ġà¤¸à¤¹à¤Ń": 8536,
      "ĠØªØ¹ÙĦÙĤÙĬ": 8537,
      "ĠàŃ¨àŃ¯": 8538,
      "à²Ńà²µ": 8539,
      "Ø±ÙģØª": 8540,
      "Ø§ØŃØ¯": 8541,
      "Ġà¤¹à¤®à¤²": 8542,
      "á±¦á±Łá±£": 8543,
      "ĠØ¬Ø§ÙĨÛĴ": 8544,
      "Ġá±łá±ļá±§": 8545,
      "Ġmeas": 8546,
      "ĠØ³ÙĪØ§Ø¡": 8547,
      "á±Łá±łá±ļ": 8548,
      "Ġà§§à§¨": 8549,
      "Ġdeath": 8550,
      "icket": 8551,
      "à´ķà´°à´£": 8552,
      "ĠØ³Ø§ÙĦÙĨ": 8553,
      "ĠÙħØ·Ø§ÙĦ": 8554,
      "ĠÙħØ·ÙĦØ¨": 8555,
      "Ġflower": 8556,
      "á±¤á±´á±¤": 8557,
      "Ġoper": 8558,
      "á±ļá±«á±½": 8559,
      "Ġcars": 8560,
      "á±Łá±µá±½": 8561,
      "Ġà¤ħà¤Ĺà¤¸": 8562,
      "Ġà¤ħà¤Ĺà¤¦": 8563,
      "ĠÚ¯Ø§ÚĳÛĮ": 8564,
      "Ġà¤ľà¤Ĺà¤¹": 8565,
      "ĠØ§ÙĩÙħ": 8566,
      "Ġaccused": 8567,
      "à«¦à«¦": 8568,
      "ĠØ±Ú©ÙĬ": 8569,
      "ĠÙģÛĮØµ": 8570,
      "Ġlady": 8571,
      "Ġchair": 8572,
      "lier": 8573,
      "Ġà¤Ĩà¤ĩà¤ľ": 8574,
      "Ġtrying": 8575,
      "Ġleader": 8576,
      "ĠÚªÙĬØªØ±ÙĨ": 8577,
      "ĠÚĩÚıÙĬ": 8578,
      "ĠØµÙĪØ¨ÙĬ": 8579,
      "ĠØ¹ÙĦØ§ÙĤÛģ": 8580,
      "Ġtrees": 8581,
      "ĠØ¨ÛĮÙĨÚ©": 8582,
      "Ġwrong": 8583,
      "Ġá±łá±Łá±Ľá±·á±Ł": 8584,
      "ĠÚĨÙĪÙĨÚĬ": 8585,
      "Ġê¯ĥê¯Ĳê¯Ŀ": 8586,
      "ĠØ®ÛĮØ§ÙĦ": 8587,
      "Ġá±Ľá±¤á±¨á±ŀá±Łá±¹": 8588,
      "Ġwonder": 8589,
      "Ġá±µá±®á±µá±·á±Łá±¨": 8590,
      "Ġyellow": 8591,
      "Ġnumber": 8592,
      "ĠØ¯ÙĪÙĨÙĪÚº": 8593,
      "Ġpynpaw": 8594,
      "Ġá±¡á±Łá±Ńá±ľá±Ł": 8595,
      "Ġcoronavirus": 8596,
      "Ġá±¦á±ļá±Ľá±®á±Ľá±®": 8597,
      "Ġpandemic": 8598,
      "Ġviol": 8599,
      "ĠMonday": 8600,
      "'ll": 8601,
      "33": 8602,
      "43": 8603,
      "come": 8604,
      "deng": 8605,
      "kum": 8606,
      "kai": 8607,
      "less": 8608,
      "line": 8609,
      "wer": 8610,
      "¥Ģ": 8611,
      "ØĲ": 8612,
      "ĠX": 8613,
      "á±£á±Ł": 8614,
      "à¥į-": 8615,
      "Ġà¦·": 8616,
      "ÙĨÙģ": 8617,
      "à¤¤à¤¥": 8618,
      "à«¨": 8619,
      "à¤¯à¤¯à¤¨": 8620,
      "à¤¯à¤Łà¤ķ": 8621,
      "à¤²à¤ĸ": 8622,
      "Ġê¯ļ": 8623,
      "à¤¸à¤°à¤ķ": 8624,
      "à¤®à¤¶": 8625,
      "Ġà¤¸à¤¸": 8626,
      "à¦¿)": 8627,
      "à¤¦à¤§": 8628,
      "à¥¤âĢĿ": 8629,
      "ĠØ§ØªÚ¾": 8630,
      "à¦°à¦ķà¦²": 8631,
      "Ġsqu": 8632,
      "Ġschool": 8633,
      "ĠÙħØ§Ø¦": 8634,
      "ĠÙħÛĮÙĨ": 8635,
      "ĠÙħØ¯Ø±": 8636,
      "int": 8637,
      "à°¾..": 8638,
      "à¤ľà¤¦": 8639,
      "à¤ľà¤¨à¤ķ": 8640,
      "Ġwon": 8641,
      "Ġà¤ľà¤ķ": 8642,
      "à¤Łà¤µ": 8643,
      "Ġà¤¤à¤¶": 8644,
      "à°°à°¦": 8645,
      "à¥Ĥ-": 8646,
      "à¤¾à¤Ĥ-": 8647,
      "à¤¡à¤ª": 8648,
      "ĠÙ¾Ø§ÙĨÛĮ": 8649,
      "Ġpass": 8650,
      "Ġfather": 8651,
      "à²²à²°": 8652,
      "à´°à´ŀ": 8653,
      "ĠÚĨÙĬÙĨ": 8654,
      "ĠÙĪÚª": 8655,
      "ĠÙĪÙĪÙ¹": 8656,
      "Ġlar": 8657,
      "Ġlyng": 8658,
      "ĠÛģØ§ØªÚ¾": 8659,
      "Ġcup": 8660,
      "Ġdor": 8661,
      "Ġdue": 8662,
      "Ø²Ùħ": 8663,
      "ism": 8664,
      "ĠØ¢Øº": 8665,
      "à¤Ńà¤¦": 8666,
      "à²µà²¤": 8667,
      "à¨¸à¨¦": 8668,
      "à¨¨à¨¸": 8669,
      "à®¯à®µ": 8670,
      "Ġnang": 8671,
      "ĠÛĮÙĪÙĨ": 8672,
      "ĠÛĮØªÚ¾": 8673,
      "ĠØ±ØŃ": 8674,
      "à°¯à°¸": 8675,
      "ested": 8676,
      "ĠØ¯Ø±ÙĬ": 8677,
      "ĠÙĦÚĳ": 8678,
      "à¦ľà¦²": 8679,
      "à¨¹à¨¤": 8680,
      "Ġgone": 8681,
      "Ġà¦®à§°": 8682,
      "Ġsand": 8683,
      "à¬®à¬¤": 8684,
      "lei": 8685,
      "à¦¹à¦²": 8686,
      "àª¸àªŃ": 8687,
      "ÙĪÙĨØ§": 8688,
      "Ġá±¥á±Łá±Ń": 8689,
      "Ġá±¥á±ļá±«á±ļá±¨": 8690,
      "à¤Ľà¤¤": 8691,
      "Ġà¦¦à¦¶": 8692,
      "ĠØ¹Ø§Ø´": 8693,
      "Ġàª¸àªª": 8694,
      "Ġà°ªà°²": 8695,
      "Ġà¦ħà¦«": 8696,
      "ĠThere": 8697,
      "irc": 8698,
      "irt": 8699,
      "àªŁàª£": 8700,
      "Ġjoin": 8701,
      "Ġà¨ªà¨¤": 8702,
      "Ġà´ªà´ł": 8703,
      "ĠØŃÙħÙĦ": 8704,
      "ÚĨÛĴ": 8705,
      "ÚĨØ§Ø±": 8706,
      "ÚĨÚ¾ÙĨ": 8707,
      "ĠHa": 8708,
      "Ġà´ķà´³": 8709,
      "Ġá±¦á±Łá±¨": 8710,
      "Ġà²ķà²Ł": 8711,
      "ê¯¢ê¯ĭ": 8712,
      "Ġá±µá±Łá±µ": 8713,
      "Ġá±µá±Łá±¹á±²": 8714,
      "Ġà°¸à°¹": 8715,
      "Ġà¬ķà¬Łà¬ķ": 8716,
      "ĠØ§ÙĨØ¬": 8717,
      "Ġstre": 8718,
      "Ġà¨ħà¨¦": 8719,
      "Ġá±Łá±Ľ": 8720,
      "str": 8721,
      "ĠÚ©Ø±ØªÛĮ": 8722,
      "Ġà¤ĺà¤¡": 8723,
      "ĠAd": 8724,
      "Ø®Ø§Ø¨": 8725,
      "Ġà¨¤à¨ķ": 8726,
      "pping": 8727,
      "ÚĪØ±": 8728,
      "Ġá±¡á±ļá±¢": 8729,
      "Ġàª°àª¸": 8730,
      "ĠCl": 8731,
      "Ġà¨¬à¨°": 8732,
      "Ġá±ľá±©á±´": 8733,
      "ĠØ·Ø±ÙĬ": 8734,
      "á±Ľá±Łá±±": 8735,
      "Ø±ÙĪÙģ": 8736,
      "ÙħÛĮØª": 8737,
      "Ġà¦¸à¦®à¦·": 8738,
      "¸á±´": 8739,
      "Ġjingd": 8740,
      "Ġà°Ĩà°¡": 8741,
      "Ġà°Ĩà°«": 8742,
      "ÚĮÙĬ": 8743,
      "á±®á±Ńá±Łá±¨": 8744,
      "Ġà¨Ĩà¨Ĺ": 8745,
      "á±Łá±ŀá±Ł": 8746,
      "á±´á±Ł": 8747,
      "á±´á±¨": 8748,
      "Ġalong": 8749,
      "Ġà°ĩà°²": 8750,
      "Ġà¦°à¦ķ": 8751,
      "Ġà´ĩà´µ": 8752,
      "ĠÙħÙĪØ¶ÙĪ": 8753,
      "ĠÙĬÙĪÙĨ": 8754,
      "Ġà¤²à¤Ĺà¤Ńà¤Ĺ": 8755,
      "à¥¨à¥§": 8756,
      "àªĸàªµ": 8757,
      "Ġá±©á±Ľ": 8758,
      "ĠØ±ÙĪÙ¾": 8759,
      "ĠEx": 8760,
      "Ġallow": 8761,
      "Ġà°ľà°Ĺà°¨": 8762,
      "ÛĨÙĨ": 8763,
      "á±³á±±": 8764,
      "Ġclass": 8765,
      "Ġclose": 8766,
      "ĠØ¨ÛĮÙ¹Ú¾": 8767,
      "que": 8768,
      "ĠØ§ÙĬØ³": 8769,
      "ĠØ³ÛĮØªÛĮ": 8770,
      "àª«àª°": 8771,
      "à¤¿âĢįà¥¤": 8772,
      "ody": 8773,
      "Ġword": 8774,
      "Ġiathuh": 8775,
      "Ġadv": 8776,
      "Ġkhynn": 8777,
      "Ġkano": 8778,
      "Ġà¬¯à¬¶": 8779,
      "Ġdeep": 8780,
      "ĠØ§ÙħØ±ÛĮ": 8781,
      "à¤°à¤ªà¤Ł": 8782,
      "Ġà¥©à¥¦": 8783,
      "à¬ķà¬°à¬£": 8784,
      "Ġà¦Ĩà¦°à¦ĵ": 8785,
      "à¤¯à¤µà¤¹": 8786,
      "Ġá±¡á±Łá±¦á±Łá±¸á±Ń": 8787,
      "ĠÚ¯ÙĩÚ»ÙĪ": 8788,
      "ĠÙĪØ²ÙĬØ±": 8789,
      "meric": 8790,
      "Ġá±¯á±¨á±ļá±«á±®á±¥": 8791,
      "Ġá±«á±·á±ļá±¨á±ļá±¢": 8792,
      "ĠØ¤Ø±ÛĮ": 8793,
      "Ġà¬ĺà¬Ł": 8794,
      "Ġswim": 8795,
      "Ġá±§á±©á±Ľá±©á±¢á±Łá±±": 8796,
      "Ġmatter": 8797,
      "ĠØ«Ø§Ø¨Øª": 8798,
      "ternational": 8799,
      "Ġwindow": 8800,
      "ĠØŃØ³ÛĮÙĨ": 8801,
      "Ġprotest": 8802,
      "à²Ĩà²°": 8803,
      "Ġbreak": 8804,
      "ĠCommission": 8805,
      "ĠÙ¾Ø³ÙĨØ¯": 8806,
      "Ġà¤µà¤ľà¤¹": 8807,
      "Ġbroken": 8808,
      "ĠÙ¾ÙĦÙĪÛĦÙħ": 8809,
      "Ġfavorite": 8810,
      "ĠØ°Ø±ÙĬØ¹ÙĬ": 8811,
      "Ġá±µá±·á±Łá±¨á±ļá±Ľ": 8812,
      "ĠÚ©Ú¾ÛĮÙĦ": 8813,
      "ĠÚ©Ø±Ø¯ÛĮØ§": 8814,
      "ĠÛģØ³Ù¾ØªØ§ÙĦ": 8815,
      "ðŁ¥Ģ": 8816,
      "Ġkhynnah": 8817,
      "//": 8818,
      "47": 8819,
      "Don": 8820,
      "Ki": 8821,
      "jur": 8822,
      "juh": 8823,
      "mar": 8824,
      "more": 8825,
      "por": 8826,
      "shah": 8827,
      "te": 8828,
      "¡Ù": 8829,
      "Ġ<": 8830,
      "ĠQ": 8831,
      "ÙĨØµ": 8832,
      "à¤¤à¤¬": 8833,
      "à¤¤à¤³": 8834,
      "Ġà¨ĵ": 8835,
      "à¥Ģ...": 8836,
      "Ø±ÙĪÚº": 8837,
      "à¤ĤâĢĻ": 8838,
      "Ġtall": 8839,
      "à¤µà¤¢": 8840,
      "ÛģØ§Ø±": 8841,
      "à¥ģà¥¤": 8842,
      "à¤¹à¤¦": 8843,
      "Ġà®¹": 8844,
      "ĠÚ©Ø¦ÛĮ": 8845,
      "ĠÚ©ÛĨ": 8846,
      "ĠØ§ÙĤØª": 8847,
      "ĠØ§Ø®Øª": 8848,
      "Ú¾Ûģ": 8849,
      "à§°à¦²": 8850,
      "à§°à¦¹": 8851,
      "Ġsour": 8852,
      "à¬°à¬ª": 8853,
      "à¬°à¬Ļ": 8854,
      "Ø¯Øł": 8855,
      "inal": 8856,
      "à¤ľà¤§": 8857,
      "à®ķà®´": 8858,
      "à´¨à´µ": 8859,
      "ĠØ³ÙħÙĨ": 8860,
      "à´ķà´ª": 8861,
      "ĠØªØ³": 8862,
      "ĠØªØ§Ú©Ûģ": 8863,
      "à¤¡à¤³": 8864,
      "à°²à°®": 8865,
      "ĠÙ¾Úĳ": 8866,
      "Ġfight": 8867,
      "à²²à²¨": 8868,
      "à´°à´§": 8869,
      "à²¨à²Ĺ": 8870,
      "ĠÙĪØ¬ÙĪØ¯": 8871,
      "aster": 8872,
      "oring": 8873,
      "àª®àª°": 8874,
      "Ø´ÛĮØ±": 8875,
      "Ø¬ÙĪØ§ÙĨ": 8876,
      "Ġà¨¸à¨¦": 8877,
      "à®±à®ķ": 8878,
      "ĠÛĮÛİ": 8879,
      "ĠÛĮØ¹ÙĨÛĮ": 8880,
      "ĠÚªÙĪØ±": 8881,
      "à®µà®ļ": 8882,
      "Ġà¦Ĩà¦§": 8883,
      "ĠSally": 8884,
      "á±·á±ļá±¨": 8885,
      "à©ĭ.": 8886,
      "Ġá±¨á±®á±«á±ļ": 8887,
      "á±©á±£á±Ł": 8888,
      "à´±à´²": 8889,
      "ê¯Łê¯ĩê¯Ķ": 8890,
      "Ø§ÙħØª": 8891,
      "Ġà¤ĸà¤¤à¤°": 8892,
      "Ø§Ø¦Ø±": 8893,
      "ĠØ´Ø§Ø®": 8894,
      "ĠØ´ÚªØ§Ø±": 8895,
      "à°µà°¹": 8896,
      "Ġà¤Ľà¤¤": 8897,
      "à¤ĩà¤¥": 8898,
      "ĠØ¹Ø´": 8899,
      "àŃŁà¬ª": 8900,
      "ĠÙģØªØŃ": 8901,
      "Ġà²®à²²": 8902,
      "Ġjud": 8903,
      "Ġà²¸à²¤": 8904,
      "à¨Ĩà¨ª": 8905,
      "Ġá±¢á±¤á±ŀ": 8906,
      "Ġà´ªà´¦": 8907,
      "Ġàª®àª¨": 8908,
      "ÛĮØ§Ø³ÛĮ": 8909,
      "ĠØ§ÙĨØµ": 8910,
      "owever": 8911,
      "Ø§ØªØ§": 8912,
      "Ġà®ħà®£": 8913,
      "Ġà®ħà®Ļ": 8914,
      "Ġà¤ħà¤¸à¤£": 8915,
      "Ġàªħàªª": 8916,
      "àªĹàª®": 8917,
      "Ġà²ªà²Ł": 8918,
      "à¨ªà¨¸": 8919,
      "Ġá±¡á±¤á±ŀ": 8920,
      "Ġá±¡á±·á±Łá±¨": 8921,
      "Ġformer": 8922,
      "Ġà¦ļà¦ķ": 8923,
      "Ġà´®à´¤": 8924,
      "à¬Ĺà¬¦": 8925,
      "àª¶àª®": 8926,
      "Ġyummy": 8927,
      "Ġá±±á±©á±Ń": 8928,
      "terf": 8929,
      "à²£à²µ": 8930,
      "àª§àª¨": 8931,
      "Ġsho": 8932,
      "Ġship": 8933,
      "ĠØ·Ø¨": 8934,
      "ĠØ·Ø±ÛĮ": 8935,
      "á±łá±Łá±¹": 8936,
      "rap": 8937,
      "Ġ300": 8938,
      "Ø§ÛģÛĴ": 8939,
      "à²¶à²ķ": 8940,
      "Ġjingm": 8941,
      "Ġjingt": 8942,
      "àŃ¦àŃ¦àŃ¦": 8943,
      "Ġmoment": 8944,
      "Ġà´İà´¸": 8945,
      "ĠNov": 8946,
      "ê¯Ĩê¯Ķ": 8947,
      "á±Łá±£á±Ł": 8948,
      "ĠàªĹàª£": 8949,
      "Ġà®Ĩà®°": 8950,
      "Ġà®Ĩà®Ł": 8951,
      "Ġspoon": 8952,
      "Ġà°Ĺà°¤": 8953,
      "ĠÚ¾Ø¦ÙĬ": 8954,
      "ĠÙ»ÙĪÙĦ": 8955,
      "ĠÙħÙĪÙĤØ¹": 8956,
      "Ġdoing": 8957,
      "Ġleft": 8958,
      "ĠFe": 8959,
      "Ġà¤ķà¤¹à¤¨": 8960,
      "à¥§à¥¬": 8961,
      "ards": 8962,
      "à¨ħà¨ķà¨¤": 8963,
      "ÙĦÙĪÙħÛĮ": 8964,
      "á±Łá±²á±Ł": 8965,
      "àŃ«àŃ¦": 8966,
      "ape": 8967,
      "ĠÙ½ÙĬÚªÙĨ": 8968,
      "ĠÙħÛĮØ±ÛĮ": 8969,
      "ĠÛģÛĮÚ©Ûģ": 8970,
      "Ø¨Ø§ÙĨÛģ": 8971,
      "Ġgroup": 8972,
      "Ġdecision": 8973,
      "Ġá±¤á±¥": 8974,
      "Ġà¥¨à¥¦à¥¦": 8975,
      "ĠÙ¾ÙĨÙĩÙĨØ¬ÙĪ": 8976,
      "á±ļá±¸á±ľ": 8977,
      "á±ļá±¸á±¡á±½": 8978,
      "à¤¸à¤Ńà¤®": 8979,
      "ĠÚªÙħÙ¾": 8980,
      "Ġanymore": 8981,
      "Ġkumba": 8982,
      "ĠØŃÚ©Ùħ": 8983,
      "ĠØ³ÙĬØ§Ø³ÙĬ": 8984,
      "Ġá±¢á±®á±±á±Ľá±®": 8985,
      "Ġá±ĳá±Ļá±Ĺ": 8986,
      "Ġslide": 8987,
      "Ġmonster": 8988,
      "ĠÚªÙĦÙĩÙĪ": 8989,
      "á±Łá±¸á±ľ": 8990,
      "ĠÚ©Ø´ÛĮØ±": 8991,
      "Ġdepartment": 8992,
      "Ġstates": 8993,
      "ĠÚĦØ§Ùħ": 8994,
      "á±Ĳá±Ĳá±Ĳ": 8995,
      "ĠØ³Ø§ÙħÙĨÛĴ": 8996,
      "ouncil": 8997,
      "ĠØ³Ú¯ÙĩØ¬ÙĬ": 8998,
      "ĠÚªØ±Ø§ÚĨÙĬ": 8999,
      "Ġpromised": 9000,
      "Ġá±¥á±ļá±¨á±łá±Łá±¨": 9001,
      "ĠÙĪØºÙĬØ±Ùĩ": 9002,
      "Ġclimb": 9003,
      "ĠØ°Ø±ÛĮØ¹ÛĴ": 9004,
      "ĠØ®Ø¯ÙħØª": 9005,
      "Ġpige": 9006,
      "Ġgrabbed": 9007,
      "India": 9008,
      "Ġfairy": 9009,
      "ðŁ¥ĢðŁ¥Ģ": 9010,
      "\"ÛĶ": 9011,
      "32": 9012,
      "AN": 9013,
      "ck": 9014,
      "ging": 9015,
      "ges": 9016,
      "hun": 9017,
      "most": 9018,
      "no": 9019,
      "ric": 9020,
      "ser": 9021,
      "za": 9022,
      "à¤°à¤Ĩ": 9023,
      "Ø§ÙĪÙĦ": 9024,
      "ÙĪÙĤ": 9025,
      "à¤¯à¤«": 9026,
      "Ø±Ø§Ø¦ÙĬ": 9027,
      "Ġà¤ķà¤¬": 9028,
      "ÛģÙĨ": 9029,
      "Ġà®Ī": 9030,
      "Ġà´Ĳ": 9031,
      "ĠØ§ÚĦ": 9032,
      "Ġsum": 9033,
      "Ġsect": 9034,
      "à¬°à¬¥": 9035,
      "ĠÙħÙĪØ³": 9036,
      "ĠÙħÙĬÙħ": 9037,
      "ined": 9038,
      "à¤ļà¤£": 9039,
      "Ġà¤¹à¤ķ": 9040,
      "ÙĲ.": 9041,
      "à¤ľà¤¬": 9042,
      "à®ķà®£": 9043,
      "Ġà¤ľà¤£": 9044,
      "Ġbow": 9045,
      "Ġboo": 9046,
      "à°°à°¹": 9047,
      "à¦²à¦Ĺ": 9048,
      "Ġà¤µà¤Ĺ": 9049,
      "à²¦à²µà²°": 9050,
      "à®°à®µ": 9051,
      "ĠÙ¾Ø¦ÙĬ": 9052,
      "à¤§à¤²": 9053,
      "Ġtotal": 9054,
      "à¦®à¦¸": 9055,
      "à¦®à¦ļ": 9056,
      "à®¾?": 9057,
      "ĠØ¨Ø§ÛģØ±": 9058,
      "Ġpoll": 9059,
      "Ġpull": 9060,
      "à´°à´Ł": 9061,
      "ĠÙĪØ§Ø¦": 9062,
      "ĠÙĪØ§Ø¶ØŃ": 9063,
      "Ġà¦ªà¦¶": 9064,
      "ising": 9065,
      "à¬¬à¬¤": 9066,
      "Ġà¦¸à¦ļ": 9067,
      "Ġmach": 9068,
      "ĠÙĨØªÙĬ": 9069,
      "àª®àª¦": 9070,
      "ati": 9071,
      "à°¤à°Ĺ": 9072,
      "Ġox": 9073,
      "à¨²à¨°": 9074,
      "à¨²à¨¬": 9075,
      "à¨¨à¨¦": 9076,
      "Ú¯ÙĦ": 9077,
      "Ø´ØªÛģ": 9078,
      "Ġà¤ķà¤°à¤µ": 9079,
      "ĠÛĮÙħÛģ": 9080,
      "àª¯àª²": 9081,
      "ÙģØ§ÙĤ": 9082,
      "ĠTues": 9083,
      "ĠØ±Ø§Ø¬": 9084,
      "ĠØ±Ø§ÙĨØ¯": 9085,
      "à°¯à°¤": 9086,
      "á±·á±¤á±¢": 9087,
      "ĠÙĦÚ©Ú¾": 9088,
      "à¬²à¬®": 9089,
      "à¦ĩà¦¤": 9090,
      "ĠÚ¯ÙĪØ±ÙĨ": 9091,
      "à¦Ľà¦¨": 9092,
      "à´®à´¸": 9093,
      "Ġà¤ĸà¤¬à¤°": 9094,
      "à¦¹à¦¨": 9095,
      "à¤ĥà¥¥": 9096,
      "Ġà¨¨à¨ľ": 9097,
      "Ġà¦ıà¦Ĺà§°": 9098,
      "à¬ªà¬£": 9099,
      "à¨¼à©Ī": 9100,
      "àŃŁà¬¸": 9101,
      "ĠÙģÙĪÙĨ": 9102,
      "Ġjour": 9103,
      "ĠØŃÛĮ": 9104,
      "à¤°à¤¤à¤¨": 9105,
      "à²®à²Ĺ": 9106,
      "Ø±ÙĬÙĦ": 9107,
      "Ġà¦¤à¦°": 9108,
      "Ġà®¤à®±": 9109,
      "ê¯¢ê¯Ĵ": 9110,
      "Ġá±µá±Łá±Ń": 9111,
      "Ġbehind": 9112,
      "Ġà¨ħà¨ķà¨¸": 9113,
      "á±Łá±¹á±´": 9114,
      "Ġà¤ıà¤ķà¤¦": 9115,
      "ĠBr": 9116,
      "ĠÙĤØ§Ø¨ÙĦ": 9117,
      "Ø®Ø§ÙĨ": 9118,
      "Ġà²ªà²ķ": 9119,
      "Ġà²ħà²¡": 9120,
      "Ġà²ħà²¦à²°": 9121,
      "ĠØ²ÙĨ": 9122,
      "à¨ªà¨ı": 9123,
      "Ġwithin": 9124,
      "Ġàª°àªľ": 9125,
      "ĠCovid": 9126,
      "ĠLet": 9127,
      "ĠØ§ÛĮÙĦ": 9128,
      "Ġà´ħà´ķ": 9129,
      "Ġà´ħà´¸": 9130,
      "ÙĦÙħØ§ÙĨ": 9131,
      "àª§àª°": 9132,
      "Ġàª¬àª¦": 9133,
      "à¤ħà¤ª": 9134,
      "Ġplac": 9135,
      "Ġà¦Ńà¦¯": 9136,
      "Ø¸ÛĮ": 9137,
      "ĠJim": 9138,
      "Ø§Ø²Øª": 9139,
      "à¬ľà¬§": 9140,
      "Ġà°Ĩà°§": 9141,
      "ØªÛĮØ§Ø±": 9142,
      "ĠàŃ§àŃ©": 9143,
      "ĠàŃ§àŃ®": 9144,
      "à¨§à¨°": 9145,
      "ĠÚıÙĨ": 9146,
      "Ġà®īà®Ł": 9147,
      "á±Łá±Ŀá±ľ": 9148,
      "Ġà®Ĩà®®": 9149,
      "Ġà®Ĩà®¯": 9150,
      "Ġà´Ĩà´£": 9151,
      "à¤ĵà¤²": 9152,
      "Ġà¦ĸà¦¨": 9153,
      "ĠÙ»ÙĪÙĦÙĬ": 9154,
      "à§°à¦¤à§°": 9155,
      "á±ľá±Łá±²": 9156,
      "ĠGandhi": 9157,
      "à¥§à¥§": 9158,
      "Ġà¨ļà¨²": 9159,
      "ĠÙħØ¹ÛĮ": 9160,
      "ĠÙħØ¹Ø§ÙħÙĦ": 9161,
      "Ø¯ÛĮØ«": 9162,
      "osed": 9163,
      "ÛĮÙĪÙ¹Ø§": 9164,
      "ngew": 9165,
      "Ġprince": 9166,
      "ØªÙĬØ§Ø±": 9167,
      "Ġwouldn": 9168,
      "Ġàªīàª¦": 9169,
      "oby": 9170,
      "á±¤á±¡á±½": 9171,
      "ĠÙĪÛģØ§Úº": 9172,
      "Ġord": 9173,
      "Ġpynk": 9174,
      "Ġproble": 9175,
      "ĠØ³ÙĪØ§ÙĦ": 9176,
      "ĠØ³Ø±ØŃØ¯": 9177,
      "Ġà²īà²³": 9178,
      "Ġà´īà´ªà´¯": 9179,
      "Ġà¥¨à¥¦à¥Ń": 9180,
      "ĠØ¬Ø³Ù¹Ø³": 9181,
      "Ġà«§": 9182,
      "Ġà«©": 9183,
      "ÚĢØ±": 9184,
      "Ġperfect": 9185,
      "ÙĬÙ½Ø±": 9186,
      "ĠØ§Ø¨ÙĪ": 9187,
      "ĠÙĨÙĪØ¬ÙĪØ§ÙĨ": 9188,
      "ĠÙ¾Ø§Ø±ÙĦÛĮ": 9189,
      "ĠØ·Ø±ÙģØ§ÙĨ": 9190,
      "Ġá±¢á±©á±«á±½": 9191,
[...]
