{
  "version": "1.0",
  "truncation": null,
  "padding": null,
  "added_tokens": [
    {
      "id": 0,
      "content": "<PAD>",
      "single_word": false,
      "lstrip": false,
      "rstrip": false,
      "normalized": false,
      "special": true
    },
    {
      "id": 1,
      "content": "<UNK>",
      "single_word": false,
      "lstrip": false,
      "rstrip": false,
      "normalized": false,
      "special": true
    },
    {
      "id": 2,
      "content": "<BOS>",
      "single_word": false,
      "lstrip": false,
      "rstrip": false,
      "normalized": false,
      "special": true
    },
    {
      "id": 3,
      "content": "<EOS>",
      "single_word": false,
      "lstrip": false,
      "rstrip": false,
      "normalized": false,
      "special": true
    },
    {
      "id": 4,
      "content": "<DOC>",
      "single_word": false,
      "lstrip": false,
      "rstrip": false,
      "normalized": false,
      "special": true
    },
    {
      "id": 5,
      "content": "<SYSTEM>",
      "single_word": false,
      "lstrip": false,
      "rstrip": false,
      "normalized": false,
      "special": true
    },
    {
      "id": 6,
      "content": "<USER>",
      "single_word": false,
      "lstrip": false,
      "rstrip": false,
      "normalized": false,
      "special": true
    },
    {
      "id": 7,
      "content": "<ASSISTANT>",
      "single_word": false,
      "lstrip": false,
      "rstrip": false,
      "normalized": false,
      "special": true
    },
    {
      "id": 8,
      "content": "<TOOL>",
      "single_word": false,
      "lstrip": false,
      "rstrip": false,
      "normalized": false,
      "special": true
    },
    {
      "id": 9,
      "content": "<CONTEXT>",
      "single_word": false,
      "lstrip": false,
      "rstrip": false,
      "normalized": false,
      "special": true
    },
    {
      "id": 10,
      "content": "<MEMORY>",
      "single_word": false,
      "lstrip": false,
      "rstrip": false,
      "normalized": false,
      "special": true
    }
  ],
  "normalizer": {
    "type": "NFKC"
  },
  "pre_tokenizer": {
    "type": "ByteLevel",
    "add_prefix_space": false,
    "trim_offsets": true,
    "use_regex": true
  },
  "post_processor": null,
  "decoder": {
    "type": "ByteLevel",
    "add_prefix_space": true,
    "trim_offsets": true,
    "use_regex": true
  },
  "model": {
    "type": "BPE",
    "dropout": null,
    "unk_token": "<UNK>",
    "continuing_subword_prefix": null,
    "end_of_word_suffix": null,
    "fuse_unk": false,
    "byte_fallback": false,
    "ignore_merges": false,
    "vocab": {
      "<PAD>": 0,
      "<UNK>": 1,
      "<BOS>": 2,
      "<EOS>": 3,
      "<DOC>": 4,
      "<SYSTEM>": 5,
      "<USER>": 6,
      "<ASSISTANT>": 7,
      "<TOOL>": 8,
      "<CONTEXT>": 9,
      "<MEMORY>": 10,
      "!": 11,
      "\"": 12,
      "#": 13,
      "$": 14,
      "%": 15,
      "&": 16,
      "'": 17,
      "(": 18,
      ")": 19,
      "*": 20,
      "+": 21,
      ",": 22,
      "-": 23,
      ".": 24,
      "/": 25,
      "0": 26,
      "1": 27,
      "2": 28,
      "3": 29,
      "4": 30,
      "5": 31,
      "6": 32,
      "7": 33,
      "8": 34,
      "9": 35,
      ":": 36,
      ";": 37,
      "<": 38,
      "=": 39,
      ">": 40,
      "?": 41,
      "@": 42,
      "A": 43,
      "B": 44,
      "C": 45,
      "D": 46,
      "E": 47,
      "F": 48,
      "G": 49,
      "H": 50,
      "I": 51,
      "J": 52,
      "K": 53,
      "L": 54,
      "M": 55,
      "N": 56,
      "O": 57,
      "P": 58,
      "Q": 59,
      "R": 60,
      "S": 61,
      "T": 62,
      "U": 63,
      "V": 64,
      "W": 65,
      "X": 66,
      "Y": 67,
      "Z": 68,
      "[": 69,
      "\\": 70,
      "]": 71,
      "^": 72,
      "_": 73,
      "`": 74,
      "a": 75,
      "b": 76,
      "c": 77,
      "d": 78,
      "e": 79,
      "f": 80,
      "g": 81,
      "h": 82,
      "i": 83,
      "j": 84,
      "k": 85,
      "l": 86,
      "m": 87,
      "n": 88,
      "o": 89,
      "p": 90,
      "q": 91,
      "r": 92,
      "s": 93,
      "t": 94,
      "u": 95,
      "v": 96,
      "w": 97,
      "x": 98,
      "y": 99,
      "z": 100,
      "{": 101,
      "|": 102,
      "}": 103,
      "~": 104,
      "¡": 105,
      "¢": 106,
      "£": 107,
      "¤": 108,
      "¥": 109,
      "¦": 110,
      "§": 111,
      "¨": 112,
      "©": 113,
      "ª": 114,
      "«": 115,
      "¬": 116,
      "®": 117,
      "¯": 118,
      "°": 119,
      "±": 120,
      "²": 121,
      "³": 122,
      "´": 123,
      "µ": 124,
      "¶": 125,
      "·": 126,
      "¸": 127,
      "¹": 128,
      "º": 129,
      "»": 130,
      "¼": 131,
      "½": 132,
      "¾": 133,
      "¿": 134,
      "Â": 135,
      "Ã": 136,
      "Ä": 137,
      "Å": 138,
      "Æ": 139,
      "Ç": 140,
      "È": 141,
      "É": 142,
      "Ê": 143,
      "Ë": 144,
      "Ì": 145,
      "Í": 146,
      "Î": 147,
      "Ï": 148,
      "Ð": 149,
      "Ñ": 150,
      "Ò": 151,
      "Ó": 152,
      "Ô": 153,
      "Õ": 154,
      "Ö": 155,
      "×": 156,
      "Ø": 157,
      "Ù": 158,
      "Ú": 159,
      "Û": 160,
      "Ü": 161,
      "Ý": 162,
      "Þ": 163,
      "ß": 164,
      "à": 165,
      "á": 166,
      "â": 167,
      "ã": 168,
      "ä": 169,
      "å": 170,
      "æ": 171,
      "ç": 172,
      "è": 173,
      "é": 174,
      "ê": 175,
      "ë": 176,
      "ì": 177,
      "í": 178,
      "î": 179,
      "ï": 180,
      "ð": 181,
      "ñ": 182,
      "ā": 183,
      "Ă": 184,
      "ă": 185,
      "Ĉ": 186,
      "ĉ": 187,
      "Ċ": 188,
      "Č": 189,
      "Đ": 190,
      "Ē": 191,
      "ę": 192,
      "ě": 193,
      "Ġ": 194,
      "ġ": 195,
      "Ģ": 196,
      "ģ": 197,
      "Ĥ": 198,
      "ĥ": 199,
      "Ħ": 200,
      "ħ": 201,
      "Ĩ": 202,
      "ĩ": 203,
      "Ī": 204,
      "ī": 205,
      "Ĭ": 206,
      "ĭ": 207,
      "Į": 208,
      "į": 209,
      "İ": 210,
      "ı": 211,
      "Ĳ": 212,
      "ĳ": 213,
      "Ĵ": 214,
      "ĵ": 215,
      "Ķ": 216,
      "ķ": 217,
      "ĸ": 218,
      "Ĺ": 219,
      "ĺ": 220,
      "Ļ": 221,
      "ļ": 222,
      "Ľ": 223,
      "ľ": 224,
      "Ŀ": 225,
      "ŀ": 226,
      "Ł": 227,
      "ł": 228,
      "Ń": 229,
      "ĠĠ": 230,
      "à¤": 231,
      "ĠĠĠĠ": 232,
      "Ġt": 233,
      "in": 234,
      "à¥": 235,
      "er": 236,
      "Ġa": 237,
      "on": 238,
      "à¦": 239,
      "Ġà¤": 240,
      "he": 241,
      "re": 242,
      "at": 243,
      "Ġà": 244,
      "or": 245,
      "Ġs": 246,
      "á±": 247,
      "en": 248,
      "ê¯": 249,
      "es": 250,
      "Ġthe": 251,
      "Ġc": 252,
      "ĠĠĠ": 253,
      "à¤¾": 254,
      "it": 255,
      "an": 256,
      "is": 257,
      "al": 258,
      "le": 259,
      "ĠĠĠĠĠĠĠĠ": 260,
      "Ġf": 261,
      "ion": 262,
      "Ġo": 263,
      "ar": 264,
      "Ġp": 265,
      "Ġw": 266,
      "à²": 267,
      "à°": 268,
      "ing": 269,
      "à´": 270,
      "ou": 271,
      "à®": 272,
      "ed": 273,
      "Ġb": 274,
      "àª": 275,
      "à¬": 276,
      "nd": 277,
      "ic": 278,
      "à¨": 279,
      "à¥į": 280,
      "Ġm": 281,
      "Ġin": 282,
      "Ġd": 283,
      "as": 284,
      "à§": 285,
      "ĠØ": 286,
      "ct": 287,
      "Ġof": 288,
      "ro": 289,
      "et": 290,
      "à¤°": 291,
      "Ġto": 292,
      "ent": 293,
      "st": 294,
      "Ġand": 295,
      "à¥ĩ": 296,
      "el": 297,
      "--": 298,
      "Ġn": 299,
      "Ġh": 300,
      "Ġà¦": 301,
      "à¤¿": 302,
      "Ġth": 303,
      "Ø§": 304,
      "Ġre": 305,
      "om": 306,
      "il": 307,
      "ĠĠĠĠĠĠĠ": 308,
      "à¤¨": 309,
      "am": 310,
      "Ġl": 311,
      "à¯": 312,
      "id": 313,
      "Ġe": 314,
      "àµ": 315,
      "ut": 316,
      "ÙĨ": 317,
      "im": 318,
      "Ġ=": 319,
      "Ġ(": 320,
      "ol": 321,
      "ce": 322,
      "se": 323,
      "ation": 324,
      "àŃ": 325,
      "ur": 326,
      "ig": 327,
      "à±": 328,
      "à¤¤": 329,
      "âĢ": 330,
      "ad": 331,
      "Ġ{": 332,
      "à³": 333,
      "ĠT": 334,
      "ot": 335,
      "ÙĪ": 336,
      "if": 337,
      "ch": 338,
      "à¥Ģ": 339,
      "Ġà¨": 340,
      ");": 341,
      "tr": 342,
      "à«": 343,
      "ag": 344,
      "à¤¯": 345,
      "Ġis": 346,
      "Ø±": 347,
      "ul": 348,
      "iv": 349,
      "Ġg": 350,
      "ÛĮ": 351,
      "Ġ\"": 352,
      "ĉĉ": 353,
      "Ġu": 354,
      "ĠS": 355,
      "à©": 356,
      "od": 357,
      "Ġá±": 358,
      "Ġ1": 359,
      "à¥ĭ": 360,
      "//": 361,
      "OS": 362,
      "ow": 363,
      "à¤ķ": 364,
      "à¤²": 365,
      "OC": 366,
      "ĠÙ": 367,
      "ĠÚ": 368,
      "DOC": 369,
      "Ġàª": 370,
      "EOS": 371,
      "ĠA": 372,
      "à¤Ĥ": 373,
      "Ġv": 374,
      "ĠI": 375,
      "à¦¾": 376,
      "00": 377,
      "ĠC": 378,
      "Ġ<": 379,
      "Ġê¯": 380,
      "ay": 381,
      "ÙĬ": 382,
      "pe": 383,
      "Ġfor": 384,
      "ate": 385,
      "th": 386,
      "à¯į": 387,
      "àµį": 388,
      "ter": 389,
      "ab": 390,
      "Ġ*": 391,
      "ac": 392,
      "um": 393,
      "ly": 394,
      "à¤¸": 395,
      "à¤®": 396,
      "em": 397,
      "Ġcon": 398,
      "Ġbe": 399,
      "un": 400,
      "oc": 401,
      "ess": 402,
      "ir": 403,
      "**": 404,
      "est": 405,
      "Ġà¤ķ": 406,
      "ers": 407,
      "----": 408,
      "Ġst": 409,
      "Ġy": 410,
      "ap": 411,
      "Ġon": 412,
      "qu": 413,
      "ith": 414,
      "our": 415,
      "Ġà°": 416,
      "Ġà¬": 417,
      "á±Ł": 418,
      "ĠĠĠĠĠĠĠĠĠĠĠ": 419,
      "ex": 420,
      "à¤µ": 421,
      "op": 422,
      "Ġà²": 423,
      "Ġ2": 424,
      "==": 425,
      "ver": 426,
      "=\"": 427,
      "Ûģ": 428,
      "Ġthat": 429,
      "Ġ'": 430,
      "av": 431,
      "ht": 432,
      "Ġ-": 433,
      "Ġas": 434,
      "à¥ģ": 435,
      "Ġà¤¸": 436,
      "age": 437,
      "..": 438,
      "à§ĩ": 439,
      "à§į": 440,
      "à¤¹": 441,
      "res": 442,
      "us": 443,
      "Ġ0": 444,
      "Ġ}": 445,
      "Ġà®": 446,
      "ame": 447,
      "()": 448,
      "ê¯¤": 449,
      "ĠP": 450,
      "à¦¿": 451,
      "pl": 452,
      "Ġan": 453,
      "ist": 454,
      "ĠM": 455,
      "ction": 456,
      "Ġr": 457,
      "Ġex": 458,
      "Ġpro": 459,
      "Ġit": 460,
      "ÙĦ": 461,
      "Ġk": 462,
      "ort": 463,
      "</": 464,
      "ass": 465,
      "Ġwith": 466,
      "àª¾": 467,
      "pt": 468,
      "Ġà´": 469,
      "à¤¦": 470,
      "Ġor": 471,
      "ĠN": 472,
      "Ġwh": 473,
      "ain": 474,
      "os": 475,
      "ew": 476,
      "ĠĠĠĠĠĠĠĠĠĠĠĠĠĠĠĠ": 477,
      "à¥¤": 478,
      "ef": 479,
      "Ġal": 480,
      "á±Łá±": 481,
      "and": 482,
      "ue": 483,
      "Ùħ": 484,
      "ub": 485,
      "ĠØ§": 486,
      "##": 487,
      "ĠÚ©": 488,
      "à³į": 489,
      "ore": 490,
      "ment": 491,
      "ĠB": 492,
      "ine": 493,
      "à±į": 494,
      "ĠD": 495,
      "ect": 496,
      "Ġare": 497,
      "ĠR": 498,
      "Ùİ": 499,
      "rom": 500,
      "ans": 501,
      "Ġà¤®": 502,
      "ĠThe": 503,
      "Ø³": 504,
      "ĠF": 505,
      "Øª": 506,
      "iz": 507,
      "Ġà¤ª": 508,
      "Ġcom": 509,
      "ĠE": 510,
      "nt": 511,
      "og": 512,
      "end": 513,
      "::": 514,
      "ity": 515,
      "ib": 516,
      "con": 517,
      "ight": 518,
      "Ġtr": 519,
      "à¤ª": 520,
      "Ú¾": 521,
      "urn": 522,
      "ĠL": 523,
      "ere": 524,
      "àŃį": 525,
      "cl": 526,
      "à§°": 527,
      "à¬¾": 528,
      "able": 529,
      "ak": 530,
      "Ġthis": 531,
      "à²¿": 532,
      "à¨¾": 533,
      "ĠW": 534,
      "ill": 535,
      "ies": 536,
      "à¦°": 537,
      "',": 538,
      "ĠH": 539,
      "ive": 540,
      "à¬°": 541,
      "port": 542,
      "ack": 543,
      "ult": 544,
      "ant": 545,
      "art": 546,
      "Ø¯": 547,
      "à¤Ĺ": 548,
      "ĠÙħ": 549,
      "Ġhe": 550,
      "à¦¨": 551,
      "ud": 552,
      "Ġcl": 553,
      "ile": 554,
      "ld": 555,
      "ĠĠĠĠĠ": 556,
      "int": 557,
      "Ġle": 558,
      "rou": 559,
      "ial": 560,
      "ĠO": 561,
      "ure": 562,
      "à´¿": 563,
      "Ġif": 564,
      "Ġby": 565,
      "á±ļ": 566,
      "à°¿": 567,
      "à¤ļ": 568,
      "ang": 569,
      "à¥Ī": 570,
      "Ġde": 571,
      "Ġch": 572,
      "Ġyou": 573,
      "turn": 574,
      "per": 575,
      "all": 576,
      "ype": 577,
      "ÛĴ": 578,
      "à¯ģ": 579,
      "act": 580,
      "à®¿": 581,
      "âĢĻ": 582,
      "ext": 583,
      "Ġà¤¹": 584,
      "Ġ$": 585,
      "Ġà¤¬": 586,
      "à¦¤": 587,
      "à°¾": 588,
      "--------": 589,
      "elf": 590,
      "orm": 591,
      "Ġat": 592,
      "str": 593,
      "Ġnot": 594,
      "Ġse": 595,
      "ind": 596,
      "ff": 597,
      "ÙĲ": 598,
      "à¤ľ": 599,
      "),": 600,
      "\",": 601,
      "à«ĩ": 602,
      "Ġcan": 603,
      "out": 604,
      "Ġfrom": 605,
      "ser": 606,
      "à®ķ": 607,
      "Ġsh": 608,
      "get": 609,
      "ri": 610,
      "à¬¿": 611,
      "á±®": 612,
      "ave": 613,
      "Ġwas": 614,
      "are": 615,
      "ĠG": 616,
      "Ġ[": 617,
      "ode": 618,
      "ase": 619,
      "à±ģ": 620,
      "ê¯¥": 621,
      "Ġà¤¦": 622,
      "****": 623,
      "Ġint": 624,
      "Ú©": 625,
      "à®¤": 626,
      "Ġà¤ľ": 627,
      "Ġà¤Ĩ": 628,
      "ip": 629,
      "Ġà¤¨": 630,
      "à¦¯": 631,
      "àª°": 632,
      "Ġ.": 633,
      "====": 634,
      "à²°": 635,
      "Ø§ÙĨ": 636,
      "à¤¬": 637,
      "\">": 638,
      "ord": 639,
      "ER": 640,
      "ource": 641,
      "Ġwe": 642,
      "à¦ķ": 643,
      "ost": 644,
      "Ġ//": 645,
      "Ġà¤ħ": 646,
      "à¤Ł": 647,
      "ata": 648,
      "ath": 649,
      "ition": 650,
      "á±ļá±": 651,
      "one": 652,
      "com": 653,
      "ime": 654,
      "à¤£": 655,
      "err": 656,
      "Ġà¤¤": 657,
      "Ġ3": 658,
      "Ġ&": 659,
      "à¨°": 660,
      "à´¨": 661,
      "ok": 662,
      "ĠØ¬": 663,
      "à²¾": 664,
      "Ġim": 665,
      "ĠĠĠĠĠĠĠĠĠĠĠĠĠĠĠ": 666,
      "sp": 667,
      "à°°": 668,
      "ĠâĢ": 669,
      "ace": 670,
      "à³ģ": 671,
      "ical": 672,
      "à°¨": 673,
      "ple": 674,
      "Ùĩ": 675,
      "ve": 676,
      "ust": 677,
      "ign": 678,
      "ĠU": 679,
      "Ġj": 680,
      "ice": 681,
      "Ġus": 682,
      "à¦²": 683,
      "dd": 684,
      "ĠØ³": 685,
      "loc": 686,
      "IN": 687,
      "ould": 688,
      "à©Ģ": 689,
      "ide": 690,
      "essage": 691,
      "Ġ#": 692,
      "àµģ": 693,
      "à¥Ĥ": 694,
      "Ġà¤µ": 695,
      "Ġ+": 696,
      "Ġsu": 697,
      "Ø§Ø": 698,
      "á±¤": 699,
      "Ġen": 700,
      "ast": 701,
      ").": 702,
      "à²¦": 703,
      "ard": 704,
      "à°Ĥ": 705,
      "01": 706,
      "Ġhave": 707,
      "ork": 708,
      "à´ķ": 709,
      "àª¨": 710,
      "(\"": 711,
      "Ġà¤Ĺ": 712,
      "ated": 713,
      "ize": 714,
      "à«į": 715,
      "Ġdis": 716,
      "ĠØª": 717,
      "à«Ģ": 718,
      "cc": 719,
      "ĥê¯": 720,
      "ong": 721,
      "ress": 722,
      "alue": 723,
      "ire": 724,
      "ep": 725,
      "form": 726,
      "ions": 727,
      "ject": 728,
      "Ġ:": 729,
      "à¤¶": 730,
      "à¤¾à¤Ĥ": 731,
      "Ġcont": 732,
      "Ġclass": 733,
      "Ġstr": 734,
      "In": 735,
      "ont": 736,
      "put": 737,
      "lo": 738,
      "Ġab": 739,
      "ary": 740,
      "ĠTh": 741,
      "à¨¿": 742,
      "Ġpl": 743,
      "à´¤": 744,
      "li": 745,
      "ĠV": 746,
      "Ġreturn": 747,
      "à¤¡": 748,
      "ON": 749,
      "à©ĩ": 750,
      "à´¾": 751,
      "á±®á±": 752,
      "pro": 753,
      "Ġà¤°": 754,
      "à°²": 755,
      "à¦¼": 756,
      "hen": 757,
      "ey": 758,
      "à®°": 759,
      "ations": 760,
      "ec": 761,
      "ell": 762,
      "ich": 763,
      "ite": 764,
      "px": 765,
      "à³Ĩ": 766,
      "source": 767,
      "ber": 768,
      "ance": 769,
      "ild": 770,
      "ia": 771,
      "à¤¥": 772,
      "unction": 773,
      "à®Ł": 774,
      "ĠÙ¾": 775,
      "du": 776,
      "ents": 777,
      "Ġall": 778,
      "000": 779,
      "Ġyour": 780,
      "ence": 781,
      "ach": 782,
      "ome": 783,
      "à®¾": 784,
      "Ġwill": 785,
      "ens": 786,
      "Ġ\\": 787,
      "trans": 788,
      "àŃĩ": 789,
      "à¤ĸ": 790,
      "à¦¬": 791,
      "__": 792,
      "ther": 793,
      "à¤§": 794,
      "ory": 795,
      "message": 796,
      "Ġ/": 797,
      "ĠJ": 798,
      "à¤·": 799,
      "à§ģ": 800,
      "ge": 801,
      "Ġdo": 802,
      "Ġ`": 803,
      "ê¯¡": 804,
      "Ġun": 805,
      "ES": 806,
      "ĠØ¨": 807,
      "Ġ|": 808,
      "ft": 809,
      "rr": 810,
      "Ġà¤²": 811,
      "à¦®": 812,
      "ĉĉĉĉ": 813,
      "Ø¨": 814,
      "ĠIn": 815,
      "Ġê¯ĳ": 816,
      "ail": 817,
      "set": 818,
      "à²²": 819,
      "à´°": 820,
      "eg": 821,
      "Ġap": 822,
      "à´¯": 823,
      "Ġ4": 824,
      "AR": 825,
      "ev": 826,
      "ear": 827,
      "ĠK": 828,
      "Ġself": 829,
      "ĠÚĨ": 830,
      "ous": 831,
      "á±¤á±": 832,
      "name": 833,
      "Ø§Ø±": 834,
      "Ġ*/": 835,
      "The": 836,
      "Ġpr": 837,
      "ual": 838,
      "####": 839,
      "();": 840,
      "fer": 841,
      "bo": 842,
      "'s": 843,
      "AT": 844,
      "à²¨": 845,
      "row": 846,
      "Ġres": 847,
      "lic": 848,
      "ake": 849,
      "Ġsc": 850,
      "ik": 851,
      "àŃģ": 852,
      "we": 853,
      "Ġ5": 854,
      "te": 855,
      "sh": 856,
      "Ùı": 857,
      "->": 858,
      "ĠÙĪ": 859,
      "lation": 860,
      "à²¤": 861,
      "Ġwhich": 862,
      "à«ĭ": 863,
      "Ġnew": 864,
      "Ġso": 865,
      "St": 866,
      "Ġà¦ķ": 867,
      "Ġout": 868,
      "à¬¨": 869,
      "olor": 870,
      "ĠÛģ": 871,
      "))": 872,
      "('": 873,
      "Ġhas": 874,
      "so": 875,
      "Ġ</": 876,
      "à²Ĺ": 877,
      "Ġ@": 878,
      "lect": 879,
      "Ġerr": 880,
      "Ġup": 881,
      "Ġtheir": 882,
      "own": 883,
      "Ġthey": 884,
      "à®®": 885,
      "ount": 886,
      "nder": 887,
      "Ùķ": 888,
      "pr": 889,
      "Ġ>": 890,
      "Ġme": 891,
      "gh": 892,
      "../": 893,
      "up": 894,
      "à®²": 895,
      "ound": 896,
      "Ġ!": 897,
      "aw": 898,
      "par": 899,
      "Ġper": 900,
      "ê¯¨": 901,
      "àªĤ": 902,
      "her": 903,
      "à´Ł": 904,
      "ll": 905,
      "Ø²": 906,
      "à®©": 907,
      "round": 908,
      "UL": 909,
      "Ġê¯ĳê¯": 910,
      "EN": 911,
      "sc": 912,
      "ck": 913,
      "à°ķ": 914,
      "over": 915,
      "ull": 916,
      "arg": 917,
      "ID": 918,
      "Ġbut": 919,
      "ov": 920,
      "à®ª": 921,
      "Ġdef": 922,
      "Ġà¤Ń": 923,
      "ose": 924,
      "à§ĭ": 925,
      "translation": 926,
      "Ġvar": 927,
      "ree": 928,
      "à¬¬": 929,
      "Úº": 930,
      "eld": 931,
      "Ġqu": 932,
      "----------------": 933,
      "eth": 934,
      "Ġpre": 935,
      "clud": 936,
      "Ġmore": 937,
      "Ġne": 938,
      "Ġar": 939,
      "Ġà¦ª": 940,
      "Ġà¦¬": 941,
      "ĠÙĨ": 942,
      "pec": 943,
      "Ġê¯ĥê¯": 944,
      "iew": 945,
      "Ġà¦¸": 946,
      "ink": 947,
      "Ġline": 948,
      "low": 949,
      "ÛĶ": 950,
      "âĢį": 951,
      "pect": 952,
      "********": 953,
      "Ġone": 954,
      "self": 955,
      "ors": 956,
      "add": 957,
      "ption": 958,
      "ĠØ¢": 959,
      "RE": 960,
      "to": 961,
      "Ġnum": 962,
      "bject": 963,
      "à¥ĩà¤Ĥ": 964,
      "ms": 965,
      "Ġbo": 966,
      "use": 967,
      "ater": 968,
      "ield": 969,
      "Ġi": 970,
      "àª®": 971,
      "LE": 972,
      "return": 973,
      "cho": 974,
      "âĢĿ": 975,
      "========": 976,
      "ange": 977,
      "ry": 978,
      "Ġman": 979,
      "led": 980,
      "Ġtime": 981,
      "Ġadd": 982,
      "Ġsy": 983,
      "cre": 984,
      "ings": 985,
      "AL": 986,
      "ax": 987,
      "à¤Ń": 988,
      "ert": 989,
      "Ġget": 990,
      "à²µ": 991,
      "enc": 992,
      "ient": 993,
      "Ġev": 994,
      "div": 995,
      "ml": 996,
      "ug": 997,
      "Ġfunction": 998,
      "à¥Ĵ": 999,
      "oid": 1000,
      "ê¯ħ": 1001,
      "ery": 1002,
      "Ġinter": 1003,
      "Ġuse": 1004,
      "à°¤": 1005,
      "à¤ı": 1006,
      "à¨Ĥ": 1007,
      "tring": 1008,
      "...": 1009,
      "ublic": 1010,
      "àªµ": 1011,
      "Ġinto": 1012,
      "ÙĪØ±": 1013,
      "Ġà¥¤": 1014,
      "à²ķ": 1015,
      "tp": 1016,
      "Ġset": 1017,
      "à´²": 1018,
      "à§Ģ": 1019,
      "à²Ĥ": 1020,
      "${": 1021,
      "à¯Ī": 1022,
      "ĠÚĨÚ¾": 1023,
      "Ġwork": 1024,
      "roup": 1025,
      "ener": 1026,
      "àª¤": 1027,
      "ty": 1028,
      "à®³": 1029,
      "à²¯": 1030,
      "Ġunder": 1031,
      "ĠÛ": 1032,
      "Ġother": 1033,
      "ĉĉĉ": 1034,
      "Ġà¤ļ": 1035,
      "ely": 1036,
      "hed": 1037,
      "àµĨ": 1038,
      "à¦¸": 1039,
      "à¨¸": 1040,
      "vel": 1041,
      "Ġthen": 1042,
      "ê¯ķ": 1043,
      "ST": 1044,
      "lock": 1045,
      "ĠĠĠĠĠĠĠĠĠĠĠĠĠĠĠĠĠĠĠ": 1046,
      "Ġ6": 1047,
      "ÙĽ": 1048,
      "cont": 1049,
      "Ġ--": 1050,
      "à¨¨": 1051,
      "uct": 1052,
      "à¨¤": 1053,
      "ĠThis": 1054,
      "à¨²": 1055,
      "\")": 1056,
      "Ġsp": 1057,
      "les": 1058,
      "10": 1059,
      "Ġro": 1060,
      "Ú¯": 1061,
      "ood": 1062,
      "ific": 1063,
      "Ġdata": 1064,
      "irst": 1065,
      "oint": 1066,
      "Ġ==": 1067,
      "IT": 1068,
      "Ġpart": 1069,
      "ÙĤ": 1070,
      "trib": 1071,
      "import": 1072,
      "app": 1073,
      "ref": 1074,
      "ays": 1075,
      "à¬¤": 1076,
      "à®¯": 1077,
      "pon": 1078,
      "gr": 1079,
      "ates": 1080,
      "Ġà¤ī": 1081,
      "Ġwhen": 1082,
      "pos": 1083,
      "\"/": 1084,
      "Ġtrans": 1085,
      "fig": 1086,
      "Ġlet": 1087,
      "Ġá±ł": 1088,
      "à®±": 1089,
      "à¦Ł": 1090,
      "sert": 1091,
      "Ġà¤ķà¤°": 1092,
      "Ø´": 1093,
      "ics": 1094,
      "à´Ĥ": 1095,
      "OR": 1096,
      "Ø¬": 1097,
      "rit": 1098,
      "Ġà¤¯": 1099,
      "ne": 1100,
      "ØĮ": 1101,
      "Ġabout": 1102,
      "à±ĭ": 1103,
      "Ġalso": 1104,
      "Ġà¨¸": 1105,
      "Ġcomm": 1106,
      "Ø¹": 1107,
      "ê¯£": 1108,
      "20": 1109,
      "fo": 1110,
      "Ġ:=": 1111,
      "stem": 1112,
      "Ex": 1113,
      "Ġtype": 1114,
      "à°¦": 1115,
      "ick": 1116,
      "Ġmay": 1117,
      "âĢĮ": 1118,
      "\"/>": 1119,
      "ĠY": 1120,
      "ix": 1121,
      "à¦¦": 1122,
      "à¤Ī": 1123,
      "Úª": 1124,
      "ĠSt": 1125,
      "Ġ_": 1126,
      "Ġ19": 1127,
      "ock": 1128,
      "àª¯": 1129,
      "à©°": 1130,
      "def": 1131,
      "Ġthere": 1132,
      "àª¿": 1133,
      "Ġ=>": 1134,
      "á±©": 1135,
      "Ùģ": 1136,
      "ss": 1137,
      "Ġà¨¦": 1138,
      "ĠÚª": 1139,
      "Name": 1140,
      "à±ĩ": 1141,
      "ating": 1142,
      "read": 1143,
      "Ġcre": 1144,
      "type": 1145,
      "atch": 1146,
      "):": 1147,
      "à¬ķ": 1148,
      "Ġtest": 1149,
      "àªķ": 1150,
      "ĠÛĮ": 1151,
      "ense": 1152,
      "à°Ł": 1153,
      "tribut": 1154,
      "ys": 1155,
      "Ġlik": 1156,
      "ĠIt": 1157,
      "Ġsa": 1158,
      "ues": 1159,
      "Ġback": 1160,
      "ph": 1161,
      "Ġà¨ķ": 1162,
      "ning": 1163,
      "erv": 1164,
      "à®µ": 1165,
      "ied": 1166,
      "old": 1167,
      "CT": 1168,
      "ict": 1169,
      "SE": 1170,
      "inal": 1171,
      "span": 1172,
      "Con": 1173,
      "Ġval": 1174,
      "ator": 1175,
      "àµįâĢį": 1176,
      "Ġvalue": 1177,
      "alse": 1178,
      "eng": 1179,
      "ark": 1180,
      "Ġover": 1181,
      "à°¯": 1182,
      "esc": 1183,
      "ish": 1184,
      "Ġconst": 1185,
      "ĠØ±": 1186,
      "ULL": 1187,
      "Ġ10": 1188,
      "Ġpos": 1189,
      "Ġany": 1190,
      "ê¯Ĵ": 1191,
      "Ġad": 1192,
      "Ġel": 1193,
      "ng": 1194,
      "Ġà¤ı": 1195,
      "àŃ¦": 1196,
      "Ġdif": 1197,
      "12": 1198,
      "Re": 1199,
      "ĠâĢľ": 1200,
      "io": 1201,
      "////": 1202,
      "à¨ķ": 1203,
      "à¦ª": 1204,
      "ble": 1205,
      "val": 1206,
      "à©±": 1207,
      "test": 1208,
      "ê¯¦": 1209,
      "rap": 1210,
      "line": 1211,
      "Ġlo": 1212,
      "ĠĠĠĠĠĠĠĠĠ": 1213,
      "à¤«": 1214,
      "Ġwere": 1215,
      "ra": 1216,
      "Ġmod": 1217,
      "Ø§ÙĦ": 1218,
      "Ġ201": 1219,
      "Ġhow": 1220,
      "tern": 1221,
      "heck": 1222,
      "Ġte": 1223,
      "Ġhis": 1224,
      "lement": 1225,
      "lp": 1226,
      "ault": 1227,
      "Ġbet": 1228,
      "cess": 1229,
      "ĠØ¯": 1230,
      "32": 1231,
      "Ġsome": 1232,
      "à¥Į": 1233,
      "ative": 1234,
      "Ġà¤¶": 1235,
      "Ù¹": 1236,
      "ĠØ¬ÙĬ": 1237,
      "Ġstud": 1238,
      "ê¯ģ": 1239,
      "ÙĨØ¯": 1240,
      "Ġx": 1241,
      "Ġkn": 1242,
      "arch": 1243,
      "ÛĮÚº": 1244,
      "OT": 1245,
      "wo": 1246,
      "Ġà¦Ĩ": 1247,
      "ĠCh": 1248,
      "\":": 1249,
      "ê¯Ķ": 1250,
      "Ġspec": 1251,
      "Ġits": 1252,
      "Th": 1253,
      "à¤ģ": 1254,
      "urre": 1255,
      "à²¸": 1256,
      "11": 1257,
      "á±·": 1258,
      "Ġem": 1259,
      "Ġthan": 1260,
      "Ġthem": 1261,
      "erm": 1262,
      "Ġacc": 1263,
      "ise": 1264,
      "Ù²": 1265,
      "Ġag": 1266,
      "à©ĭ": 1267,
      "Ġá±¨": 1268,
      "á±©á±": 1269,
      "ons": 1270,
      "fr": 1271,
      "atic": 1272,
      "ê¯Ł": 1273,
      "à¬²": 1274,
      "ob": 1275,
      "Type": 1276,
      "Ġrequ": 1277,
      "Ġop": 1278,
      "Ġ7": 1279,
      "Ġneed": 1280,
      "ersion": 1281,
      "Ġka": 1282,
      "Ġthese": 1283,
      "à´±": 1284,
      "ê¯Ĥ": 1285,
      "Ġ%": 1286,
      "Ġpe": 1287,
      "anc": 1288,
      "></": 1289,
      "ĠÙĦ": 1290,
      "à°¸": 1291,
      "Ø§Ùħ": 1292,
      "its": 1293,
      "><": 1294,
      "iss": 1295,
      "ION": 1296,
      "oun": 1297,
      "uild": 1298,
      "Ġform": 1299,
      "ê¯©": 1300,
      "plic": 1301,
      "Ġ8": 1302,
      "à¥ĳ": 1303,
      "Res": 1304,
      "Ġàªķ": 1305,
      "location": 1306,
      "Ġwho": 1307,
      "Ù¾": 1308,
      "DE": 1309,
      "igh": 1310,
      "log": 1311,
      "à¥ĭà¤Ĥ": 1312,
      "64": 1313,
      "ethod": 1314,
      "à¦ĩ": 1315,
      "ities": 1316,
      "qual": 1317,
      "à´®": 1318,
      "yn": 1319,
      "right": 1320,
      "Err": 1321,
      "ian": 1322,
      "ove": 1323,
      "order": 1324,
      "fter": 1325,
      "15": 1326,
      "];": 1327,
      "Ġà¥": 1328,
      "olog": 1329,
      "Ġcomp": 1330,
      "ious": 1331,
      "ie": 1332,
      "],": 1333,
      "Ġact": 1334,
      "Ġno": 1335,
      "Ġused": 1336,
      "ause": 1337,
      "à°¡": 1338,
      "unc": 1339,
      "NT": 1340,
      "à¦ľ": 1341,
      "/*": 1342,
      "ĠÚ¯": 1343,
      "://": 1344,
      "ĠNULL": 1345,
      "Ġ!=": 1346,
      "Ġreg": 1347,
      "Ġà¨¹": 1348,
      "clude": 1349,
      "Ġcal": 1350,
      "Cont": 1351,
      "Ġhelp": 1352,
      "Ġcol": 1353,
      "ular": 1354,
      "Ġhad": 1355,
      "Ġ)": 1356,
      "Pro": 1357,
      "à´ª": 1358,
      "ample": 1359,
      "àª²": 1360,
      "à¦Ľ": 1361,
      "à«ģ": 1362,
      "Ġinst": 1363,
      "Ġnumber": 1364,
      "Ġà¤ĸ": 1365,
      "à°ª": 1366,
      "à¨¹": 1367,
      "html": 1368,
      "Ġresult": 1369,
      "ript": 1370,
      "à¦Ĺ": 1371,
      "String": 1372,
      "td": 1373,
      "AS": 1374,
      "Ġlike": 1375,
      "Ġà¤ĩ": 1376,
      "25": 1377,
      "ody": 1378,
      "Ġrel": 1379,
      "cept": 1380,
      "Ġà¨µ": 1381,
      "Ġour": 1382,
      "ground": 1383,
      "Ġwould": 1384,
      "Ø¦": 1385,
      "à²³": 1386,
      "ility": 1387,
      "Ġ20": 1388,
      "../../": 1389,
      "code": 1390,
      "ash": 1391,
      "idth": 1392,
      "ĠØ´": 1393,
      "ade": 1394,
      "Ġwhat": 1395,
      "à¬®": 1396,
      "Ġher": 1397,
      "ê¯Ĺ": 1398,
      "yp": 1399,
      "Ġonly": 1400,
      "Ġdiffer": 1401,
      "ache": 1402,
      "ê¯Ŀ": 1403,
      "back": 1404,
      "Ġpar": 1405,
      "hem": 1406,
      "Ġsub": 1407,
      "Ġam": 1408,
      "Ø§Ø¦": 1409,
      "vent": 1410,
      "ader": 1411,
      "size": 1412,
      "ible": 1413,
      "file": 1414,
      "Ġfile": 1415,
      "33": 1416,
      "RO": 1417,
      "Ġà¦®": 1418,
      "Ġph": 1419,
      "à¨¦": 1420,
      "Ġid": 1421,
      "16": 1422,
      "rough": 1423,
      "19": 1424,
      "Ġtwo": 1425,
      "},": 1426,
      "à²¡": 1427,
      "Ġfirst": 1428,
      "Ġsol": 1429,
      "class": 1430,
      "ages": 1431,
      "à¦¹": 1432,
      "ople": 1433,
      "ĠâĢĵ": 1434,
      "à´³": 1435,
      "Ġname": 1436,
      "àª¸": 1437,
      "Ġshould": 1438,
      "Ġ9": 1439,
      "à±Ģ": 1440,
      "oin": 1441,
      "ames": 1442,
      "ĠĠĠĠĠĠĠĠĠĠĠĠĠĠĠĠĠĠĠĠĠĠĠĠĠĠĠĠĠĠĠĠ": 1443,
      "Ġà¦¹": 1444,
      "Ġgr": 1445,
      "icense": 1446,
      "ĠHe": 1447,
      "UT": 1448,
      "á±¨": 1449,
      "ê¯Ľ": 1450,
      "this": 1451,
      "(&": 1452,
      "Ġbeen": 1453,
      "Ġá±Ł": 1454,
      "ful": 1455,
      "Ġprov": 1456,
      "Ġpublic": 1457,
      "Ġà¤Ľ": 1458,
      "ê¯Ħ": 1459,
      "à°µ": 1460,
      "ME": 1461,
      "à´µ": 1462,
      "Ġàªª": 1463,
      "à°®": 1464,
      "CH": 1465,
      "opy": 1466,
      "$$": 1467,
      "data": 1468,
      "Ġà¬ª": 1469,
      "oth": 1470,
      "));": 1471,
      "Error": 1472,
      "Ġà¤«": 1473,
      "Ġà¨¨": 1474,
      "Ch": 1475,
      "der": 1476,
      "Ġrem": 1477,
      "Ġind": 1478,
      "urrent": 1479,
      "\");": 1480,
      "á±Łá±¹": 1481,
      "Ġelse": 1482,
      "à¦·": 1483,
      "à¬ª": 1484,
      "Id": 1485,
      "Ġrec": 1486,
      "try": 1487,
      "uth": 1488,
      "Ġsuch": 1489,
      "Ġá±¥": 1490,
      "ures": 1491,
      "à¤Ľ": 1492,
      "Ġimport": 1493,
      "'t": 1494,
      "not": 1495,
      "à´£": 1496,
      "for": 1497,
      "ily": 1498,
      "Ġyear": 1499,
      "');": 1500,
      "Ġtrue": 1501,
      "ÙĪÙĨ": 1502,
      "text": 1503,
      "string": 1504,
      "ctions": 1505,
      "date": 1506,
      "Ġà¦ı": 1507,
      "ĠÙĩ": 1508,
      "ĠĊ": 1509,
      "ww": 1510,
      "ally": 1511,
      "Ġà®ª": 1512,
      "let": 1513,
      "param": 1514,
      "à¤ĩ": 1515,
      "ments": 1516,
      "Ġà¤ªà¤°": 1517,
      "Ġsaid": 1518,
      "work": 1519,
      "key": 1520,
      "########": 1521,
      "ĠÚ©ÛĮ": 1522,
      "tem": 1523,
      "Ġfe": 1524,
      "Ġà¦¨": 1525,
      "ĠØ¹": 1526,
      "Com": 1527,
      "new": 1528,
      "Ġcons": 1529,
      "Ġsm": 1530,
      "Ġass": 1531,
      "ner": 1532,
      "Ġà¦¦": 1533,
      "col": 1534,
      "Ġchar": 1535,
      "ween": 1536,
      "Ġfalse": 1537,
      "Ø³Øª": 1538,
      "á±Łá±±": 1539,
      "Ġwhere": 1540,
      "of": 1541,
      "eb": 1542,
      "Ġhref": 1543,
      "cond": 1544,
      "Ġgo": 1545,
      "var": 1546,
      "á±Łá±ľ": 1547,
      "ature": 1548,
      "à¤ĥ": 1549,
      "Ġfil": 1550,
      "IC": 1551,
      "Øł": 1552,
      "âĢ¢": 1553,
      "ask": 1554,
      "ĠUn": 1555,
      "AB": 1556,
      ".\"": 1557,
      "à°Ĺ": 1558,
      "Ġsystem": 1559,
      "à¨®": 1560,
      "ower": 1561,
      "ĠÚ©ÛĴ": 1562,
      "().": 1563,
      "reat": 1564,
      "Ġthrough": 1565,
      "Ġpeople": 1566,
      "ĠĠĠĠĠĠ": 1567,
      "ased": 1568,
      "ting": 1569,
      "Ġàª¸": 1570,
      "à¦¶": 1571,
      "àª¾àªĤ": 1572,
      "Ġ,": 1573,
      "à¤Ĩ": 1574,
      "Ġdr": 1575,
      "(),": 1576,
      "ices": 1577,
      "very": 1578,
      "àŃŁ": 1579,
      "Ġloc": 1580,
      "mod": 1581,
      "à©Ī": 1582,
      "à¤³": 1583,
      "ollow": 1584,
      "Ġmake": 1585,
      "play": 1586,
      "pre": 1587,
      "list": 1588,
      "à¨¼": 1589,
      "Ġcolor": 1590,
      "Ġstart": 1591,
      "Ġbetween": 1592,
      "Ġeff": 1593,
      "Ġá±«": 1594,
      "Ġà°ª": 1595,
      "Ġob": 1596,
      "à¬Ł": 1597,
      "itle": 1598,
      "rite": 1599,
      "Ġac": 1600,
      "amp": 1601,
      "Ġsim": 1602,
      "js": 1603,
      "ĠĠĠĠĠĠĠĠĠĠĠĠĠ": 1604,
      "ØŃ": 1605,
      "Ġ&&": 1606,
      "press": 1607,
      "List": 1608,
      "uring": 1609,
      "ĠIf": 1610,
      "ĠPro": 1611,
      "Ġsup": 1612,
      "rc": 1613,
      "\";": 1614,
      "RI": 1615,
      "Ġnil": 1616,
      "....": 1617,
      "Ġprodu": 1618,
      "Ġeach": 1619,
      "Ġà®ķ": 1620,
      "orld": 1621,
      "Ġco": 1622,
      "=\"+": 1623,
      "view": 1624,
      "Ġà¤¥": 1625,
      "ider": 1626,
      "Ġusing": 1627,
      "SER": 1628,
      "Ġshe": 1629,
      "ines": 1630,
      "ee": 1631,
      "Ġ\"$": 1632,
      "Ú©Ú¾": 1633,
      "opt": 1634,
      "Ġà¬¸": 1635,
      "alth": 1636,
      "Ġ||": 1637,
      "à©ģ": 1638,
      "Ú»": 1639,
      "14": 1640,
      "path": 1641,
      "Ġend": 1642,
      "als": 1643,
      "color": 1644,
      "fe": 1645,
      "Ġà²®": 1646,
      "ĠÙģ": 1647,
      "url": 1648,
      "Ġlong": 1649,
      "atus": 1650,
      "Ġmost": 1651,
      "ength": 1652,
      "à¥ĥ": 1653,
      "hat": 1654,
      "Ġgener": 1655,
      "ĠàŃ": 1656,
      "irect": 1657,
      "ify": 1658,
      "Ġstring": 1659,
      "min": 1660,
      "value": 1661,
      "Ġmany": 1662,
      "Ø±ÛĮ": 1663,
      "ĠEx": 1664,
      "ton": 1665,
      "Ġoff": 1666,
      "Ġnull": 1667,
      "Ġbec": 1668,
      "àªŁ": 1669,
      "face": 1670,
      "To": 1671,
      "Ġà²¸": 1672,
      "ule": 1673,
      "ution": 1674,
      "Ġfl": 1675,
      "Ġà¦ħ": 1676,
      "Ġpol": 1677,
      "Ġlist": 1678,
      "els": 1679,
      "ole": 1680,
      "à¤¼": 1681,
      "Ġright": 1682,
      "ten": 1683,
      "ational": 1684,
      "')": 1685,
      "ÚĨ": 1686,
      "****************": 1687,
      "uc": 1688,
      "ui": 1689,
      "ument": 1690,
      "serv": 1691,
      "DI": 1692,
      "rol": 1693,
      "ah": 1694,
      "àµĭ": 1695,
      "ĠÛ¾": 1696,
      "ttp": 1697,
      "Ġread": 1698,
      "50": 1699,
      "Ġassert": 1700,
      "AN": 1701,
      "ĠQ": 1702,
      "ale": 1703,
      "Ġent": 1704,
      "Ġz": 1705,
      "à´ļ": 1706,
      "à¤°à¤ķ": 1707,
      "à±Ĩ": 1708,
      "bin": 1709,
      "Ġdet": 1710,
      "].": 1711,
      "à¤ł": 1712,
      "Ġcould": 1713,
      "Ġdifferent": 1714,
      "Ġfollow": 1715,
      "à®ķà®³": 1716,
      "fl": 1717,
      "á±®á±±": 1718,
      "UR": 1719,
      "dis": 1720,
      "13": 1721,
      "ished": 1722,
      "argin": 1723,
      "Ġà°ķ": 1724,
      "Ġà®®": 1725,
      "ĠNOT": 1726,
      "ĠCom": 1727,
      "à¬¶": 1728,
      "Ġbr": 1729,
      "Ġmy": 1730,
      "Ġpoint": 1731,
      "à©Ĥ": 1732,
      "Ġê¯ĳê¯ĥê¯": 1733,
      "Ġchild": 1734,
      "ÙĩÙĬ": 1735,
      "à¨Ĩ": 1736,
      "resent": 1737,
      "Ġà¨ª": 1738,
      "ts": 1739,
      "Ġorg": 1740,
      "Ġsign": 1741,
      "Ġfn": 1742,
      "Ġmin": 1743,
      "Ġà®µ": 1744,
      "ott": 1745,
      "ccess": 1746,
      "org": 1747,
      "Ġà´ª": 1748,
      "================": 1749,
      "Ġknow": 1750,
      "ren": 1751,
      "void": 1752,
      "mer": 1753,
      "Ġ12": 1754,
      "Ġá±¢": 1755,
      "ĠLicense": 1756,
      "à¦ļ": 1757,
      "à°ļ": 1758,
      "hes": 1759,
      "uff": 1760,
      "à¨¾à¨Ĥ": 1761,
      "Ġwant": 1762,
      "ĠØŃ": 1763,
      "Ġfind": 1764,
      "Ġê¯Ģ": 1765,
      "top": 1766,
      "ough": 1767,
      "à´¸": 1768,
      "by": 1769,
      "à³ĩ": 1770,
      "ATE": 1771,
      "Ġ->": 1772,
      "à¨µ": 1773,
      "à²®": 1774,
      "66": 1775,
      "left": 1776,
      "}\"": 1777,
      "Cl": 1778,
      "ank": 1779,
      "sw": 1780,
      "ces": 1781,
      "Ġà´ķ": 1782,
      "Ø±ÙĬ": 1783,
      "Ġkey": 1784,
      "Ġbackground": 1785,
      "Ġjust": 1786,
      "':": 1787,
      "Ġsee": 1788,
      "ized": 1789,
      "Ġê¯Ĥ": 1790,
      "Ġà¤¸à¤®": 1791,
      "Ġobject": 1792,
      "Ġdes": 1793,
      "http": 1794,
      "à²Ł": 1795,
      "arent": 1796,
      "Ġerror": 1797,
      "ential": 1798,
      "arget": 1799,
      "search": 1800,
      "Ġà§": 1801,
      "à¦§": 1802,
      "Ġinv": 1803,
      "à¤°à¤¤": 1804,
      "Ġday": 1805,
      "cent": 1806,
      "yle": 1807,
      "Ġàª®": 1808,
      "Set": 1809,
      "iet": 1810,
      "ET": 1811,
      "Ġafter": 1812,
      "efore": 1813,
      "Ġà¦¤": 1814,
      "Ġprocess": 1815,
      "ited": 1816,
      "formation": 1817,
      "Ġstate": 1818,
      "Ù½": 1819,
      "à¦¼à¦¾": 1820,
      "Ġà®¤": 1821,
      "Value": 1822,
      "velop": 1823,
      "ote": 1824,
      "CO": 1825,
      "ware": 1826,
      "ê¯¢": 1827,
      "Ġà²ķ": 1828,
      "0000": 1829,
      "Ġcor": 1830,
      "Ġdoes": 1831,
      "Ġvoid": 1832,
      "Ġvery": 1833,
      "ĠØ®": 1834,
      "Ġdevelop": 1835,
      "arn": 1836,
      "Ġfound": 1837,
      "Ġá±¦": 1838,
      "include": 1839,
      "Ġê¯ĥê¯ģ": 1840,
      "mp": 1841,
      "à®ļ": 1842,
      "gy": 1843,
      "ĠĠĠĠĠĠĠĠĠĠĠĠĠĠĠĠĠĠĠĠĠĠĠ": 1844,
      "ier": 1845,
      "à¬¸": 1846,
      "ĠFor": 1847,
      "the": 1848,
      "air": 1849,
      "ired": 1850,
      "Ġ${": 1851,
      "Ġá±µ": 1852,
      "ervice": 1853,
      "Ġevery": 1854,
      "ê¯ĩ": 1855,
      "ement": 1856,
      "Ġexpect": 1857,
      "à¨ļ": 1858,
      "à¨ľ": 1859,
      "Ġsur": 1860,
      "Ġpers": 1861,
      "Ġtext": 1862,
      "18": 1863,
      "Ġà°µ": 1864,
      "raph": 1865,
      "30": 1866,
      "Ġfr": 1867,
      "Ġvalues": 1868,
      "à´Ļ": 1869,
      "Tr": 1870,
      "rop": 1871,
      "àªª": 1872,
      "time": 1873,
      "Ġgiv": 1874,
      "net": 1875,
      "Ġed": 1876,
      "Ġstruct": 1877,
      "itt": 1878,
      "à®¨": 1879,
      "Ġplay": 1880,
      "ush": 1881,
      "ENT": 1882,
      "ĠThey": 1883,
      "Ġê¯ĳê¯ģ": 1884,
      "uch": 1885,
      "func": 1886,
      "Ġlook": 1887,
      "Ġresp": 1888,
      "Ġà°¸": 1889,
      "Ġdec": 1890,
      "ward": 1891,
      "Data": 1892,
      "à¦£": 1893,
      "``": 1894,
      "Ø§Øª": 1895,
      "ists": 1896,
      "Ġhand": 1897,
      "ever": 1898,
      "Get": 1899,
      "stand": 1900,
      "Ġhttp": 1901,
      "Ġ///": 1902,
      "Ġcent": 1903,
      "Ġà¬ķ": 1904,
      "ream": 1905,
      "RA": 1906,
      "Ġà¬¬": 1907,
      "Ġ200": 1908,
      "red": 1909,
      "mut": 1910,
      "Ġmethod": 1911,
      "());": 1912,
      "iqu": 1913,
      "à¬¹": 1914,
      "àµĩ": 1915,
      "Ġbecause": 1916,
      "--------------------------------": 1917,
      "rray": 1918,
      "ivate": 1919,
      "ĠRe": 1920,
      "imes": 1921,
      "Ġmat": 1922,
      "àŃĭ": 1923,
      "rem": 1924,
      "Ġsize": 1925,
      "sub": 1926,
      "ĠØ§ÙĨ": 1927,
      "à¯ĩ": 1928,
      "ĠCon": 1929,
      "ĠAn": 1930,
      "Ġcomple": 1931,
      "const": 1932,
      "und": 1933,
      "à®£": 1934,
      "ience": 1935,
      "à¦¼à§ĩ": 1936,
      "Ġtop": 1937,
      "num": 1938,
      "cul": 1939,
      "oy": 1940,
      "user": 1941,
      "ains": 1942,
      "ĠÙħÛĮÚº": 1943,
      "ÙĩÙĨ": 1944,
      "Ġproble": 1945,
      "Øµ": 1946,
      "br": 1947,
      "ined": 1948,
      "Ġwhile": 1949,
      "Ġshow": 1950,
      "Ġhigh": 1951,
      "ically": 1952,
      "Ġ18": 1953,
      "aking": 1954,
      "Ġwell": 1955,
      "à¤µà¤°": 1956,
      "\"\"": 1957,
      "Ø§Ø¯": 1958,
      "àŃĢ": 1959,
      "comm": 1960,
      "Sc": 1961,
      "Ġeven": 1962,
      "ases": 1963,
      "à§±": 1964,
      "Ġ\"${": 1965,
      "Ġsame": 1966,
      "ED": 1967,
      "Ġà¨ľ": 1968,
      "quest": 1969,
      "Ġexper": 1970,
      "ife": 1971,
      "ared": 1972,
      "lob": 1973,
      "ĠàªĨ": 1974,
      "Ġà¬®": 1975,
      "Ġdisc": 1976,
      "Ġà°ħ": 1977,
      "à¦¥": 1978,
      "fore": 1979,
      "Ġarg": 1980,
      "ĠÛ½": 1981,
      "field": 1982,
      "chn": 1983,
      "Ġcr": 1984,
      "Ġway": 1985,
      "ute": 1986,
      "ness": 1987,
      "á±Łá±¹á±": 1988,
      "Ġà¤ıà¤ķ": 1989,
      "55": 1990,
      "Ġrun": 1991,
      "Ġà¨ħ": 1992,
      "web": 1993,
      "MP": 1994,
      "vir": 1995,
      "Ġcontent": 1996,
      "Ġcase": 1997,
      "ê¯«": 1998,
      "Ġequ": 1999,
      "action": 2000,
      "Ġbel": 2001,
      "util": 2002,
      "Ùĸ": 2003,
      "ĠâĢĺ": 2004,
      "wn": 2005,
      "Ġàªµ": 2006,
      "ĠWe": 2007,
      "Ġà¨®": 2008,
      "////////": 2009,
      "ê¯ı": 2010,
      "Ġgroup": 2011,
      "201": 2012,
      "Ġexpl": 2013,
      "Ġà®ħ": 2014,
      "99": 2015,
      "Ġlog": 2016,
      "ets": 2017,
      "iver": 2018,
      "function": 2019,
      "ĠØ§Ø³": 2020,
      "struct": 2021,
      "iter": 2022,
      "àª£": 2023,
      "._": 2024,
      "ister": 2025,
      "ism": 2026,
      "ception": 2027,
      "fil": 2028,
      "Ġà¤ħà¤¸": 2029,
      "Ġcar": 2030,
      "Add": 2031,
      "Ġê¯Ĩ": 2032,
      "Ġser": 2033,
      "Ġinclud": 2034,
      "Ġàªľ": 2035,
      "ĠINT": 2036,
      "Ġecho": 2037,
      "char": 2038,
      "Ġsk": 2039,
      "olum": 2040,
      "Ġtyp": 2041,
      "à¨£": 2042,
      "IG": 2043,
      "ric": 2044,
      "à¦¡": 2045,
      "box": 2046,
      "abel": 2047,
      "ants": 2048,
      "Ġla": 2049,
      "ĠYou": 2050,
      "Ġà¤Ĩà¤¹": 2051,
      "print": 2052,
      "Ġá±Łá±": 2053,
      "ural": 2054,
      "ually": 2055,
      "àµģà´Ĥ": 2056,
      "Ġà¦ľ": 2057,
      "Ġincre": 2058,
      "à¨Ĺ": 2059,
      "Ġàªħ": 2060,
      "}}": 2061,
      "22": 2062,
      "Ġwater": 2063,
      "Ġàª¤": 2064,
      "Ġwrit": 2065,
      "ĠAs": 2066,
      "Ġrep": 2067,
      "ĠàªĽ": 2068,
      "MA": 2069,
      "bar": 2070,
      "other": 2071,
      "Ġfact": 2072,
      "ins": 2073,
      "17": 2074,
      "á±ļá±±": 2075,
      "ology": 2076,
      "from": 2077,
      "FA": 2078,
      "ced": 2079,
      "à¤°à¤®": 2080,
      "itions": 2081,
      "àª¹": 2082,
      "ĠØ¬ÙĪ": 2083,
      "gram": 2084,
      "En": 2085,
      "ger": 2086,
      "Ġhealth": 2087,
      "ĠAl": 2088,
      "ization": 2089,
      "icon": 2090,
      "roll": 2091,
      "ê¯Ģ": 2092,
      "Ġà®ļ": 2093,
      "Ġ100": 2094,
      "any": 2095,
      "adding": 2096,
      "Ġborder": 2097,
      "àª¦": 2098,
      "ĠHow": 2099,
      "SERT": 2100,
      "à¨Ł": 2101,
      "day": 2102,
      "!(": 2103,
      "ABLE": 2104,
      "Ġexample": 2105,
      "pend": 2106,
      "Ġ]": 2107,
      "Ġà¤ĺ": 2108,
      "Ġworld": 2109,
      "ector": 2110,
      "ified": 2111,
      "ÙĬÙĨ": 2112,
      "Ġaut": 2113,
      "Ġcurrent": 2114,
      "à¯Ĩ": 2115,
      "àªĹ": 2116,
      "Ġmon": 2117,
      "à¥ĩ.": 2118,
      "cle": 2119,
      "Ġmust": 2120,
      "ottom": 2121,
      "ns": 2122,
      "};": 2123,
      "reg": 2124,
      "igned": 2125,
      "ename": 2126,
      "Ġpass": 2127,
      "Ġ14": 2128,
      "Ġboth": 2129,
      "ember": 2130,
      "reak": 2131,
      "Ġtem": 2132,
      "ences": 2133,
      "Test": 2134,
      "Key": 2135,
      "à¦Ĥ": 2136,
      "ĠÚ©Ø±": 2137,
      "Ġmain": 2138,
      "ĠString": 2139,
      "Ġsom": 2140,
      "item": 2141,
      "Ġbefore": 2142,
      "Object": 2143,
      "Ġ15": 2144,
      "co": 2145,
      "24": 2146,
      "OP": 2147,
      "Ġbeing": 2148,
      "ĠInd": 2149,
      "Ġà´¸": 2150,
      "ĠShe": 2151,
      "Ġ/**": 2152,
      "nav": 2153,
      "Ġpat": 2154,
      "ape": 2155,
      "Ġà°®": 2156,
      "ĠAN": 2157,
      "Ġyears": 2158,
      "dir": 2159,
      "ince": 2160,
      "ÙĬÙĪ": 2161,
      "Ø®": 2162,
      "\"><": 2163,
      "load": 2164,
      "ÛĮØ§": 2165,
      "á±Łá±¨": 2166,
      "àªľ": 2167,
      "Ġmed": 2168,
      "ptions": 2169,
      "be": 2170,
      "à²ª": 2171,
      "àª¡": 2172,
      "ĠØªÛģ": 2173,
      "Ġdown": 2174,
      "indow": 2175,
      "eep": 2176,
      "à¤ķà¤°": 2177,
      "ĠÙĤ": 2178,
      "à¦ĸ": 2179,
      "Ġki": 2180,
      "Ġ$$": 2181,
      "bers": 2182,
      "input": 2183,
      "à¤¤à¤°": 2184,
      "Ġtry": 2185,
      "Ġà¨ĩ": 2186,
      "tain": 2187,
      "Ġbl": 2188,
      "Ġext": 2189,
      "ann": 2190,
      "Ġnow": 2191,
      "Ġà®ĩ": 2192,
      "Ġá±Ľ": 2193,
      "())": 2194,
      "Ġá±¯": 2195,
      "Un": 2196,
      "Ġeffect": 2197,
      "Ġappro": 2198,
      "index": 2199,
      "Ġ16": 2200,
      "ING": 2201,
      "table": 2202,
      "ma": 2203,
      "Ġthose": 2204,
      "echo": 2205,
      "sl": 2206,
      "Ġmargin": 2207,
      "Ġbuild": 2208,
      "ĠOn": 2209,
      "fin": 2210,
      "ÛĦ": 2211,
      "Ġ);": 2212,
      "ĠTr": 2213,
      "Ġfield": 2214,
      "Ġfont": 2215,
      "Ġcall": 2216,
      "05": 2217,
      "Se": 2218,
      "Ġà²¨": 2219,
      "wh": 2220,
      "ĠØ§ÙĪØ±": 2221,
      "àŃ¦àŃ": 2222,
      "Ġdistribut": 2223,
      "Ġhapp": 2224,
      "ait": 2225,
      "Ġcoun": 2226,
      "perty": 2227,
      "à¤ī": 2228,
      "Ġinformation": 2229,
      "])": 2230,
      "Ġdon": 2231,
      "Ġà²ª": 2232,
      "ÛĮÙĨ": 2233,
      "Ġà°ļ": 2234,
      "iled": 2235,
      "loat": 2236,
      "à¦Ń": 2237,
      "Ġpub": 2238,
      "Ġ/*": 2239,
      "Ġdefault": 2240,
      "ystem": 2241,
      "Ø§Ú©": 2242,
      "Ġsoc": 2243,
      "angu": 2244,
      "Ġà´µ": 2245,
      "Ø§Ø¨": 2246,
      "As": 2247,
      "Time": 2248,
      "Ġà²ħ": 2249,
      "ives": 2250,
      "à³Ĥ": 2251,
      "ĠÙ¿": 2252,
      "IL": 2253,
      "ĠĠĠĠĊ": 2254,
      "File": 2255,
      "Ġcreate": 2256,
      "ency": 2257,
      "Ġá±¾": 2258,
      "ope": 2259,
      "Ġelement": 2260,
      "Ġart": 2261,
      "à¬¡": 2262,
      "ĠØ²": 2263,
      "Ġê¯į": 2264,
      "viron": 2265,
      "Ġà¨¤": 2266,
      "ãģ": 2267,
      "à°¿à°Ĥ": 2268,
      "dev": 2269,
      "Ġaround": 2270,
      "Ġquest": 2271,
      "Ġlocal": 2272,
      "ols": 2273,
      "ables": 2274,
      "aster": 2275,
      "ÚĪ": 2276,
      "lib": 2277,
      "Ġmuch": 2278,
      "arning": 2279,
      "à¨ª": 2280,
      "Ġà¬ı": 2281,
      "Ġoper": 2282,
      "ĠRes": 2283,
      "02": 2284,
      "Par": 2285,
      "ym": 2286,
      "Ġsmall": 2287,
      "ivers": 2288,
      "Ġá±¡": 2289,
      "Ġcheck": 2290,
      "de": 2291,
      "Ġà¤Ĺà¤°": 2292,
      "Ġfinal": 2293,
      "config": 2294,
      "urs": 2295,
      "Ġvis": 2296,
      "ags": 2297,
      "Ġaddress": 2298,
      "///": 2299,
      "34": 2300,
      "Ġcond": 2301,
      "Ġpartic": 2302,
      "uf": 2303,
      "NA": 2304,
      "ĠÛģÛĴ": 2305,
      "ply": 2306,
      "utton": 2307,
      "eter": 2308,
      "Ġtake": 2309,
      "Ġlevel": 2310,
      "Ġtechn": 2311,
      "Ġleft": 2312,
      "arm": 2313,
      "Ġunderstand": 2314,
      "Ġtable": 2315,
      "Ġstatic": 2316,
      "Ġblock": 2317,
      "alk": 2318,
      "ocument": 2319,
      "IS": 2320,
      "Ġagain": 2321,
      "CE": 2322,
      "ather": 2323,
      "ides": 2324,
      "Ġdesc": 2325,
      "ars": 2326,
      "come": 2327,
      "Ġgood": 2328,
      "kit": 2329,
      "ĠSh": 2330,
      "Ġduring": 2331,
      "Ġà²¹": 2332,
      "àª¥": 2333,
      "rg": 2334,
      "lection": 2335,
      "ond": 2336,
      "Ġcle": 2337,
      "Ġvari": 2338,
      "á±±": 2339,
      "à¬ĩ": 2340,
      "bt": 2341,
      "PE": 2342,
      "Ġallow": 2343,
      "uffer": 2344,
      "Ġstudents": 2345,
      "{\\": 2346,
      "Ġgiven": 2347,
      "width": 2348,
      "By": 2349,
      "Ġà¦¶": 2350,
      "ALU": 2351,
      "ÙĪÙĦ": 2352,
      "à¤ªà¤¨": 2353,
      "This": 2354,
      "ends": 2355,
      "az": 2356,
      "Ġàª°": 2357,
      "Ġhum": 2358,
      "Ġ('": 2359,
      "à¤¿à¤Ĥ": 2360,
      "ected": 2361,
      "UN": 2362,
      "Ġcode": 2363,
      "Ġcalled": 2364,
      "Ġcap": 2365,
      "à§Ī": 2366,
      "Ġàª¹": 2367,
      "Ġê¯ĳê¯ĥê¯ħ": 2368,
      "AD": 2369,
      "Ġà¦¯": 2370,
      "assert": 2371,
      "aj": 2372,
      "Ġà¦ķà§°": 2373,
      "Ġá±«á±ļ": 2374,
      "=$": 2375,
      ">&": 2376,
      "ways": 2377,
      "med": 2378,
      "idd": 2379,
      "Ġsupport": 2380,
      "itor": 2381,
      "à³Ĭ": 2382,
      "ĠÙ¾Ø±": 2383,
      "Ġuser": 2384,
      "uss": 2385,
      "group": 2386,
      "à¦ĵ": 2387,
      "ler": 2388,
      "21": 2389,
      "abled": 2390,
      "='": 2391,
      "rib": 2392,
      "Ġorder": 2393,
      "ponse": 2394,
      "à²Ĺà²³": 2395,
      "valid": 2396,
      "Ġmade": 2397,
      "side": 2398,
      "Ġmult": 2399,
      "Im": 2400,
      "';": 2401,
      "map": 2402,
      "Ġà¬°": 2403,
      "plate": 2404,
      "AG": 2405,
      "arr": 2406,
      "ession": 2407,
      "Ġdid": 2408,
      "ÙĪÚº": 2409,
      "less": 2410,
      "à¬¦": 2411,
      "++": 2412,
      "Ġmet": 2413,
      "à¬Ĺ": 2414,
      "CL": 2415,
      "Ind": 2416,
      "oh": 2417,
      "ql": 2418,
      "akes": 2419,
      "Ġposs": 2420,
      ".</": 2421,
      "Ġref": 2422,
      "Ġear": 2423,
      "###": 2424,
      "Ġstd": 2425,
      "ĠX": 2426,
      "ps": 2427,
      "Ġcontin": 2428,
      "block": 2429,
      "md": 2430,
      "word": 2431,
      "Ġ<<": 2432,
      "à¨¬": 2433,
      "Ġ},": 2434,
      "tes": 2435,
      "ê¯¤ê¯«": 2436,
      "imit": 2437,
      "Ġ\"\\": 2438,
      "Ġparam": 2439,
      "Ġown": 2440,
      "ability": 2441,
      "Ġreal": 2442,
      "Ġhim": 2443,
      "uration": 2444,
      "error": 2445,
      "man": 2446,
      "olv": 2447,
      "ern": 2448,
      "ek": 2449,
      "Ġà´®": 2450,
      "à¤¢": 2451,
      "Ġà®¨": 2452,
      "04": 2453,
      "ples": 2454,
      "/**": 2455,
      "Ġcommun": 2456,
      "âĢľ": 2457,
      "ĠØ³ÛĴ": 2458,
      "ources": 2459,
      "Ġimportant": 2460,
      "ocus": 2461,
      "pace": 2462,
      "itial": 2463,
      "select": 2464,
      "ane": 2465,
      "Ġperson": 2466,
      "ĠÐ": 2467,
      "Ġá±ŀ": 2468,
      "Sh": 2469,
      "Ġresearch": 2470,
      "à³Ģ": 2471,
      "âĢĵ": 2472,
      "reen": 2473,
      ".,": 2474,
      "ĠSc": 2475,
      "ainer": 2476,
      "ription": 2477,
      "vironment": 2478,
      "Ġdirect": 2479,
      "à±Ĥ": 2480,
      "Ġgover": 2481,
      "my": 2482,
      "ided": 2483,
      "Ġê¯ģ": 2484,
      "acter": 2485,
      "anguage": 2486,
      "Ġpop": 2487,
      "Ġnon": 2488,
      "way": 2489,
      "ital": 2490,
      "ĠSo": 2491,
      "Ġdist": 2492,
      "75": 2493,
      "ÙĶ": 2494,
      "ĠAp": 2495,
      "Ø·": 2496,
      "Ġinput": 2497,
      "à¯ĭ": 2498,
      "EST": 2499,
      "Ġsl": 2500,
      "He": 2501,
      "Mod": 2502,
      "Ġâ": 2503,
      "Ġá±ľ": 2504,
      "rt": 2505,
      "àª¶": 2506,
      "Ġà¦ļ": 2507,
      "Ġà²¬": 2508,
      "Ġmem": 2509,
      "Ġsecond": 2510,
      "ĠINTO": 2511,
      "Info": 2512,
      "Ġpath": 2513,
      "à¬³": 2514,
      "ager": 2515,
      "FF": 2516,
      "%;": 2517,
      "plication": 2518,
      "Ġfollowing": 2519,
      "ãĥ": 2520,
      "adi": 2521,
      "Ġhere": 2522,
      "inter": 2523,
      "Ġanal": 2524,
      "Ġà¨¬": 2525,
      "ĉĉĉĉĉ": 2526,
      "Ġá±¨á±®": 2527,
      "oo": 2528,
      "Ġ?": 2529,
      "ross": 2530,
      "webkit": 2531,
      "Ġbody": 2532,
      "Ġdev": 2533,
      "ivity": 2534,
      "Ġwithout": 2535,
      "EX": 2536,
      "Class": 2537,
      "link": 2538,
      "Ġê¯«": 2539,
      "36": 2540,
      "ĠØµ": 2541,
      "Ġbig": 2542,
      "Ġlife": 2543,
      "public": 2544,
      "On": 2545,
      "For": 2546,
      "miss": 2547,
      "Ġà´ħ": 2548,
      "ÙĦÙħ": 2549,
      "ackage": 2550,
      "Ġatt": 2551,
      "ê¯Į": 2552,
      "Ġposition": 2553,
      "ftware": 2554,
      "INSERT": 2555,
      "Node": 2556,
      "ittle": 2557,
      "base": 2558,
      "image": 2559,
      "LO": 2560,
      "www": 2561,
      "Ġà´¨": 2562,
      "ght": 2563,
      "Ġpower": 2564,
      "à©į": 2565,
      "Ġfam": 2566,
      "','": 2567,
      "Ġrange": 2568,
      "ĠÚ©ÙĪ": 2569,
      "ron": 2570,
      "go": 2571,
      "lease": 2572,
      "Ġà°¤": 2573,
      "Ġchange": 2574,
      "Ġ});": 2575,
      "à²¬": 2576,
      "uthor": 2577,
      "Ġ...": 2578,
      "à¤¯à¤ķ": 2579,
      "}/": 2580,
      "Ġwidth": 2581,
      "met": 2582,
      "à³ĭ": 2583,
      "Ġthink": 2584,
      "ots": 2585,
      "Element": 2586,
      "Ġless": 2587,
      "ĠØ¢ÙĩÙĬ": 2588,
      "ava": 2589,
      "'),": 2590,
      "ALUES": 2591,
      "ird": 2592,
      "Int": 2593,
      "Ġhist": 2594,
      "ĠIN": 2595,
      "hip": 2596,
      "Ġà¤ħà¤¨": 2597,
      "An": 2598,
      "Ġlast": 2599,
      "____": 2600,
      "At": 2601,
      "db": 2602,
      "active": 2603,
      "Ġà¦Ĺ": 2604,
      "_{": 2605,
      "||": 2606,
      "ĠZ": 2607,
      "Ġchang": 2608,
      "Map": 2609,
      "OL": 2610,
      "ouse": 2611,
      "à¤°à¤¸": 2612,
      "Ġdi": 2613,
      "Ġgu": 2614,
      "à¥ģà¤Ĥ": 2615,
      "New": 2616,
      "ason": 2617,
      "á±ļá±¨": 2618,
      "ived": 2619,
      "Qu": 2620,
      "Ġprint": 2621,
      "PI": 2622,
      "script": 2623,
      "vert": 2624,
      "Ġbool": 2625,
      "aterial": 2626,
      "define": 2627,
      "á±®á±±á±Łá±ľ": 2628,
      "ãĤ": 2629,
      "Config": 2630,
      "Ġident": 2631,
      "àŃ§": 2632,
      "ium": 2633,
      "ĠVALUES": 2634,
      "meric": 2635,
      "idual": 2636,
      "Ġlead": 2637,
      "state": 2638,
      "ision": 2639,
      "ĠCl": 2640,
      "ØªÚ¾": 2641,
      "ustom": 2642,
      "Ġthree": 2643,
      "à¤¹à¤°": 2644,
      "à¨¡": 2645,
      "ormal": 2646,
      "pty": 2647,
      "create": 2648,
      "ateg": 2649,
      "Ġfri": 2650,
      "Path": 2651,
      "Ġà¨²": 2652,
      "me": 2653,
      "ook": 2654,
      "DIR": 2655,
      "ĠBut": 2656,
      "28": 2657,
      "Ġà°¨": 2658,
      "à¯Ĭ": 2659,
      "cp": 2660,
      "mt": 2661,
      "ĠDE": 2662,
      "ba": 2663,
      "ters": 2664,
      "Ġá±±": 2665,
      "body": 2666,
      "ULT": 2667,
      "ulation": 2668,
      "Ġprogram": 2669,
      "aut": 2670,
      "oken": 2671,
      "Ð°": 2672,
      "start": 2673,
      "Ġmut": 2674,
      "ĠOR": 2675,
      "à¥¦": 2676,
      "Ġconfig": 2677,
      "info": 2678,
      "Ġàª¨": 2679,
      "ĠAnd": 2680,
      "Ġà²µ": 2681,
      "ĠIS": 2682,
      "HE": 2683,
      "button": 2684,
      "Ġword": 2685,
      "ĠÚ©Ø§": 2686,
      "à«ĩ.": 2687,
      "ĠWh": 2688,
      "Ġmov": 2689,
      "check": 2690,
      "len": 2691,
      "itive": 2692,
      "ĠĠĠĠĠĠĠĠĠĠ": 2693,
      "Ġest": 2694,
      "ĠSome": 2695,
      "ê¯°": 2696,
      "Ġbeg": 2697,
      "Ġstudy": 2698,
      "23": 2699,
      "Ġà¦²": 2700,
      "Ġà¤¡": 2701,
      "Equal": 2702,
      "ination": 2703,
      "Ġgen": 2704,
      "Ġà¦ķà¦°": 2705,
      "ped": 2706,
      "à®Ļ": 2707,
      "Ġwithin": 2708,
      "ergy": 2709,
      "Ġspecific": 2710,
      "INT": 2711,
      "Ġà¤°à¤¹": 2712,
      "100": 2713,
      "à¨¿à©±": 2714,
      "Ġà¤ĵ": 2715,
      "ĠØ§ÛĮ": 2716,
      "à¨Ī": 2717,
      "no": 2718,
      "Ġexpress": 2719,
      "à²£": 2720,
      "ê¯ĥê¯": 2721,
      "Ġcare": 2722,
      "Ġgrow": 2723,
      "Ġmeas": 2724,
      "isk": 2725,
      "Ġà¤Ł": 2726,
      "bottom": 2727,
      "Ġmark": 2728,
      "Log": 2729,
      "por": 2730,
      "pub": 2731,
      "à¬£": 2732,
      "################": 2733,
      "EY": 2734,
      "default": 2735,
      "àª§": 2736,
      "Ġchildren": 2737,
      "ĠÚ©ÙĬ": 2738,
      "Ġconsider": 2739,
      "08": 2740,
      "Ġpost": 2741,
      "Ġê¯ĥ": 2742,
      "Ġmean": 2743,
      "ponent": 2744,
      "ê¯§": 2745,
      "ĠNew": 2746,
      "Ġà¬¦": 2747,
      "Ġàªķàª°": 2748,
      "Ġàª¬": 2749,
      "à¤¾,": 2750,
      "^{": 2751,
      "àµĢ": 2752,
      "Ġprivate": 2753,
      "ands": 2754,
      "down": 2755,
      "['": 2756,
      "à¤ªà¤°": 2757,
      "ool": 2758,
      "Ġnet": 2759,
      "Ġnext": 2760,
      "Ġlittle": 2761,
      "itional": 2762,
      "Ġ()": 2763,
      "Ġpadding": 2764,
      "à±Ī": 2765,
      "Ġnone": 2766,
      "Ġav": 2767,
      "Ġdel": 2768,
      "Ġcontext": 2769,
      "Ġ17": 2770,
      "Ġmight": 2771,
      "chool": 2772,
      "Ġheight": 2773,
      "View": 2774,
      "Ġopen": 2775,
      "ension": 2776,
      "Ġà¤§": 2777,
      "Ġcopy": 2778,
      "ique": 2779,
      "Ġocc": 2780,
      "Result": 2781,
      "Ġindiv": 2782,
      "CON": 2783,
      "ari": 2784,
      "Ġmodel": 2785,
      "ouble": 2786,
      "ta": 2787,
      "before": 2788,
      "Index": 2789,
      "Ġsource": 2790,
      "insert": 2791,
      "requ": 2792,
      "ÚĻ": 2793,
      "Ġfood": 2794,
      "Ġelect": 2795,
      "27": 2796,
      "']": 2797,
      "ram": 2798,
      "HO": 2799,
      "((": 2800,
      "200": 2801,
      "Ġcommon": 2802,
      "tx": 2803,
      "Ġprot": 2804,
      "ething": 2805,
      "Ġadv": 2806,
      "With": 2807,
      "aus": 2808,
      "à¤Ļ": 2809,
      "lobal": 2810,
      "Ġess": 2811,
      "Ġenergy": 2812,
      "Ġê¯ħ": 2813,
      "à¥Īà¤Ĥ": 2814,
      "off": 2815,
      "bl": 2816,
      "ĠNone": 2817,
      "35": 2818,
      "ĠCON": 2819,
      "aces": 2820,
      "FI": 2821,
      "Ġpract": 2822,
      "ither": 2823,
      "Ġcell": 2824,
      "à«ģàªĤ": 2825,
      "Ġcalcul": 2826,
      "btn": 2827,
      "ĠAmeric": 2828,
      "Al": 2829,
      "ats": 2830,
      "etc": 2831,
      "ior": 2832,
      "Ġold": 2833,
      "Ġstep": 2834,
      "Ġproduct": 2835,
      "Ġtoo": 2836,
      "height": 2837,
      "ĠOne": 2838,
      "fs": 2839,
      "oci": 2840,
      "Ġbeh": 2841,
      "à¤ħ": 2842,
      "ox": 2843,
      "á±ł": 2844,
      "Ġfi": 2845,
      "comp": 2846,
      "ÙĨØ¯ÙĪ": 2847,
      "}{": 2848,
      "lete": 2849,
      "rect": 2850,
      "Ġindividual": 2851,
      "à¤¯à¤¨": 2852,
      "ĠAS": 2853,
      "Ġbook": 2854,
      "ively": 2855,
      "point": 2856,
      "aining": 2857,
      "ailable": 2858,
      "ules": 2859,
      "Ġà¤Ĳ": 2860,
      "ke": 2861,
      "Ġmax": 2862,
      "length": 2863,
      "Context": 2864,
      "inst": 2865,
      "à±ģ.": 2866,
      "`,": 2867,
      "VER": 2868,
      "ĠWhat": 2869,
      "Field": 2870,
      "max": 2871,
      "Ġdisplay": 2872,
      "Item": 2873,
      "ĠOF": 2874,
      "part": 2875,
      "oss": 2876,
      "Ġide": 2877,
      "Ġeas": 2878,
      "Def": 2879,
      "ĠSe": 2880,
      "AC": 2881,
      "ĠØ·": 2882,
      "Ġ;": 2883,
      "\"]": 2884,
      "Ġstill": 2885,
      "Ġredu": 2886,
      "*/": 2887,
      "Ġoften": 2888,
      "ê¯ł": 2889,
      "à´¦": 2890,
      "Ø±Ø§ÙĨ": 2891,
      "Ġview": 2892,
      "result": 2893,
      "enu": 2894,
      "run": 2895,
      "à¤ĺ": 2896,
      "duct": 2897,
      "case": 2898,
      "api": 2899,
      ".âĢĿ": 2900,
      "Ġcour": 2901,
      "frac": 2902,
      "Ġ};": 2903,
      "lient": 2904,
      "ê¯ľ": 2905,
      "lish": 2906,
      "à¤¨à¤ķ": 2907,
      "Ġmom": 2908,
      "à§ĩà¥¤": 2909,
      "Ġ[]": 2910,
      "json": 2911,
      "py": 2912,
      "ĠÚ©Ûģ": 2913,
      "Ġenc": 2914,
      "ê¯Ń": 2915,
      "á±Łá±Ń": 2916,
      "Ġproblem": 2917,
      "26": 2918,
      "ÙĹ": 2919,
      "à¯į.": 2920,
      "Ġ__": 2921,
      "place": 2922,
      "nb": 2923,
      "ident": 2924,
      "ĠTo": 2925,
      "Ġê¯Ħ": 2926,
      "count": 2927,
      "Group": 2928,
      "Ġbad": 2929,
      "Ġcomput": 2930,
      "Ġdiv": 2931,
      "version": 2932,
      "Ġplace": 2933,
      "Ġorig": 2934,
      "Ġeng": 2935,
      "Service": 2936,
      "ÙĦÛĮ": 2937,
      "Ġrequest": 2938,
      "hover": 2939,
      "à´·": 2940,
      "ĠWhen": 2941,
      "Ġsomething": 2942,
      "Ġà¨°": 2943,
      "inc": 2944,
      "ead": 2945,
      "position": 2946,
      "dr": 2947,
      "eturn": 2948,
      "ately": 2949,
      "Ġá±®": 2950,
      "ailed": 2951,
      "Ġcontrol": 2952,
      "Ġlearn": 2953,
      "su": 2954,
      "29": 2955,
      "38": 2956,
      "à¬·": 2957,
      "eters": 2958,
      "Ġ30": 2959,
      "iod": 2960,
      "arge": 2961,
      "Ġ11": 2962,
      "CRE": 2963,
      "olume": 2964,
      "Ġà°°": 2965,
      "44": 2966,
      "Ġmatch": 2967,
      "à³Ĩ.": 2968,
      "Ġsum": 2969,
      "Ġlaw": 2970,
      "Ġevent": 2971,
      "Ap": 2972,
      "Ġpot": 2973,
      "Ġà®İ": 2974,
      "ĠĠĠĠĠĠĠĠĠĠĠĠĠĠĠĠĠĠĠĠĠĠĠĠĠĠĠ": 2975,
      "sm": 2976,
      "finished": 2977,
      "imal": 2978,
      "Ġconf": 2979,
      "Ġ50": 2980,
      "context": 2981,
      "Reg": 2982,
      "[]": 2983,
      "á±Ľ": 2984,
      "amed": 2985,
      "à°¿.": 2986,
      "ibr": 2987,
      "à²¹": 2988,
      "Ġsym": 2989,
      "à©Ĥà©°": 2990,
      "sum": 2991,
      "Ø¸": 2992,
      "ĠThese": 2993,
      "Ġà¦ī": 2994,
      "bs": 2995,
      "font": 2996,
      "á±½": 2997,
      "à¤ıà¤ķ": 2998,
      "Ġlanguage": 2999,
      "plement": 3000,
      "Ø¡": 3001,
      "acity": 3002,
      "omen": 3003,
      "head": 3004,
      "IM": 3005,
      "cur": 3006,
      "Ġstand": 3007,
      "eq": 3008,
      "gg": 3009,
      "})": 3010,
      "Ġlight": 3011,
      "tract": 3012,
      "09": 3013,
      "ai": 3014,
      "Ġà¦Ń": 3015,
      "Size": 3016,
      "à°·": 3017,
      "à¤ľà¤¨": 3018,
      "State": 3019,
      "à®´": 3020,
      "odes": 3021,
      "Ġincluding": 3022,
      "Ġspe": 3023,
      "Ġtarget": 3024,
      "Ġà¤®à¤¹": 3025,
      "rel": 3026,
      "rix": 3027,
      "Ġbreak": 3028,
      "aving": 3029,
      "ĠEX": 3030,
      "parent": 3031,
      "Ġproject": 3032,
      "Ġorgan": 3033,
      "Ðµ": 3034,
      "client": 3035,
      "Ġindex": 3036,
      "ails": 3037,
      "Ġpresent": 3038,
      "Exception": 3039,
      "oot": 3040,
      ",âĢĿ": 3041,
      "olean": 3042,
      "Ú¾ÛĮ": 3043,
      "pert": 3044,
      "Ġoutput": 3045,
      "ven": 3046,
      "unfinished": 3047,
      "à²·": 3048,
      "Text": 3049,
      "Ġanother": 3050,
      "Ġsever": 3051,
      "39": 3052,
      "Ġàª¦": 3053,
      "args": 3054,
      "Ġia": 3055,
      "Ġrequired": 3056,
      "fi": 3057,
      "Ġbase": 3058,
      "nbsp": 3059,
      "\"></": 3060,
      "§à¥": 3061,
      "á±¥": 3062,
      "67": 3063,
      "Ġfin": 3064,
      "iety": 3065,
      "Ġà¤Ķ": 3066,
      "à¬ĸ": 3067,
      "ertain": 3068,
      "Ġaff": 3069,
      "Ġansw": 3070,
      "style": 3071,
      "rows": 3072,
      "ĠAll": 3073,
      "Ġreport": 3074,
      "plied": 3075,
      "ync": 3076,
      "Ġversion": 3077,
      "nection": 3078,
      ">>": 3079,
      "á±Ĳ": 3080,
      "à¬§": 3081,
      "à¨¿à©°": 3082,
      "Ġá±Łá±¨": 3083,
      "ental": 3084,
      "Ġkeep": 3085,
      "à¤®à¤¨": 3086,
      "ingle": 3087,
      "Ġbas": 3088,
      "Ġitem": 3089,
      "Ġaccess": 3090,
      "gen": 3091,
      "mit": 3092,
      "Ġarea": 3093,
      "content": 3094,
      "ances": 3095,
      "Ġbased": 3096,
      "lt": 3097,
      "Ġ25": 3098,
      "Ġgovern": 3099,
      "45": 3100,
      "Ð¾": 3101,
      "ral": 3102,
      "Ġ\"\"\"": 3103,
      "Ġsw": 3104,
      "uck": 3105,
      "icle": 3106,
      "á±Łá±¦": 3107,
      "Ġalways": 3108,
      "Request": 3109,
      "PT": 3110,
      "ê¯ĥ": 3111,
      "node": 3112,
      "son": 3113,
      "Ġbetter": 3114,
      "Ġà¤Ĩà¤°": 3115,
      "Ġà¤ĩà¤¸": 3116,
      "Ġenvironment": 3117,
      "ference": 3118,
      "ĠÛģÙĪ": 3119,
      "Ġà¨ī": 3120,
      "Ġhuman": 3121,
      "cd": 3122,
      "ĠTABLE": 3123,
      "à¥Ģà¤Ĥ": 3124,
      "ĠAdd": 3125,
      "á±ļá±Ľ": 3126,
      "à²ľ": 3127,
      "nal": 3128,
      "à¤¾.": 3129,
      "Ġbest": 3130,
      "Ø§Ø³": 3131,
      "If": 3132,
      "tings": 3133,
      "math": 3134,
      "à°ľ": 3135,
      "Ġmeans": 3136,
      "ĠPr": 3137,
      "ification": 3138,
      "iversity": 3139,
      "Ġask": 3140,
      "Ġ+=": 3141,
      "37": 3142,
      "sa": 3143,
      "ĠAr": 3144,
      "itch": 3145,
      "Client": 3146,
      "ĠÙĨÛĴ": 3147,
      "Ġdem": 3148,
      "ering": 3149,
      "Ġequal": 3150,
      "FAULT": 3151,
      "ternal": 3152,
      "title": 3153,
      "Ġinteg": 3154,
      "ube": 3155,
      "Ġgre": 3156,
      "Ġimp": 3157,
      "ê¯İ": 3158,
      "à¤µà¤¨": 3159,
      "ording": 3160,
      "Out": 3161,
      "ploy": 3162,
      "tribute": 3163,
      "align": 3164,
      "true": 3165,
      "Ġthings": 3166,
      "àŃ±": 3167,
      "ories": 3168,
      "light": 3169,
      "olution": 3170,
      "signed": 3171,
      "Ġ[[": 3172,
      "ä¸": 3173,
      "ought": 3174,
      "Ġselect": 3175,
      "ĠØ§ÙĦ": 3176,
      "ysis": 3177,
      "Ġmill": 3178,
      "à¤°à¤£": 3179,
      "Ġà¤ħà¤Ľ": 3180,
      "40": 3181,
      "static": 3182,
      "Ġresults": 3183,
      "ilar": 3184,
      "Ġ];": 3185,
      "book": 3186,
      "Ġcount": 3187,
      "Ġknown": 3188,
      "UB": 3189,
      "Ġgl": 3190,
      "à±įâĢĮ": 3191,
      "Ù²ÙĨ": 3192,
      "Ġinterest": 3193,
      "Ġcir": 3194,
      "88": 3195,
      "Ġdone": 3196,
      "Ġperform": 3197,
      "iction": 3198,
      "ML": 3199,
      "agn": 3200,
      "ĠAt": 3201,
      "Ġtypes": 3202,
      "Ġsince": 3203,
      "ift": 3204,
      "tal": 3205,
      "ê¯ª": 3206,
      "iple": 3207,
      "Ġrequire": 3208,
      "imate": 3209,
      "Ġrece": 3210,
      "à«Ĥ": 3211,
      "Ġlearning": 3212,
      "Ġabove": 3213,
      "à¤°à¤¨": 3214,
      "=\"../": 3215,
      "wrap": 3216,
      "Ġ(!": 3217,
      "Ġupon": 3218,
      "Ġput": 3219,
      "Ġinclude": 3220,
      "iness": 3221,
      "rec": 3222,
      "Ø±ÙĪ": 3223,
      "à¦ģ": 3224,
      "conom": 3225,
      "gt": 3226,
      "ux": 3227,
      "Ġfree": 3228,
      "Ġmessage": 3229,
      "ĠĠĠĠĠĠĠĠĠĠĠĠ": 3230,
      "Ġà¤Ĩà¤£": 3231,
      "orage": 3232,
      "Ġà´¤": 3233,
      "........": 3234,
      "uture": 3235,
      "à²ļ": 3236,
      "ĠÃ": 3237,
      "Ġq": 3238,
      "à¤Ŀ": 3239,
      "Ġgreat": 3240,
      "Ġair": 3241,
      "àª¬": 3242,
      "Ġexam": 3243,
      "ĠGet": 3244,
      "PR": 3245,
      "Ø§Ø²": 3246,
      "á±¢": 3247,
      "àª³": 3248,
      "à§Ĥ": 3249,
      "ĠÛĮÛģ": 3250,
      "Ġserv": 3251,
      "ids": 3252,
      "Ġtransform": 3253,
      "Ġpres": 3254,
      "vious": 3255,
      "Date": 3256,
      "Ġdise": 3257,
      "Ġweek": 3258,
      "Pr": 3259,
      "NAME": 3260,
      "null": 3261,
      "ready": 3262,
      "roller": 3263,
      "apache": 3264,
      "Ġpossible": 3265,
      "Array": 3266,
      "ÙħÛĮ": 3267,
      "Ġimpro": 3268,
      "á±¤á±Ń": 3269,
      "fic": 3270,
      "Ġvir": 3271,
      "¨àŃ": 3272,
      "evel": 3273,
      "iving": 3274,
      "It": 3275,
      "gress": 3276,
      "Ġeither": 3277,
      "reate": 3278,
      "Ġsay": 3279,
      "Ġiss": 3280,
      "Ġrepresent": 3281,
      "Ġmap": 3282,
      "ê¯Ī": 3283,
      "Ġàªħàª¨": 3284,
      "aper": 3285,
      "Ġà²Ĩ": 3286,
      "Ġteach": 3287,
      "umn": 3288,
      "expect": 3289,
      "Ġmaterial": 3290,
      "nect": 3291,
      "à¥ī": 3292,
      "uments": 3293,
      "Ġ13": 3294,
      "xy": 3295,
      "à°¬": 3296,
      "Ref": 3297,
      "ients": 3298,
      "adow": 3299,
      "à¯į,": 3300,
      "Val": 3301,
      "equal": 3302,
      "Ġplan": 3303,
      "Ġà¬ħ": 3304,
      "ebug": 3305,
      "push": 3306,
      "Ġtreat": 3307,
      "Param": 3308,
      "à¤µà¤¸": 3309,
      "ero": 3310,
      "ĠBy": 3311,
      ">(": 3312,
      "Event": 3313,
      "Man": 3314,
      "Ġtoget": 3315,
      "à¤¯à¤®": 3316,
      "Ġexp": 3317,
      "Ġtogether": 3318,
      "From": 3319,
      "ru": 3320,
      "Ġdig": 3321,
      "ê¯Łê¯ħ": 3322,
      "à¤ŀ": 3323,
      "Ġhome": 3324,
      "Ġsit": 3325,
      "Ð¸": 3326,
      "amespace": 3327,
      "àµĤ": 3328,
      "SA": 3329,
      "Ġtre": 3330,
      "earch": 3331,
      "std": 3332,
      "Ġcult": 3333,
      "Ø§Ûģ": 3334,
      "Ġà¨Ĺ": 3335,
      "ithub": 3336,
      "bit": 3337,
      "Ø¦ÙĬ": 3338,
      "Message": 3339,
      "ĠPl": 3340,
      "orth": 3341,
      "What": 3342,
      "ches": 3343,
      "ATH": 3344,
      "Úı": 3345,
      "Ġben": 3346,
      "Ġworks": 3347,
      "has": 3348,
      "nc": 3349,
      "andom": 3350,
      "ÙĨÛģ": 3351,
      "ĠÚ©Ù²": 3352,
      "ret": 3353,
      "Ġà²¤": 3354,
      "Up": 3355,
      "ling": 3356,
      "ĠTest": 3357,
      "Ġrespon": 3358,
      "Ġwrite": 3359,
      "oud": 3360,
      "Ø§ÙĤ": 3361,
      "Pl": 3362,
      "06": 3363,
      "ality": 3364,
      "Ġexist": 3365,
      "ESS": 3366,
      "Ġfeel": 3367,
      "Ġsignific": 3368,
      "Ġunt": 3369,
      "acy": 3370,
      "à¥Ģ.": 3371,
      "BU": 3372,
      "Code": 3373,
      "icy": 3374,
      "att": 3375,
      "Ġsocial": 3376,
      "à¤¯à¤¤": 3377,
      "Ġwhe": 3378,
      "á±Łá±±á±Ł": 3379,
      "stru": 3380,
      "Ġimage": 3381,
      "mon": 3382,
      "Ġresponse": 3383,
      "af": 3384,
      "Ġinstall": 3385,
      "cer": 3386,
      "à²¦à²°": 3387,
      "Ġà¦¸à¦®": 3388,
      "ÚĬ": 3389,
      "ender": 3390,
      "cal": 3391,
      "Ġba": 3392,
      "ently": 3393,
      "ards": 3394,
      "Ø¶": 3395,
      "status": 3396,
      "export": 3397,
      "umber": 3398,
      "Ġrisk": 3399,
      "à¬Ļ": 3400,
      "ĠThere": 3401,
      "Ġà¬Ł": 3402,
      "Ġà¤¤à¤°": 3403,
      "Or": 3404,
      "thers": 3405,
      "Ġprovide": 3406,
      "hy": 3407,
      "Ø§ÙĪ": 3408,
      "omet": 3409,
      "object": 3410,
      "Not": 3411,
      "ctx": 3412,
      "Ġeduc": 3413,
      "à¨ĸ": 3414,
      "Response": 3415,
      "à°¶": 3416,
      "Ġá±łá±ļ": 3417,
      "Ġdeterm": 3418,
      "EC": 3419,
      "Ġavailable": 3420,
      "Ġphys": 3421,
      "Ġnode": 3422,
      "Ġterm": 3423,
      "âĢĶ": 3424,
      "ĠCO": 3425,
      "Ġsuccess": 3426,
      "Ġdepend": 3427,
      "Ġli": 3428,
      "Ġlink": 3429,
      "ĠAND": 3430,
      "à¤µà¤¤": 3431,
      "ialog": 3432,
      "Ġcaus": 3433,
      "48": 3434,
      "ĠHowever": 3435,
      "inary": 3436,
      "adius": 3437,
      "à²¶": 3438,
      "Ġdistributed": 3439,
      "********************************": 3440,
      "Ġfore": 3441,
      "Ġoptions": 3442,
      "We": 3443,
      "opyright": 3444,
      "agement": 3445,
      "Ġhead": 3446,
      "And": 3447,
      "Ġprom": 3448,
      "rs": 3449,
      "ĠCont": 3450,
      "Ġcho": 3451,
      "Ġspace": 3452,
      "epend": 3453,
      "}\\": 3454,
      "Ġtitle": 3455,
      "Ġdat": 3456,
      "Table": 3457,
      "Ġfew": 3458,
      "Over": 3459,
      "doc": 3460,
      "Ġvarious": 3461,
      "¸á±": 3462,
      "Ġá±ļ": 3463,
      "Is": 3464,
      "flow": 3465,
      "Ġà¤Ķà¤°": 3466,
      "IP": 3467,
      "pan": 3468,
      "perties": 3469,
      "Ġà¤Ŀ": 3470,
      "Ġlen": 3471,
      "à®ªà®Ł": 3472,
      "á±ŀ": 3473,
      "ĠØªÙĬ": 3474,
      "Ġvalid": 3475,
      "Ġquestion": 3476,
      "desc": 3477,
      "Ġwriting": 3478,
      "Hand": 3479,
      "HT": 3480,
      "Ġsrc": 3481,
      "apt": 3482,
      "Ġexpected": 3483,
      "Ġcur": 3484,
      "Ġbus": 3485,
      "imum": 3486,
      "\".": 3487,
      "header": 3488,
      "Ġspecial": 3489,
      "Ġkind": 3490,
      "Ġsoftware": 3491,
      "uk": 3492,
      "Ġdue": 3493,
      "tra": 3494,
      "SS": 3495,
      "à¬ļ": 3496,
      "à§ĥ": 3497,
      "ibility": 3498,
      "Ġ(\"": 3499,
      "apter": 3500,
      "Ġ24": 3501,
      "EG": 3502,
      "ayer": 3503,
      "OD": 3504,
      "Ġurl": 3505,
      "à¥Īà¥¤": 3506,
      "src": 3507,
      "uro": 3508,
      "server": 3509,
      "next": 3510,
      "Ġcharacter": 3511,
      "Ġha": 3512,
      "Ġinstance": 3513,
      "asc": 3514,
      "ride": 3515,
      "Ġtotal": 3516,
      "à¥¥": 3517,
      "Ġappe": 3518,
      "ills": 3519,
      "idget": 3520,
      "Ġà¤¸à¤ķ": 3521,
      "ÙĨÚ¯": 3522,
      "ĠØĮ": 3523,
      "Ġà¬ľ": 3524,
      "oms": 3525,
      "init": 3526,
      "option": 3527,
      "ored": 3528,
      "Ġlength": 3529,
      "ina": 3530,
      "lex": 3531,
      "Ġà°Ĩ": 3532,
      "oad": 3533,
      "ĠEng": 3534,
      "atures": 3535,
      "Ġlimit": 3536,
      "erms": 3537,
      "Ġsure": 3538,
      "with": 3539,
      "Ġlarge": 3540,
      "CHAR": 3541,
      "Ġtimes": 3542,
      "Ġturn": 3543,
      "à¬ľ": 3544,
      "Read": 3545,
      "ĠIm": 3546,
      "á±ļá±¢": 3547,
      "De": 3548,
      "================================": 3549,
      "////////////////": 3550,
      "Ġparent": 3551,
      "ĠSet": 3552,
      "TER": 3553,
      "ĠDis": 3554,
      "tag": 3555,
      "Ġcost": 3556,
      "ention": 3557,
      "Ġclos": 3558,
      "Ġassoci": 3559,
      "à±ģà°Ĥ": 3560,
      "uster": 3561,
      "TY": 3562,
      "à¬Ĥ": 3563,
      "Ġagainst": 3564,
      "07": 3565,
      "àªļ": 3566,
      "Ġinitial": 3567,
      "build": 3568,
      "Ġà¤µà¤°": 3569,
      "{}": 3570,
      ",\"": 3571,
      "ĠĠĠĠĠĠĠĠĠĠĠĠĠĠ": 3572,
      "Ġnumbers": 3573,
      "Ġban": 3574,
      "ê¯ŀ": 3575,
      "Ġà¤¸à¤°": 3576,
      "Ġproblems": 3577,
      "Ġabs": 3578,
      "URL": 3579,
      "ĠÂ": 3580,
      "Ġlow": 3581,
      "ĠPh": 3582,
      "Úĳ": 3583,
      "ators": 3584,
      "typ": 3585,
      "erc": 3586,
      "quot": 3587,
      "ĉĉĉĉĉĉ": 3588,
      "àŃ¦àŃ¦": 3589,
      "Ø³ØªØ§ÙĨ": 3590,
      "oll": 3591,
      "à³įâĢĮ": 3592,
      "ÙĦÙĬ": 3593,
      "Ġbox": 3594,
      "ged": 3595,
      "../../../../": 3596,
      "86": 3597,
      "call": 3598,
      "Ġens": 3599,
      "ograph": 3600,
      "Ġpotential": 3601,
      "Ġàª²": 3602,
      "github": 3603,
      "Ġins": 3604,
      "Ġmeasure": 3605,
      "event": 3606,
      "Ã©": 3607,
      "ves": 3608,
      "oring": 3609,
      "alf": 3610,
      "à¤¨à¤¨": 3611,
      "reed": 3612,
      "Ġpress": 3613,
      "transform": 3614,
      "End": 3615,
      "open": 3616,
      "à±Ĭ": 3617,
      "Ġparticular": 3618,
      "Ġwhy": 3619,
      "Ġflow": 3620,
      "Ġhig": 3621,
      "ÛĮØ±": 3622,
      "Ġconditions": 3623,
      "Ġpage": 3624,
      "à¥įâĢį": 3625,
      "Ġê¯ĥê¯ħ": 3626,
      "Ġnetwork": 3627,
      "ĠSee": 3628,
      "urther": 3629,
      "conf": 3630,
      "Version": 3631,
      "à¤½": 3632,
      "ological": 3633,
      "ised": 3634,
      "package": 3635,
      "CTION": 3636,
      "Ġdescrib": 3637,
      "SP": 3638,
      "á±®á±Ń": 3639,
      "ÑĤ": 3640,
      "Ġsolid": 3641,
      "No": 3642,
      "ÙĨÛĴ": 3643,
      "display": 3644,
      "IST": 3645,
      "Ġbro": 3646,
      "Ġ#[": 3647,
      "mat": 3648,
      "ÚĮ": 3649,
      "thing": 3650,
      "Ġang": 3651,
      "Ġà¦ªà§°": 3652,
      "frame": 3653,
      "EL": 3654,
      "Ġprof": 3655,
      "else": 3656,
      "ogle": 3657,
      "Ġpur": 3658,
      "izing": 3659,
      "Ġvarchar": 3660,
      "imation": 3661,
      "Ġshort": 3662,
      "Ġà¤īà¤ª": 3663,
      "UP": 3664,
      "ĠST": 3665,
      "Ġdocument": 3666,
      "Ġret": 3667,
      "à¤¾à¤ģ": 3668,
      "Ġhistory": 3669,
      "à¯Ģ": 3670,
      "ecess": 3671,
      "orn": 3672,
      "Loc": 3673,
      "à°§": 3674,
      ">,": 3675,
      "Ġjing": 3676,
      "Ġbu": 3677,
      "write": 3678,
      "Ġport": 3679,
      "âĢĺ": 3680,
      "tual": 3681,
      "imary": 3682,
      "hand": 3683,
      "Ġdesign": 3684,
      ")]": 3685,
      "Ġà´İ": 3686,
      "Ġà¬ªà¬°": 3687,
      "Ù²ÙĨØł": 3688,
      "Ġleg": 3689,
      "ging": 3690,
      "ĠKEY": 3691,
      "Ġà¬¹": 3692,
      "Ġà¬ķà¬°": 3693,
      "Ġaccount": 3694,
      "Ġsqu": 3695,
      "Ġamount": 3696,
      "ustr": 3697,
      "Ġà¤¬à¤¨": 3698,
      "á±®á±«": 3699,
      "ptr": 3700,
      "land": 3701,
      "Ġàªı": 3702,
      "Ù¹Ú¾": 3703,
      "last": 3704,
      "Ġuntil": 3705,
      "à¯Ĥ": 3706,
      "Ġrole": 3707,
      "Ġland": 3708,
      "HER": 3709,
      "sg": 3710,
      "Ġexc": 3711,
      "oved": 3712,
      "Ġà¤®à¤¨": 3713,
      "All": 3714,
      "Ser": 3715,
      "enses": 3716,
      "ĠĠĠĠĠĠĠĠĠĠĠĠĠĠĠĠĠĠĠĠĠĠĠĠĠĠĠĠĠĠĠ": 3717,
      "Ġschool": 3718,
      "outh": 3719,
      "Ġfull": 3720,
      "allet": 3721,
      "á±¤á±«": 3722,
      "Ġroot": 3723,
      "31": 3724,
      "border": 3725,
      "à´§": 3726,
      "Ġê¯ı": 3727,
      "child": 3728,
      "Ġsignificant": 3729,
      "Ð½": 3730,
      "à¥Ģ,": 3731,
      "ours": 3732,
      "ury": 3733,
      "àµįâĢĮ": 3734,
      "aps": 3735,
      "ĠÚ©Ø§ÙĨ": 3736,
      "Ġcome": 3737,
      "Ġdevelopment": 3738,
      "Ġperiod": 3739,
      "80": 3740,
      "OF": 3741,
      "Ġopt": 3742,
      "Ġbi": 3743,
      "Ġobtain": 3744,
      "fn": 3745,
      "Of": 3746,
      "post": 3747,
      "Ġnat": 3748,
      "Start": 3749,
      "ained": 3750,
      "Ġcy": 3751,
      "à¬¯": 3752,
      "Status": 3753,
      "à©ĭà¨Ĥ": 3754,
      "ÛĦØ³": 3755,
      "ĠDEFAULT": 3756,
      "host": 3757,
      "pen": 3758,
      "Ġcertain": 3759,
      "clus": 3760,
      "Ġanswer": 3761,
      "ÙĦÛģ": 3762,
      "Ġà¨ħà¨¤": 3763,
      "Ġothers": 3764,
      "à²§": 3765,
      "ump": 3766,
      "!--": 3767,
      "now": 3768,
      "Ġà²İ": 3769,
      "DB": 3770,
      "à¨§": 3771,
      "Ġhard": 3772,
      "ended": 3773,
      "ĠàŃ§": 3774,
      "aim": 3775,
      "css": 3776,
      "Ġnormal": 3777,
      "Query": 3778,
      "60": 3779,
      "ĠÙ¿ÙĬ": 3780,
      "pi": 3781,
      "Ġpo": 3782,
      "Ġable": 3783,
      "Ġmonth": 3784,
      "ideo": 3785,
      "PRO": 3786,
      "User": 3787,
      "Ġà¤ħà¤§": 3788,
      "Ġservice": 3789,
      "ops": 3790,
      "ogn": 3791,
      "Ġauto": 3792,
      "({": 3793,
      "ê¯ĳ": 3794,
      "inition": 3795,
      "Color": 3796,
      "Ġmus": 3797,
      "Ġàª¶": 3798,
      "Ġà²ĩ": 3799,
      "Ø§Ø±Ûģ": 3800,
      "à§¦": 3801,
      "Ġá±łá±·": 3802,
      "Ġclear": 3803,
      "Ġgot": 3804,
      "mo": 3805,
      "Ø§Ø¡": 3806,
      "Ġá±¦á±ļá±": 3807,
      "Ġmaking": 3808,
      "ĠReg": 3809,
      "Ú¯Ø±": 3810,
      "raft": 3811,
      "77": 3812,
      "à¬¥": 3813,
      "Ġá±¨á±®á±±á±Łá±ľ": 3814,
      "Inst": 3815,
      "Ġfocus": 3816,
      "ĠØªÙĪ": 3817,
      "NS": 3818,
      "eta": 3819,
      "Ġweight": 3820,
      "Ġcenter": 3821,
      "à¤¾à¥Ĵ": 3822,
      "Ø§Ú»": 3823,
      "Ġà¬¨": 3824,
      "Ġà¨ķà¨°": 3825,
      "icro": 3826,
      "aint": 3827,
      "ude": 3828,
      "à¤Ĺà¤°": 3829,
      "à´Ĺ": 3830,
      "output": 3831,
      "89": 3832,
      "ÙĨÛĮ": 3833,
      "Ġsuper": 3834,
      "Ġà¤ħà¤ªà¤¨": 3835,
      "LIC": 3836,
      "til": 3837,
      "Ġalready": 3838,
      "Ġpoints": 3839,
      "page": 3840,
      "Ġ(`": 3841,
      "ayout": 3842,
      "ilt": 3843,
      "Ġexcept": 3844,
      "ales": 3845,
      "Ġant": 3846,
      "à´ŀ": 3847,
      "tries": 3848,
      "Ġgive": 3849,
      "Trans": 3850,
      "UM": 3851,
      "à¤¾à¥¤": 3852,
      "rodu": 3853,
      "label": 3854,
      "Ġinvolv": 3855,
      "resh": 3856,
      "lood": 3857,
      "Ġê¯ĩ": 3858,
      "Ġà¬¤": 3859,
      "ending": 3860,
      "printf": 3861,
      "Ġcomplex": 3862,
      "Ġfamily": 3863,
      "Ġbecome": 3864,
      "Ġarray": 3865,
      "ÑĢ": 3866,
      "\\\\": 3867,
      "Str": 3868,
      "root": 3869,
      "Ġaway": 3870,
      "Ġà²°": 3871,
      "ĠOnce": 3872,
      "Ġseveral": 3873,
      "ĠFr": 3874,
      "Ġbelow": 3875,
      "Arg": 3876,
      "Ġsaw": 3877,
      "ĠÛĮÛĦØ³": 3878,
      "impl": 3879,
      "ØªÛĮ": 3880,
      "Ġapplic": 3881,
      "iev": 3882,
      "ê¯¡ê¯Ĺ": 3883,
      "ajor": 3884,
      "à¤°à¤µ": 3885,
      "istic": 3886,
      "ĠQu": 3887,
      "Ġrelations": 3888,
      "Ġsingle": 3889,
      "How": 3890,
      "dt": 3891,
      "Ġes": 3892,
      "à¥ħ": 3893,
      "ĠÙĨÛģ": 3894,
      "ĠNo": 3895,
      "Ġgovernment": 3896,
      "Count": 3897,
      "ounds": 3898,
      "Ġmass": 3899,
      "Ġprob": 3900,
      "Build": 3901,
      "ensor": 3902,
      "Ġdiscuss": 3903,
      "Ġtask": 3904,
      "Ġfac": 3905,
      "Ġchanges": 3906,
      "Ġrg": 3907,
      "ially": 3908,
      "change": 3909,
      "cs": 3910,
      "Ġinvest": 3911,
      "mand": 3912,
      "format": 3913,
      "á±Łá±ŀ": 3914,
      "ÙĪÙħ": 3915,
      "array": 3916,
      "à¤¿à¥¤": 3917,
      "Ġà¨Ĩ": 3918,
      "ĠCopyright": 3919,
      "thon": 3920,
      "leg": 3921,
      "Ġbit": 3922,
      "ixed": 3923,
      "Ġamong": 3924,
      "àªĪ": 3925,
      "Ġà¬Ń": 3926,
      "à´ķà´³": 3927,
      "level": 3928,
      "Ġ>>": 3929,
      "\\\"": 3930,
      "ips": 3931,
      "SC": 3932,
      "à¤²à¤ķ": 3933,
      "dict": 3934,
      "ÙĪØ³": 3935,
      "Ġclient": 3936,
      "AP": 3937,
      "Ġside": 3938,
      "à¤²à¤¨": 3939,
      "aves": 3940,
      "ĠVAR": 3941,
      "Ġcreated": 3942,
      "Ġà¥¥": 3943,
      "lished": 3944,
      "important": 3945,
      "Ġnear": 3946,
      "Ġcrit": 3947,
      "ĠAd": 3948,
      "Ġà°ī": 3949,
      "á±Łá±£": 3950,
      "local": 3951,
      "ĠØªÚ¾": 3952,
      "Ġthought": 3953,
      "Ġsimple": 3954,
      "filter": 3955,
      "Ġfloat": 3956,
      "65": 3957,
      "que": 3958,
      "cx": 3959,
      "Ġstyle": 3960,
      "Ġhappy": 3961,
      "ĠIs": 3962,
      "Ġmil": 3963,
      "Ġà¤ķà¤°à¤¨": 3964,
      "Ġterms": 3965,
      "aging": 3966,
      "rior": 3967,
      "Ġfilename": 3968,
      "Ġà®ī": 3969,
      "iddle": 3970,
      "ĠÚı": 3971,
      "Ø³ØªÙ²ÙĨØł": 3972,
      "istry": 3973,
      "Ġfun": 3974,
      "49": 3975,
      "Form": 3976,
      "''": 3977,
      "CREATE": 3978,
      "Ġfour": 3979,
      "Ġconcept": 3980,
      "ĠâĪ": 3981,
      "first": 3982,
      "ĠErr": 3983,
      "late": 3984,
      "Inter": 3985,
      "Ġtemper": 3986,
      "Ġtrad": 3987,
      "ponents": 3988,
      "Ġrate": 3989,
      "à²µà²°": 3990,
      "do": 3991,
      "CC": 3992,
      "SI": 3993,
      "#!": 3994,
      "rypt": 3995,
      "Fr": 3996,
      "current": 3997,
      "dom": 3998,
      "255": 3999,
      "Ġrecord": 4000,
      "abase": 4001,
      ":\"": 4002,
      "Ġcause": 4003,
      "à¤°à¤¦": 4004,
      "Ġwhether": 4005,
      "QU": 4006,
      "Ġinc": 4007,
      "ĠOr": 4008,
      "Ġpercent": 4009,
      "à©Į": 4010,
      "á±¤á±±": 4011,
      "Ġà§°": 4012,
      "ENSE": 4013,
      "ĉĊ": 4014,
      "Ġlarg": 4015,
      "Ġnever": 4016,
      "Ùļ": 4017,
      "Ġformat": 4018,
      "Ġoption": 4019,
      "á±´": 4020,
      "env": 4021,
      "Ġindu": 4022,
      "Ġimplement": 4023,
      "older": 4024,
      "47": 4025,
      "idence": 4026,
      "Ġà°¦": 4027,
      "Ġsystems": 4028,
      "wards": 4029,
      "irl": 4030,
      "req": 4031,
      "ointer": 4032,
      "gor": 4033,
      "uh": 4034,
      "Ġnamed": 4035,
      "Ġsimilar": 4036,
      "options": 4037,
      "https": 4038,
      "Manager": 4039,
      "Fil": 4040,
      "cf": 4041,
      "posed": 4042,
      "Ø§Ø±ÙĬ": 4043,
      "Ġ((": 4044,
      "à¤Ĺà¤¤": 4045,
      "\"),": 4046,
      "plit": 4047,
      "Ġelements": 4048,
      "Ġfiles": 4049,
      "core": 4050,
      "otion": 4051,
      "Fl": 4052,
      "Ġexit": 4053,
      "Ġà¦Ĩà§°": 4054,
      "rm": 4055,
      "ĠTHE": 4056,
      "Ġalong": 4057,
      "background": 4058,
      "ken": 4059,
      "à³ģ.": 4060,
      "bol": 4061,
      "Ġstrong": 4062,
      "à®µà®°": 4063,
      "ĠÚ©Ù²Ùħ": 4064,
      "Ġ{}": 4065,
      "uid": 4066,
      "Ġcourse": 4067,
      "ication": 4068,
      "shadow": 4069,
      "Ġdom": 4070,
      "à´¶": 4071,
      "Ġgeneral": 4072,
      "Pre": 4073,
      "rowser": 4074,
      "Ġnecess": 4075,
      "Ġà´ļ": 4076,
      "edia": 4077,
      "Ġactiv": 4078,
      "Ġcorrect": 4079,
      "You": 4080,
      "ĠEn": 4081,
      "ATION": 4082,
      "Ġquestions": 4083,
      "XX": 4084,
      "ĠInt": 4085,
      "Ġdraw": 4086,
      "pose": 4087,
      "Ġeconom": 4088,
      "Source": 4089,
      "à¦ł": 4090,
      "oper": 4091,
      "ĠON": 4092,
      "ountry": 4093,
      "85": 4094,
      "Ġage": 4095,
      "Ġther": 4096,
      "Ġà¦¥": 4097,
      "Ġcommand": 4098,
      "Ġbegin": 4099,
      "Ġbehav": 4100,
      "Ġprevent": 4101,
      "Ġdefined": 4102,
      "Ġreason": 4103,
      "Ġchall": 4104,
      "à¬Ń": 4105,
      "Ġdate": 4106,
      "olve": 4107,
      "Ġimpact": 4108,
      "03": 4109,
      "Ġneg": 4110,
      "ĠCal": 4111,
      "quence": 4112,
      "itory": 4113,
      "Ġstructure": 4114,
      "Ġinfl": 4115,
      "Ø§Ùģ": 4116,
      "Ġseem": 4117,
      "Ġbenef": 4118,
      "PATH": 4119,
      "mx": 4120,
      "MENT": 4121,
      "Ġfar": 4122,
      "ROM": 4123,
      "ĳá±": 4124,
      "Ġà°ĩ": 4125,
      "kn": 4126,
      "àµ½": 4127,
      "Ġwords": 4128,
      "oney": 4129,
      "Ġà¥¨": 4130,
      "ilities": 4131,
      "TR": 4132,
      "à¥ĩ,": 4133,
      "ĠØ¬ÙĨ": 4134,
      "rist": 4135,
      "{\"": 4136,
      "eh": 4137,
      "Dis": 4138,
      "tot": 4139,
      "Ġà¦°": 4140,
      "Ġlab": 4141,
      "weight": 4142,
      "SET": 4143,
      "Ġgoing": 4144,
      "Ø³ÛĮ": 4145,
      "mem": 4146,
      "request": 4147,
      "Ġmajor": 4148,
      "ÙĪØ¯": 4149,
      "false": 4150,
      "Ġuint": 4151,
      "Ġ199": 4152,
      "Ġacross": 4153,
      "LI": 4154,
      "ĠAss": 4155,
      "ĠàªĹ": 4156,
      "Ġneeds": 4157,
      "à¤¿à¥Ĵ": 4158,
      "aml": 4159,
      "acc": 4160,
      "Ø¯Ø§Ú©": 4161,
      "Ġfuture": 4162,
      "Ġunderstanding": 4163,
      "ocket": 4164,
      "Ġrest": 4165,
      "à©ľ": 4166,
      "ĠØ³Ø§ÙĨ": 4167,
      "ĠUniversity": 4168,
      "NO": 4169,
      "Ġfail": 4170,
      "âĢĭ": 4171,
      "à¥ĩà¤ģ": 4172,
      "á±Łá±Ŀ": 4173,
      "close": 4174,
      "anch": 4175,
      "Ġdisease": 4176,
      "Ġà¦ĩ": 4177,
      "Sub": 4178,
      "Ġà¤ł": 4179,
      "ĠThat": 4180,
      "Ġgraph": 4181,
      "#[": 4182,
      "Ġà®Ĩ": 4183,
      "Ġà´ĩ": 4184,
      "Ġdays": 4185,
      "Call": 4186,
      "tab": 4187,
      "Ġá±łá±Łá±±á±Ł": 4188,
      "Ġà¨ĩà¨¸": 4189,
      "cast": 4190,
      "à²¿à²Ĥ": 4191,
      "ĠGr": 4192,
      "uint": 4193,
      "vers": 4194,
      "ival": 4195,
      "ĠTim": 4196,
      "Ġoriginal": 4197,
      "Rec": 4198,
      "ĠÛģÛĮÚº": 4199,
      "DD": 4200,
      "po": 4201,
      "à¤ĵ": 4202,
      "Ġpay": 4203,
      "ÙĨØ§": 4204,
      "àµį.": 4205,
      "ĠWith": 4206,
      "ĠØªÙĩ": 4207,
      "Ġleast": 4208,
      "Ġjava": 4209,
      "mary": 4210,
      "Ġfriends": 4211,
      "Ġcountry": 4212,
      "ably": 4213,
      "ynam": 4214,
      "Ġà°Ĺ": 4215,
      "Ġà´Ĩ": 4216,
      "Ġà¦¹à¦¯": 4217,
      "Ġàª¹àª¤": 4218,
      "expected": 4219,
      "asing": 4220,
      "vis": 4221,
      "struction": 4222,
      "àµ¼": 4223,
      "à¤°à¤¹": 4224,
      "ledge": 4225,
      "fect": 4226,
      "na": 4227,
      "à¤ļà¤¨": 4228,
      "([": 4229,
      "query": 4230,
      "radius": 4231,
      "Ġscale": 4232,
      "gorith": 4233,
      "US": 4234,
      "sy": 4235,
      "ĠANY": 4236,
      "mark": 4237,
      ":-": 4238,
      "tml": 4239,
      "Wh": 4240,
      "Ġaction": 4241,
      "mission": 4242,
      "Off": 4243,
      "Ø¬ÙĬ": 4244,
      "Ġ$\\": 4245,
      "á±Łá±¢": 4246,
      "Ø¯Ø§Ú©Ø§Ø±Ûģ": 4247,
      "Ġload": 4248,
      "Ġ21": 4249,
      "istance": 4250,
      "ĠAmerican": 4251,
      "Ġtoday": 4252,
      "à¤¤à¤²": 4253,
      "ĠCan": 4254,
      "Ġindic": 4255,
      "àªŃ": 4256,
      "Ġgirl": 4257,
      "Ġworking": 4258,
      "ĠÚ¾": 4259,
      "Ġframe": 4260,
      "annel": 4261,
      "uation": 4262,
      "Ġprovided": 4263,
      "actions": 4264,
      "atform": 4265,
      "Ġtree": 4266,
      "ĠReturn": 4267,
      "Ġsearch": 4268,
      "}$": 4269,
      "ĠÙ»": 4270,
      "ifier": 4271,
      "ugin": 4272,
      "hemat": 4273,
      "ê¯į": 4274,
      "ĠGener": 4275,
      "ê¯¡ê¯Ĥ": 4276,
      "fa": 4277,
      "Ġcustom": 4278,
      "istics": 4279,
      "Ġ-->": 4280,
      "ERR": 4281,
      "leep": 4282,
      "Ġreally": 4283,
      "Ġ===": 4284,
      "ĠĠĠĠĠĠĠĠĊ": 4285,
      "ĠDr": 4286,
      "append": 4287,
      "utions": 4288,
      "Ġra": 4289,
      "Ġcover": 4290,
      "Ġways": 4291,
      "Ġ**": 4292,
      "Ġà¦ĵ": 4293,
      "endif": 4294,
      "Ġrot": 4295,
      "alt": 4296,
      "Ġnumer": 4297,
      "ones": 4298,
      "actory": 4299,
      "Us": 4300,
      "Ġarr": 4301,
      "aff": 4302,
      "buf": 4303,
      "find": 4304,
      "Ġver": 4305,
      "IND": 4306,
      "à¤¯à¤¸": 4307,
      "á±®á±ł": 4308,
      "method": 4309,
      "Ġhaving": 4310,
      "Ġdeb": 4311,
      "Ġscient": 4312,
      "sk": 4313,
      "AGE": 4314,
      "margin": 4315,
      "Ġà¤Ĩà¤¸": 4316,
      "LOG": 4317,
      "Ġá±±á±ļá±": 4318,
      "ê¯°ê¯°": 4319,
      "ration": 4320,
      "Ġ'',": 4321,
      "ĠWIT": 4322,
      "Ġresource": 4323,
      "Ġey": 4324,
      "ĠVARCHAR": 4325,
      "Pos": 4326,
      "aring": 4327,
      "Ġwomen": 4328,
      "Ġexperience": 4329,
      "ĠTe": 4330,
      "Ġà°¬": 4331,
      "Ġexec": 4332,
      "Ġà¬ıà¬¬": 4333,
      "Model": 4334,
      "lev": 4335,
      "87": 4336,
      "Ġhold": 4337,
      "target": 4338,
      "à¤¹à¤£": 4339,
      "Ġregion": 4340,
      "ene": 4341,
      "Ġearly": 4342,
      "au": 4343,
      "pass": 4344,
      "une": 4345,
      "gre": 4346,
      "Ġfilter": 4347,
      ")/": 4348,
      "aged": 4349,
      "á±Łá±Ľ": 4350,
      "Ġrgba": 4351,
      "ieve": 4352,
      "Ġsn": 4353,
      "ises": 4354,
      "heet": 4355,
      "ĠInst": 4356,
      "Ġcases": 4357,
      "Ġhy": 4358,
      "Ġà®İà®©": 4359,
      "curity": 4360,
      "Input": 4361,
      "ALL": 4362,
      "ula": 4363,
      "Ġunit": 4364,
      "JS": 4365,
      "ê¯¡ê¯Ĵ": 4366,
      "rl": 4367,
      "parse": 4368,
      "_.": 4369,
      "ORT": 4370,
      "Ġà¦ĸ": 4371,
      "Ġà¤¨à¤¹": 4372,
      "template": 4373,
      "etic": 4374,
      "Ġpattern": 4375,
      "Ġmethods": 4376,
      "then": 4377,
      "Ġwent": 4378,
      "Ġà¤ķà¤®": 4379,
      "Ġstarted": 4380,
      "Ġstatus": 4381,
      "=\"$": 4382,
      "Ġà¤īà¤¨": 4383,
      "Ġassociated": 4384,
      "ARRA": 4385,
      "./": 4386,
      "Ġrespons": 4387,
      "CA": 4388,
      "àµģ.": 4389,
      "á±¤á±¥": 4390,
      "ung": 4391,
      "<'": 4392,
      "Ġlater": 4393,
      "ci": 4394,
      "chan": 4395,
      "Ġê¯Ĭ": 4396,
      "Ġà¤ķà¤¹": 4397,
      "Ġfrequ": 4398,
      "Ġforce": 4399,
      "Ġsugg": 4400,
      "Ġbusiness": 4401,
      "ĠDe": 4402,
      "Ġenough": 4403,
      "Ġclean": 4404,
      "Ġnatural": 4405,
      "Ġà¦ıà¦ķ": 4406,
      "git": 4407,
      "Action": 4408,
      "ached": 4409,
      "hema": 4410,
      "Ġauthor": 4411,
      "Ġconsum": 4412,
      "uit": 4413,
      "à¤°à¤ĸ": 4414,
      "Ġanalysis": 4415,
      "Ġsuggest": 4416,
      "59": 4417,
      "ĠÙĬ": 4418,
      "board": 4419,
      "igure": 4420,
      "Ġwon": 4421,
      "à¤¸à¤²": 4422,
      "à¬Ľ": 4423,
      "Ġmakes": 4424,
      "ARY": 4425,
      "Ġcannot": 4426,
      "pression": 4427,
      "69": 4428,
      "Ġà²ľ": 4429,
      "oration": 4430,
      "Ġproperty": 4431,
      "Ġà¤ľà¤¨": 4432,
      "à¬¬à¬¨": 4433,
      "atory": 4434,
      "Ġphot": 4435,
      "Ġill": 4436,
      "Ġder": 4437,
      "Ġglobal": 4438,
      "Ø§Ø¦ÙĬ": 4439,
      "Address": 4440,
      "Image": 4441,
      "inline": 4442,
      "iding": 4443,
      "Ġge": 4444,
      "idden": 4445,
      "Desc": 4446,
      "Ġupdate": 4447,
      "ficult": 4448,
      "aa": 4449,
      "egin": 4450,
      "olute": 4451,
      "Ġareas": 4452,
      "à¤¶à¤¨": 4453,
      "container": 4454,
      "á±«": 4455,
      "Ġonce": 4456,
      "à¬¬à¬°": 4457,
      "verage": 4458,
      "SION": 4459,
      "Ġhigher": 4460,
      ";</": 4461,
      "aken": 4462,
      "Ġsolution": 4463,
      "\").": 4464,
      "ires": 4465,
      "ĠMod": 4466,
      "á±¼": 4467,
      "Ġoffer": 4468,
      "Ġobserv": 4469,
      "'re": 4470,
      "Ġsubject": 4471,
      "3333": 4472,
      "Ġrelationship": 4473,
      "ising": 4474,
      "Ø¦ÛĴ": 4475,
      "®àŃ": 4476,
      "ê¯Ĩ": 4477,
      "Ġprevious": 4478,
      "main": 4479,
      "Ġincrease": 4480,
      "stream": 4481,
      "_,": 4482,
      "Ġá±ª": 4483,
      "à§°à¦¤": 4484,
      "Ġbound": 4485,
      "Ġlot": 4486,
      "Ġpy": 4487,
      "ÙĪØ§ÙĨ": 4488,
      "Ġboolean": 4489,
      "Oper": 4490,
      "atter": 4491,
      "Ġà¤²à¤Ĺ": 4492,
      "dec": 4493,
      "à¤ªà¤¤": 4494,
      "ĠÙħÙĪ": 4495,
      "element": 4496,
      "Ġfunctions": 4497,
      "Ġfriend": 4498,
      "à¤¸à¤°": 4499,
      "ĠÙħÙĦ": 4500,
      "model": 4501,
      "service": 4502,
      "Options": 4503,
      "menu": 4504,
      "Ġpaper": 4505,
      "à¤Łà¤°": 4506,
      "Ġmove": 4507,
      "LECT": 4508,
      "à¤¦à¤°": 4509,
      "ĠàªĨàªµ": 4510,
      "Ġred": 4511,
      "pond": 4512,
      "Ġwindow": 4513,
      "dat": 4514,
      "Ġmag": 4515,
      "á±ľ": 4516,
      "à¤¤à¤®": 4517,
      "bed": 4518,
      "Ġessential": 4519,
      "Ad": 4520,
      "Ġrow": 4521,
      "Ġstop": 4522,
      "Ø¦ÛĮ": 4523,
      "ĠDef": 4524,
      "mar": 4525,
      "Ġ40": 4526,
      "Ġsays": 4527,
      "Ġmath": 4528,
      "Ġà²¦": 4529,
      "IGN": 4530,
      "Ø±Ùħ": 4531,
      "bool": 4532,
      "Ġwanted": 4533,
      "grad": 4534,
      "!(\"": 4535,
      "float": 4536,
      "ping": 4537,
      "á±¯": 4538,
      "à¤¬à¤°": 4539,
      "Ġinstead": 4540,
      "igation": 4541,
      "Ġgame": 4542,
      "Ġbar": 4543,
      "à¤µà¤²": 4544,
      "Ġneeded": 4545,
      "la": 4546,
      "ĠĠĠĠĠĠĠĠĠĠĠĠĠĠĠĠĠ": 4547,
      "Util": 4548,
      "Ġdevice": 4549,
      "angle": 4550,
      "Ġhttps": 4551,
      "cat": 4552,
      "Ġir": 4553,
      "OST": 4554,
      "Ġprote": 4555,
      "Ġà¤Ĩà¤ª": 4556,
      "coin": 4557,
      "igger": 4558,
      "ĠList": 4559,
      "Title": 4560,
      "control": 4561,
      "aan": 4562,
      "Ġlower": 4563,
      "??": 4564,
      "ê¯ĥê¯ģ": 4565,
      "=\"../../../../": 4566,
      "astic": 4567,
      "àª·": 4568,
      "à´´": 4569,
      "ĠØ¶": 4570,
      "Ġà¤ªà¤¹": 4571,
      "ffff": 4572,
      "Ġlevels": 4573,
      "Override": 4574,
      "MS": 4575,
      "Ġà¦ħà¦¨": 4576,
      "Ġwhite": 4577,
      "`)": 4578,
      "verse": 4579,
      "57": 4580,
      "Ġê¯Į": 4581,
      "Ġmiss": 4582,
      "ĠDo": 4583,
      "à°£": 4584,
      "Ġdouble": 4585,
      "EXT": 4586,
      "Ġdoesn": 4587,
      "Ġcontinue": 4588,
      "iff": 4589,
      "byte": 4590,
      "NULL": 4591,
      "most": 4592,
      "ibrary": 4593,
      "Ġà¤Ĩà¤²": 4594,
      "da": 4595,
      "wise": 4596,
      "Ġbird": 4597,
      "roid": 4598,
      "=$(": 4599,
      "Ġvol": 4600,
      "Token": 4601,
      "Block": 4602,
      "ites": 4603,
      "Ġfurther": 4604,
      "elt": 4605,
      "unwrap": 4606,
      "irection": 4607,
      "foo": 4608,
      "ĠâĢĶ": 4609,
      "ĠIndia": 4610,
      "Ġcirc": 4611,
      "{{": 4612,
      "àªĸ": 4613,
      "á±©á±¨": 4614,
      "oly": 4615,
      "Ġlines": 4616,
      "NE": 4617,
      "à¨ĩ": 4618,
      "ÙĬØ§": 4619,
      "à³Ī": 4620,
      "Úĺ": 4621,
      "acing": 4622,
      "Ġdistribution": 4623,
      "Run": 4624,
      "Ġos": 4625,
      "Ġdiscover": 4626,
      "dep": 4627,
      "drop": 4628,
      "Ġsat": 4629,
      "à¤Ĺà¤²": 4630,
      "Ġ~": 4631,
      "á±°": 4632,
      "à²¦à²²": 4633,
      "TYPE": 4634,
      "ãĢ": 4635,
      "amples": 4636,
      "ĠMar": 4637,
      "Ġaccording": 4638,
      "Ġdest": 4639,
      "expr": 4640,
      "Ġrights": 4641,
      "ks": 4642,
      "There": 4643,
      "Ġá±©": 4644,
      "TH": 4645,
      "Ġsun": 4646,
      "Ġhost": 4647,
      "Ġpositive": 4648,
      "ĠCent": 4649,
      "ĠUnited": 4650,
      "Ġpopulation": 4651,
      "ĠÚªØ±ÙĬ": 4652,
      "Ġcontinu": 4653,
      "à¤¸à¤¨": 4654,
      "True": 4655,
      "Port": 4656,
      "WOR": 4657,
      "à¬¼": 4658,
      "ITY": 4659,
      "Ġà¥§à¥": 4660,
      "ĠLily": 4661,
      "upport": 4662,
      "(-": 4663,
      "Ġmar": 4664,
      "Ġyet": 4665,
      "Ġà¨ļ": 4666,
      "Ġê¯ĥê¯ĩ": 4667,
      "Ġsent": 4668,
      "known": 4669,
      "Ob": 4670,
      ")</": 4671,
      "Ġmultiple": 4672,
      "#!/": 4673,
      "!\"": 4674,
      "Ġpain": 4675,
      "Ġpast": 4676,
      "Ġensure": 4677,
      "Method": 4678,
      "kg": 4679,
      "à¤ķà¤²": 4680,
      "ĠID": 4681,
      "msg": 4682,
      "amb": 4683,
      "bb": 4684,
      "ACK": 4685,
      "Ñģ": 4686,
      "Ø«": 4687,
      "Ġindustr": 4688,
      "Ġequation": 4689,
      "Select": 4690,
      "Ġà¦Ľ": 4691,
      "udd": 4692,
      "Ġrespect": 4693,
      "Ġtechnology": 4694,
      "ategory": 4695,
      "à¥¨": 4696,
      "Ġwalk": 4697,
      "though": 4698,
      "number": 4699,
      "Ġstandard": 4700,
      "ĠCol": 4701,
      "aced": 4702,
      "àªĵ": 4703,
      "Ġê¯Ĺ": 4704,
      "Ġà¤ķà¤¨": 4705,
      "ARRANT": 4706,
      "urope": 4707,
      "oon": 4708,
      "Ø¨Ø±": 4709,
      "Ġcomplet": 4710,
      "entry": 4711,
      "Ġ]];": 4712,
      "ensed": 4713,
      "à¯ģ.": 4714,
      "Ġresources": 4715,
      "break": 4716,
      "mail": 4717,
      "ART": 4718,
      "Ġ$(": 4719,
      "Ġunique": 4720,
      "Ġquick": 4721,
      "ĠØ±ÙĪ": 4722,
      "à¦ľà¦¨": 4723,
      "Ġà°²": 4724,
      "tt": 4725,
      "adata": 4726,
      "CODE": 4727,
      "ĠWARRANT": 4728,
      "Ġspeed": 4729,
      "àµĬ": 4730,
      "Handler": 4731,
      "Ġsurface": 4732,
      "Ð»": 4733,
      "aph": 4734,
      "Ġà¤¸à¤°à¤ķ": 4735,
      "ê¯ĭ": 4736,
      "aries": 4737,
      "à§·": 4738,
      "Ġà¦«": 4739,
      "ĠUs": 4740,
      "Ġdifficult": 4741,
      "ĠÙĩÚª": 4742,
      "Ġtreatment": 4743,
      "Function": 4744,
      "pc": 4745,
      "pha": 4746,
      "ASS": 4747,
      "Ġassum": 4748,
      "Write": 4749,
      "Ġvert": 4750,
      "pri": 4751,
      "Ġmode": 4752,
      "Ġclose": 4753,
      "addr": 4754,
      "FILE": 4755,
      "Ġeducation": 4756,
      "Server": 4757,
      "utes": 4758,
      "à¤¸à¤®": 4759,
      "Ġinterface": 4760,
      "Ġreturns": 4761,
      "ief": 4762,
      ".)": 4763,
      "Ø´ÛĮ": 4764,
      "esh": 4765,
      "Ġmind": 4766,
      "Ġliter": 4767,
      "Ġcommunity": 4768,
      "Ġanaly": 4769,
      "PL": 4770,
      "Ġusually": 4771,
      "lying": 4772,
      "àŃ±à¬°": 4773,
      "Ġet": 4774,
      "Ġblood": 4775,
      "Ġpressure": 4776,
      "ores": 4777,
      "ÙĬÙĦ": 4778,
      "ĠVersion": 4779,
      "ched": 4780,
      "Ġà¬ł": 4781,
      "avel": 4782,
      "68": 4783,
      "Number": 4784,
      "Ġtw": 4785,
      "Ġtell": 4786,
      "Ġissues": 4787,
      "country": 4788,
      "ĠÎ": 4789,
      "riter": 4790,
      "ê¯Ĭ": 4791,
      "ison": 4792,
      "ĠPar": 4793,
      "ĠÙĩÙĪ": 4794,
      "àŃ§àŃ¦àŃ¦": 4795,
      "So": 4796,
      "ÙĦØ§Ùħ": 4797,
      "Ø¯ÛĮ": 4798,
      "Ġhappen": 4799,
      "Ġavoid": 4800,
      "Ġserver": 4801,
      "Ġgrad": 4802,
      "tempt": 4803,
      "à´¡": 4804,
      "fully": 4805,
      "Base": 4806,
      "atio": 4807,
      "Ġquant": 4808,
      "Ġsite": 4809,
      "ĠÙħÙĨ": 4810,
      "erg": 4811,
      "Ġstory": 4812,
      "à°¹": 4813,
      "Ġê¯Ĳ": 4814,
      "Ġadded": 4815,
      "ĠMan": 4816,
      "Stream": 4817,
      "Øº": 4818,
      "img": 4819,
      "TP": 4820,
      "Ġcat": 4821,
      "ĠÙħØŃ": 4822,
      "Ġteam": 4823,
      ")(": 4824,
      "alle": 4825,
      "Ġyoung": 4826,
      "ls": 4827,
      "Ġ23": 4828,
      "ARG": 4829,
      "Ġcoll": 4830,
      "Ġblack": 4831,
      "cing": 4832,
      "ians": 4833,
      "à¤¦à¤¨": 4834,
      "Ġsubst": 4835,
      "à¬°à¬¤": 4836,
      "Ġà¦ıà¦ĩ": 4837,
      ",'": 4838,
      "pli": 4839,
      "AND": 4840,
      "itude": 4841,
      "Ġsepar": 4842,
      "Ġund": 4843,
      "Ġcombin": 4844,
      "Ġ22": 4845,
      "icient": 4846,
      "Ġplant": 4847,
      "++)": 4848,
      "[\"": 4849,
      "ety": 4850,
      "ê¯ĸ": 4851,
      "Ġground": 4852,
      "ĠÙĦÛĮ": 4853,
      "rate": 4854,
      "ĠStates": 4855,
      "Ġhouse": 4856,
      "\"));": 4857,
      "à¤¸à¤ķ": 4858,
      "à´ľ": 4859,
      "heme": 4860,
      "Ġgroups": 4861,
      "ike": 4862,
      "VID": 4863,
      "ĠÙ¹": 4864,
      "anced": 4865,
      "navbar": 4866,
      "]);": 4867,
      "raw": 4868,
      "amily": 4869,
      "TO": 4870,
      "Check": 4871,
      "iler": 4872,
      "ĠRE": 4873,
      "Command": 4874,
      "LICENSE": 4875,
      "Ġmoney": 4876,
      "Ġà¦Ł": 4877,
      "update": 4878,
      "sq": 4879,
      "Default": 4880,
      "Ġmodels": 4881,
      "TE": 4882,
      "Ġlabel": 4883,
      "Ġrefer": 4884,
      "Property": 4885,
      "Ġtim": 4886,
      "Ġsort": 4887,
      "Ġinside": 4888,
      "offset": 4889,
      "à¤¯à¤²": 4890,
      "Ġtranslate": 4891,
      "medi": 4892,
      "ypes": 4893,
      "ATA": 4894,
      "Ġopacity": 4895,
      "Ġmillion": 4896,
      "').": 4897,
      "Ġactivities": 4898,
      "à¬Ĩ": 4899,
      "Ġthrow": 4900,
      "Ġasked": 4901,
      "ming": 4902,
      "Ã¡": 4903,
      "Ġstre": 4904,
      "Ġcountries": 4905,
      "Ġbal": 4906,
      "Ġapproach": 4907,
      "Ġcontribut": 4908,
      "None": 4909,
      "UD": 4910,
      "Ġàª¥": 4911,
      "ĠàªŃ": 4912,
      "Ġcontains": 4913,
      "can": 4914,
      "Be": 4915,
      "debug": 4916,
      "Ø±ÙĨ": 4917,
      "ursor": 4918,
      "II": 4919,
      "ĠObject": 4920,
      "When": 4921,
      "à´¹": 4922,
      "àªı": 4923,
      "ĠØ³ÙĨ": 4924,
      "(_": 4925,
      "IES": 4926,
      "ØªØ§": 4927,
      "Ġjob": 4928,
      "Create": 4929,
      "à¦«": 4930,
      "Ġà°ľ": 4931,
      "Ġscript": 4932,
      "á±¼á±Ł": 4933,
      "padding": 4934,
      "Ġonline": 4935,
      "tmp": 4936,
      "achine": 4937,
      "42": 4938,
      "Ġlib": 4939,
      "ĠPre": 4940,
      "Ġrandom": 4941,
      "Ġ>=": 4942,
      "ured": 4943,
      "Ġindividuals": 4944,
      "TS": 4945,
      "Ġrelated": 4946,
      "à¦Ļ": 4947,
      "Ġfactors": 4948,
      "á±¤á±ŀ": 4949,
      "à¤īà¤¨": 4950,
      "ÙĨØ¯ÙĪØ³ØªÙ²ÙĨØł": 4951,
      "tim": 4952,
      "Ġidea": 4953,
      "Ġknowledge": 4954,
      "ih": 4955,
      "Ġê¯±": 4956,
      "ĠÙ¾Ø§Ú©": 4957,
      "Resource": 4958,
      "Ġcolumn": 4959,
      "});": 4960,
      "Ġestab": 4961,
      "PC": 4962,
      "ĠMay": 4963,
      "Ġaddition": 4964,
      "RL": 4965,
      "ĠUse": 4966,
      "á±®á±¨": 4967,
      "Ġdistance": 4968,
      "Rem": 4969,
      "SH": 4970,
      "Ġfall": 4971,
      "Ġmen": 4972,
      "Ġspecified": 4973,
      "Ġcells": 4974,
      "Point": 4975,
      "elves": 4976,
      "dl": 4977,
      "etime": 4978,
      "//!": 4979,
      "Ġetc": 4980,
      "udo": 4981,
      "Ġseen": 4982,
      "Ġà¬ļ": 4983,
      "itted": 4984,
      "ĉĉĉĉĉĉĉĉ": 4985,
      "sole": 4986,
      "Ġstat": 4987,
      "Ġgrowth": 4988,
      "Ġwritten": 4989,
      "£á±Ł": 4990,
      "à´¨à´¤": 4991,
      "á±®á±ŀ": 4992,
      "Ġcondition": 4993,
      "pack": 4994,
      "sv": 4995,
      "Ġà²Ĺ": 4996,
      "oman": 4997,
      "erson": 4998,
      "Ġheart": 4999,
      "Act": 5000,
      "Ġ27": 5001,
      "ordin": 5002,
      "anks": 5003,
      "Ġsuff": 5004,
      "apping": 5005,
      "Ġà¬Ĩ": 5006,
      "moz": 5007,
      "ĠØ¨Ú¾ÛĮ": 5008,
      "Ġcame": 5009,
      "istr": 5010,
      "Ú³": 5011,
      "ĠÚĪ": 5012,
      "46": 5013,
      "ĠStud": 5014,
      "Ġpractice": 5015,
      "ĠAct": 5016,
      "yles": 5017,
      "ining": 5018,
      "à¨ĺ": 5019,
      "ĠØ¢ÙĩÙĨ": 5020,
      "Ġrelative": 5021,
      "Ed": 5022,
      "Ġur": 5023,
      "ĠMat": 5024,
      "Ġtests": 5025,
      "command": 5026,
      "Ġnecessary": 5027,
      "Ú¾ÙĨ": 5028,
      "comes": 5029,
      "aba": 5030,
      "ĠEurope": 5031,
      "Ġever": 5032,
      "ĠFrom": 5033,
      "Ġbrain": 5034,
      "Ġrather": 5035,
      "Ġvariable": 5036,
      "del": 5037,
      "Ġutil": 5038,
      "Ġarticle": 5039,
      "Ġinflu": 5040,
      "oice": 5041,
      "Ġtalk": 5042,
      "Ġà°İ": 5043,
      "Ġskills": 5044,
      "Builder": 5045,
      "Ġshows": 5046,
      "pg": 5047,
      "Ġvariables": 5048,
      "43": 5049,
      "kind": 5050,
      "iven": 5051,
      "pecially": 5052,
      "Ġlikely": 5053,
      "Ġtemperature": 5054,
      "\\$": 5055,
      "ÙĬØ±": 5056,
      "where": 5057,
      "Ġscience": 5058,
      "Ġ60": 5059,
      "assertEqual": 5060,
      "Ġphysical": 5061,
      "mode": 5062,
      "see": 5063,
      "ĠIF": 5064,
      "Ġfund": 5065,
      "ĠGod": 5066,
      "ĠØ§ÛĮÚ©": 5067,
      "Dev": 5068,
      "TD": 5069,
      "á±¾": 5070,
      "Ġprinc": 5071,
      "Ġá±łá±ļá±": 5072,
      "Ġactually": 5073,
      "Ġàªªàª°": 5074,
      "Dir": 5075,
      "just": 5076,
      "Ġconstant": 5077,
      "disabled": 5078,
      "Ø¢": 5079,
      "Ġà¬Ĺ": 5080,
      "Ġjong": 5081,
      "licenses": 5082,
      "Ġargs": 5083,
      "Ġng": 5084,
      "Ġusers": 5085,
      "Ġquality": 5086,
      "Ġentry": 5087,
      "eed": 5088,
      "Ġregard": 5089,
      "ĠSystem": 5090,
      "eger": 5091,
      "Ġexperi": 5092,
      "usr": 5093,
      "ights": 5094,
      "à°Ń": 5095,
      "Ġê¯Ī": 5096,
      "auth": 5097,
      "Ġproperties": 5098,
      "pop": 5099,
      "ĠUS": 5100,
      "TEST": 5101,
      "ÛĨ": 5102,
      "attr": 5103,
      "Ġchem": 5104,
      "stad": 5105,
      "Ġà¤¸à¤¹": 5106,
      "Ġintrodu": 5107,
      "One": 5108,
      "Ġloss": 5109,
      "Ġà¤¬à¤°": 5110,
      "ĠØ¬Ø§": 5111,
      "ĠChrist": 5112,
      "ocker": 5113,
      "icensed": 5114,
      "56": 5115,
      "irm": 5116,
      "Child": 5117,
      "Part": 5118,
      "à¦ī": 5119,
      "ê¯Łê¯Ĺ": 5120,
      ":</": 5121,
      "ney": 5122,
      "Ġhowever": 5123,
      "txt": 5124,
      "Ġemploy": 5125,
      "\"`": 5126,
      "token": 5127,
      "Ġlim": 5128,
      "ÙĬØ¡": 5129,
      "process": 5130,
      "safe": 5131,
      "àªĩ": 5132,
      "AM": 5133,
      "iting": 5134,
      "Valid": 5135,
      "gn": 5136,
      "à¨«": 5137,
      "à¨ħ": 5138,
      "END": 5139,
      "Ġsaf": 5140,
      "Ġproducts": 5141,
      "inding": 5142,
      "window": 5143,
      "à¥įâĢĮ": 5144,
      "Ġhom": 5145,
      "97": 5146,
      "Ġcut": 5147,
      "Ġimm": 5148,
      "ĠØ¨ÛĮ": 5149,
      "à´Ļà´³": 5150,
      "ĠApache": 5151,
      "ĠGo": 5152,
      "ZE": 5153,
      "det": 5154,
      "Ġconstruct": 5155,
      "ĠÙħØ¹": 5156,
      "ØªÛĴ": 5157,
      "QL": 5158,
      "Ġmeet": 5159,
      "Ġspecies": 5160,
      "exec": 5161,
      "Ġface": 5162,
      "Ġaccept": 5163,
      "bon": 5164,
      "?:": 5165,
      "à¤Ĭ": 5166,
      "á±µ": 5167,
      "________": 5168,
      "space": 5169,
      "oriz": 5170,
      "Ġtheory": 5171,
      "Ġshare": 5172,
      "ĠNow": 5173,
      "ĠRem": 5174,
      "encies": 5175,
      "Access": 5176,
      "Ġfra": 5177,
      "Ġann": 5178,
      "Ġcomplete": 5179,
      "eral": 5180,
      "utf": 5181,
      "à¤®à¤¤": 5182,
      "(*": 5183,
      "IF": 5184,
      "Ġprovides": 5185,
      "ĠEar": 5186,
      "ĠÙ¾ÙĨ": 5187,
      "orig": 5188,
      "imals": 5189,
      "Ġà¤īà¤¤": 5190,
      "Ġwr": 5191,
      "ĠÚ©Ú¾": 5192,
      "ĠÚªØ±": 5193,
      "Ġá±¢á±®á±±á±Łá±ľ": 5194,
      "RES": 5195,
      "ny": 5196,
      "Ġach": 5197,
      "etch": 5198,
      "Ġthough": 5199,
      "Ġkh": 5200,
      "Ġapp": 5201,
      "Page": 5202,
      "VE": 5203,
      "Ġinit": 5204,
      "Ġdeath": 5205,
      "OCK": 5206,
      "á±¤á±¨": 5207,
      "Ġá±łá±·á±ļá±±": 5208,
      "iation": 5209,
      "bra": 5210,
      "ĠNot": 5211,
      "Content": 5212,
      "unsigned": 5213,
      "Ġmedia": 5214,
      "BO": 5215,
      "gener": 5216,
      "Ġax": 5217,
      "icial": 5218,
      "MO": 5219,
      "like": 5220,
      "Ġpolit": 5221,
      "common": 5222,
      "Ġchalleng": 5223,
      "Ġmarket": 5224,
      "Ġuses": 5225,
      "elling": 5226,
      "Ġtook": 5227,
      "ÙħÛģ": 5228,
      "Ġarch": 5229,
      "Buffer": 5230,
      "ĠData": 5231,
      "era": 5232,
      "=${": 5233,
      "à²Ń": 5234,
      "Ġzero": 5235,
      "Hel": 5236,
      "Ġeval": 5237,
      "Ġactual": 5238,
      "Controller": 5239,
      "BA": 5240,
      "Ġstates": 5241,
      "ĠMin": 5242,
      "Ġservices": 5243,
      "ica": 5244,
      "anger": 5245,
      ",//": 5246,
      "Zaan": 5247,
      "scope": 5248,
      "Zaanstad": 5249,
      "task": 5250,
      "Ġstream": 5251,
      "ĠThen": 5252,
      "df": 5253,
      "Ġdam": 5254,
      "Ø§Ø¹": 5255,
      "pret": 5256,
      "buffer": 5257,
      "á±³": 5258,
      "à¥ĭà¥¤": 5259,
      "à¦ķà¦²": 5260,
      "Ġrunning": 5261,
      "eline": 5262,
      "ĠCH": 5263,
      "ĠFROM": 5264,
      "ĠTrans": 5265,
      "][": 5266,
      "focus": 5267,
      "lem": 5268,
      "Ġremove": 5269,
      "types": 5270,
      "missions": 5271,
      "Ġalgorith": 5272,
      "Ġengine": 5273,
      "Last": 5274,
      "Ġevents": 5275,
      "MM": 5276,
      "je": 5277,
      "olicy": 5278,
      "ohn": 5279,
      "á±ļá±ľ": 5280,
      "only": 5281,
      "ceed": 5282,
      "Ġeffects": 5283,
      "Rep": 5284,
      "oop": 5285,
      "inner": 5286,
      "istent": 5287,
      "){": 5288,
      "ĠSp": 5289,
      "bash": 5290,
      "à²¥": 5291,
      "portun": 5292,
      "Ġaffect": 5293,
      "Ġexact": 5294,
      "Ġweeks": 5295,
      "Ġcomes": 5296,
      "ĠØ¨Ùĩ": 5297,
      "Ġà¦ªà¦°": 5298,
      "àŃĤ": 5299,
      "Ġà¤Ĩà¤µ": 5300,
      "ê¯İê¯ķ": 5301,
      "ÙħØ§ÙĦ": 5302,
      "Ġparts": 5303,
      "deg": 5304,
      "pare": 5305,
      ")\"": 5306,
      "ĠØªØ¹": 5307,
      "ada": 5308,
      "ensions": 5309,
      "numer": 5310,
      "à¦¨à§°": 5311,
      "Ġà¤ħà¤°": 5312,
      "Ġapplication": 5313,
      "lim": 5314,
      "xml": 5315,
      "}.": 5316,
      "Ġ28": 5317,
      "ĠLet": 5318,
      "Ġoutside": 5319,
      "Now": 5320,
      "itter": 5321,
      "sec": 5322,
      "ĠInter": 5323,
      "Ø´ÙĨ": 5324,
      "Ġsomeone": 5325,
      "Ġlinear": 5326,
      "Ġwhole": 5327,
      "ĠWARRANTIES": 5328,
      "Ġinline": 5329,
      "ESC": 5330,
      "ê¯¢ê¯Ķ": 5331,
      "á±ļá±±á±ļá±Ľ": 5332,
      "70": 5333,
      "address": 5334,
      "Ġast": 5335,
      "exp": 5336,
      "ØªÙĬ": 5337,
      "Ø§ØŃ": 5338,
      "Ġactive": 5339,
      "Ġ$$\\": 5340,
      "Ġmemory": 5341,
      "ved": 5342,
      "Ġfailed": 5343,
      "ØªÛģ": 5344,
      "lin": 5345,
      "Ġtag": 5346,
      "=\"#": 5347,
      "RIPT": 5348,
      "ias": 5349,
      "ĠAfter": 5350,
      "Ġobjects": 5351,
      "ĠPart": 5352,
      "ĠReturns": 5353,
      "ĠĠĠĠĠĠĠĠĠĠĠĠĊ": 5354,
      "Ġmaterials": 5355,
      "Ġrout": 5356,
      "Spec": 5357,
      "Ġstore": 5358,
      "Ġexport": 5359,
      "ĠWorld": 5360,
      "Ġapply": 5361,
      "Ġstudies": 5362,
      "Ph": 5363,
      "osp": 5364,
      "Output": 5365,
      "à¤·à¤£": 5366,
      "Ġregular": 5367,
      "§à§": 5368,
      "ÙĦÙĪ": 5369,
      "Ġà¤Ĩà¤¯": 5370,
      "ĠØ±Ûģ": 5371,
      "EE": 5372,
      "Ġinternal": 5373,
      "Ġhelps": 5374,
      "ges": 5375,
      "Ġsection": 5376,
      "Ġunsigned": 5377,
      "Ġgas": 5378,
      "ried": 5379,
      "ln": 5380,
      "ĠĠĊ": 5381,
      "à¥§à¥": 5382,
      "Ġà¤ıà¤¹": 5383,
      "System": 5384,
      "ĠMe": 5385,
      "ĠBe": 5386,
      ";}": 5387,
      "Ġ26": 5388,
      "Ġprec": 5389,
      "GE": 5390,
      "à¦ŀ": 5391,
      "Ġà¤¸à¤¬": 5392,
      "Ġsafe": 5393,
      "Ġallows": 5394,
      "ĠPer": 5395,
      "Ġrecogn": 5396,
      "Ġpack": 5397,
      "Ġdim": 5398,
      "ĠEN": 5399,
      "Ġvideo": 5400,
      "ĠWork": 5401,
      "RC": 5402,
      "ĠØ°": 5403,
      "à¥Ģà¥¤": 5404,
      "à¦°à¦¤": 5405,
      "Ġjour": 5406,
      "private": 5407,
      "Ġà¦ľà¦¨": 5408,
      "Ġdb": 5409,
      "ĠMath": 5410,
      "PD": 5411,
      "Ġaverage": 5412,
      "used": 5413,
      "rad": 5414,
      "à¤¨à¤¸": 5415,
      "àŃŁà¬¨": 5416,
      "ê¯ľê¯Ĥ": 5417,
      "%,": 5418,
      "41": 5419,
      "fort": 5420,
      "Ġ2021": 5421,
      "ĠClass": 5422,
      "LS": 5423,
      "Ġà¤ķà¤°à¤¤": 5424,
      "Ġcollect": 5425,
      "vention": 5426,
      "Ġeasy": 5427,
      "à¨¥": 5428,
      "Ġespecially": 5429,
      "95": 5430,
      "begin": 5431,
      "gl": 5432,
      "ĠTO": 5433,
      "Ġbre": 5434,
      "Ġinf": 5435,
      "Ġreading": 5436,
      "Ġhours": 5437,
      "respond": 5438,
      "Ġà¨¹à¨¨": 5439,
      "Ġentire": 5440,
      "ae": 5441,
      "dated": 5442,
      "Ġreduce": 5443,
      "åı": 5444,
      "Ø±Ùģ": 5445,
      "emic": 5446,
      "foot": 5447,
      "á±Łá±¹á±¨": 5448,
      "Ġmatter": 5449,
      "Ġà®ĩà®°": 5450,
      "Ġbehavior": 5451,
      "atives": 5452,
      "ements": 5453,
      "Ġshown": 5454,
      "Ġadditional": 5455,
      "Ð¾Ð": 5456,
      "\"))": 5457,
      "API": 5458,
      "Ġwar": 5459,
      "Ġvector": 5460,
      "Ġitself": 5461,
      "Ġprimary": 5462,
      "Ù¹Ø±": 5463,
      "GO": 5464,
      "VERSION": 5465,
      "ze": 5466,
      "response": 5467,
      "Ùī": 5468,
      "Ġtaken": 5469,
      "à¤Łà¤¨": 5470,
      "lang": 5471,
      "ouch": 5472,
      "Ġnav": 5473,
      "Ġlooking": 5474,
      "Ġbuilding": 5475,
      "Ġdog": 5476,
      "section": 5477,
      "ĠCheck": 5478,
      "aches": 5479,
      "files": 5480,
      "Tem": 5481,
      "Ġfive": 5482,
      "à¤®à¤§": 5483,
      "Ġbottom": 5484,
      "Ġcompany": 5485,
      "Ġdifference": 5486,
      "<!--": 5487,
      "?\"": 5488,
      "based": 5489,
      "Ġbuffer": 5490,
      "DC": 5491,
      "Â°": 5492,
      "Ø§ÛĮ": 5493,
      "Ġproper": 5494,
      "ĠĠĠĠĠĠĠĠĠĠĠĠĠĠĠĠĠĠĠĠĠĠĠĠĠĠĠĠĠĠĠĠĠĠĠ": 5495,
      "à©ģà©±": 5496,
      "Return": 5497,
      "cmd": 5498,
      "Ġ})": 5499,
      "á±Łá±²": 5500,
      "UID": 5501,
      "Ġ::": 5502,
      "Ġfunc": 5503,
      "Ġthing": 5504,
      "Ġvi": 5505,
      "remove": 5506,
      "Ġactivity": 5507,
      "Ġvolume": 5508,
      "Ġà¤¹à¤®": 5509,
      "Ġá±Łá±ł": 5510,
      "Ġmaintain": 5511,
      "Ġsquare": 5512,
      "åħ": 5513,
      "ĠBl": 5514,
      "Ġproduction": 5515,
      "iment": 5516,
      "ĠWar": 5517,
      "show": 5518,
      "Mem": 5519,
      "Ġ\"\"": 5520,
      "ĠFl": 5521,
      "Ġ2020": 5522,
      "ha": 5523,
      "nected": 5524,
      "ĠØ§Ù¾": 5525,
      "Ġá±¦á±ļá±²": 5526,
      "ocol": 5527,
      "Ġmanagement": 5528,
      "FO": 5529,
      "long": 5530,
      "ellow": 5531,
      ";&": 5532,
      "CONF": 5533,
      "Ġà¤İ": 5534,
      "à¤°à¤²": 5535,
      "Ġna": 5536,
      "abs": 5537,
      "Ġconnection": 5538,
      "Ġà´°": 5539,
      "spec": 5540,
      "90": 5541,
      "Max": 5542,
      "Ġlive": 5543,
      "Ġshape": 5544,
      "Ġplants": 5545,
      "Ġparameters": 5546,
      "Ùº": 5547,
      "omic": 5548,
      "ĠÙ¾ÛĮ": 5549,
      "Ġ_,": 5550,
      "Ġopportun": 5551,
      "Ġpatients": 5552,
      "icles": 5553,
      "fix": 5554,
      "Ġdecl": 5555,
      "Ġok": 5556,
      "à¥ĩà¥¤": 5557,
      "à¤ķà¤¡": 5558,
      "vm": 5559,
      "Ø°": 5560,
      "alled": 5561,
      "Ġscreen": 5562,
      "ĠAfr": 5563,
      "Ġconnect": 5564,
      "ring": 5565,
      "Ġà¬¶": 5566,
      "het": 5567,
      "RIG": 5568,
      "----------------------------------------------------------------": 5569,
      "Ġcomputer": 5570,
      "Ġdeep": 5571,
      "Ġnegative": 5572,
      "62": 5573,
      "Ġ<=": 5574,
      "unk": 5575,
      "ĠGe": 5576,
      "ĠMax": 5577,
      "Ġsens": 5578,
      "Ġprotect": 5579,
      "Ġtowards": 5580,
      "Ġhalf": 5581,
      "ĠàŃ¨àŃ": 5582,
      "images": 5583,
      "/*!": 5584,
      "################################": 5585,
      "eration": 5586,
      "itable": 5587,
      "Det": 5588,
      "à®¸": 5589,
      "Ġhandle": 5590,
      "izer": 5591,
      "Ú©ÛĮ": 5592,
      "install": 5593,
      "¿½": 5594,
      "Ġbytes": 5595,
      "Ġaccur": 5596,
      "Ġoperation": 5597,
      "Component": 5598,
      "Ġnature": 5599,
      "ĠMore": 5600,
      "ĠàŃ§àŃ": 5601,
      "Ġul": 5602,
      "Ġmaster": 5603,
      "Ġwait": 5604,
      "small": 5605,
      "Ġà¤Ī": 5606,
      "hel": 5607,
      "à©Īà¥¤": 5608,
      "ĠType": 5609,
      "Ġtaking": 5610,
      "Ġdirectory": 5611,
      "Link": 5612,
      "olar": 5613,
      "Ġ2013": 5614,
      "53": 5615,
      "Ġà¨²à¨Ī": 5616,
      "icate": 5617,
      "Ġtoken": 5618,
      "avor": 5619,
      "ITION": 5620,
      "module": 5621,
      "device": 5622,
      "unt": 5623,
      "Ġfields": 5624,
      "Back": 5625,
      "FL": 5626,
      "Ġsense": 5627,
      "Ġ255": 5628,
      "ĠNational": 5629,
      "SD": 5630,
      "sign": 5631,
      "---": 5632,
      "term": 5633,
      "oto": 5634,
      "Ġgreater": 5635,
      "Change": 5636,
      "Ġeffort": 5637,
      "ometry": 5638,
      "$.": 5639,
      "ĠBen": 5640,
      "media": 5641,
      "Ġconsidered": 5642,
      "cache": 5643,
      "Ġinfo": 5644,
      "ĠMon": 5645,
      "Co": 5646,
      "ĠCar": 5647,
      "efined": 5648,
      "params": 5649,
      "Ġpersonal": 5650,
      "Ġà¦§": 5651,
      "Ġà¨Ń": 5652,
      "Ġàª«": 5653,
      "LL": 5654,
      "Ġnut": 5655,
      "estion": 5656,
      "Factory": 5657,
      "store": 5658,
      "Aut": 5659,
      "äº": 5660,
      "ï¿½": 5661,
      "Ø§Ùĩ": 5662,
      "ĠOk": 5663,
      "ĠØ³ÛĮ": 5664,
      "ĠStr": 5665,
      "oded": 5666,
      "Ġconvert": 5667,
      "ĠÙĦØ§Ø¡": 5668,
      "Ġseries": 5669,
      "Ġmer": 5670,
      "plete": 5671,
      "sem": 5672,
      "Ġcontain": 5673,
      "iques": 5674,
      "First": 5675,
      "wa": 5676,
      "æĸ": 5677,
      "à¤¿,": 5678,
      "ĠØ§ÙĬ": 5679,
      "Ext": 5680,
      "description": 5681,
      "ptoms": 5682,
      "icker": 5683,
      "cpp": 5684,
      "pp": 5685,
      "izes": 5686,
      "meta": 5687,
      "uel": 5688,
      "unit": 5689,
      "à¤¹à¤¤": 5690,
      "à°¾à°Ĥ": 5691,
      "Ġcontact": 5692,
      "Ġdoing": 5693,
      "Ġagreed": 5694,
      "].[": 5695,
      "arrow": 5696,
      "Ġheat": 5697,
      "à¤¼à¤¾": 5698,
      "ĠHis": 5699,
      "INE": 5700,
      "Ġerrors": 5701,
      "refix": 5702,
      "clusion": 5703,
      "ĠAb": 5704,
      "HERE": 5705,
      "Ġà¨«": 5706,
      "estamp": 5707,
      "hib": 5708,
      "Ġfa": 5709,
      "Ġvisit": 5710,
      "Ġmulti": 5711,
      "Ġwor": 5712,
      "Ġspan": 5713,
      "Ġbasic": 5714,
      "à°³": 5715,
      "ĠÙĩÙĨ": 5716,
      "Ġ``": 5717,
      "UBE": 5718,
      "udio": 5719,
      "Ġclaim": 5720,
      "Ġhistor": 5721,
      "ered": 5722,
      "Ġ2014": 5723,
      "ĠRead": 5724,
      "ĠEm": 5725,
      "Ġ\\$": 5726,
      "Ġsample": 5727,
      "Ġden": 5728,
      "ÛĮÙĪ": 5729,
      "Ġàªī": 5730,
      "=\"-": 5731,
      "non": 5732,
      "Ġtransition": 5733,
      "á±¦": 5734,
      "Ġà¤ķà¤°à¤£": 5735,
      "á±©á±Ń": 5736,
      "Ġmathemat": 5737,
      "Ġdrop": 5738,
      "Ġstress": 5739,
      "pliance": 5740,
      "RIM": 5741,
      "aling": 5742,
      "Ġà¤¸à¤Ń": 5743,
      "Ø³Ø§ÙĨ": 5744,
      "Ġstay": 5745,
      "Ġmatrix": 5746,
      "Ġpan": 5747,
      "Ġvia": 5748,
      "unch": 5749,
      "Ġoffset": 5750,
      "aly": 5751,
      "Ġtemplate": 5752,
      "Register": 5753,
      "Ø§Ø¬": 5754,
      "ĠÙĪÙĬ": 5755,
      "ØłÙ¹Ú¾": 5756,
      "Ġstudent": 5757,
      "success": 5758,
      "Url": 5759,
      "Ġessay": 5760,
      "Row": 5761,
      "hi": 5762,
      "Ġmiddle": 5763,
      "OUT": 5764,
      "joy": 5765,
      "vider": 5766,
      "Ġtrack": 5767,
      "ERROR": 5768,
      "Col": 5769,
      "ependent": 5770,
      "Ġnamespace": 5771,
      "Ġmeaning": 5772,
      "Callback": 5773,
      "wait": 5774,
      "Ġsix": 5775,
      "IME": 5776,
      "àµ»": 5777,
      "Ġàªļ": 5778,
      "Ġà¤Ńà¤¨": 5779,
      "ancial": 5780,
      "empty": 5781,
      "ĠYear": 5782,
      "testing": 5783,
      "Ġprogress": 5784,
      "Ġ2017": 5785,
      "Ġmembers": 5786,
      "HOUT": 5787,
      "58": 5788,
      "Line": 5789,
      "ĠÚ©ÛĮØ§": 5790,
      "Box": 5791,
      "mm": 5792,
      "Ġuseful": 5793,
      "Filter": 5794,
      "ĠState": 5795,
      "dest": 5796,
      "Ġcop": 5797,
      "Ġ*)": 5798,
      "=\"${": 5799,
      "54": 5800,
      "`.": 5801,
      "bas": 5802,
      "sequ": 5803,
      "ĠMy": 5804,
      "Ġfeed": 5805,
      "Ġthroughout": 5806,
      "pat": 5807,
      "ĠRed": 5808,
      "Ġà§¨": 5809,
      "ĠFile": 5810,
      "Ġincreased": 5811,
      "Ġcallback": 5812,
      "Ġdidn": 5813,
      "Bar": 5814,
      "Ġquery": 5815,
      "àª«": 5816,
      "peat": 5817,
      "That": 5818,
      "Ġá±ŀá±®á±ł": 5819,
      "Ġprofession": 5820,
      "totype": 5821,
      "ĠCreate": 5822,
      "istory": 5823,
      "property": 5824,
      "256": 5825,
      "æľ": 5826,
      "Ġsend": 5827,
      "Ġball": 5828,
      "Ġrules": 5829,
      "Ġattempt": 5830,
      "Ġbecame": 5831,
      "Case": 5832,
      "Min": 5833,
      "Ġcm": 5834,
      "REG": 5835,
      "Errorf": 5836,
      "iverse": 5837,
      "ģĦ": 5838,
      "Ġinfe": 5839,
      "à¥©": 5840,
      "à°¥": 5841,
      "Ġá±Ľá±Łá±¦": 5842,
      "gle": 5843,
      "Ġanimals": 5844,
      "year": 5845,
      "ĠØº": 5846,
      "Ġnames": 5847,
      "aily": 5848,
      "after": 5849,
      "ĠÙħØ§ÙĨ": 5850,
      "Ġcatch": 5851,
      "Ø¯Ø§Ø±": 5852,
      "Ġtakes": 5853,
      "Ø±Øª": 5854,
      "tributes": 5855,
      "Window": 5856,
      "Ġmot": 5857,
      "ĠSET": 5858,
      "Ġlonger": 5859,
      "Ġparticip": 5860,
      "ĠRec": 5861,
      "PER": 5862,
      "Te": 5863,
      "sys": 5864,
      "Can": 5865,
      "family": 5866,
      "ana": 5867,
      "à´¬": 5868,
      "ÛĮÛģ": 5869,
      "á±¤á±ł": 5870,
      "cos": 5871,
      "à¤¤à¤ķ": 5872,
      "icons": 5873,
      "Nav": 5874,
      "UI": 5875,
      "Ġsecurity": 5876,
      "ĠÚĬ": 5877,
      "Ġà®Ĵ": 5878,
      "Ġmodern": 5879,
      "Ġincludes": 5880,
      "à³Ĭà²Ĥ": 5881,
      "DER": 5882,
      "Ġexplore": 5883,
      "Ġpopular": 5884,
      "sqrt": 5885,
      "52": 5886,
      "Per": 5887,
      "Ġforms": 5888,
      "MD": 5889,
      "]]": 5890,
      "Ġà¨ĸ": 5891,
      "Ġ\"/": 5892,
      "Ġaspect": 5893,
      "ÙħØ¯": 5894,
      "á±·á±Ł": 5895,
      "iece": 5896,
      "ĠEnglish": 5897,
      "pu": 5898,
      "ĠDec": 5899,
      "rief": 5900,
      "join": 5901,
      "ĠPy": 5902,
      "ARE": 5903,
      "Ġsources": 5904,
      "etimes": 5905,
      "=\"/": 5906,
      "UE": 5907,
      "âģĦ": 5908,
      "ani": 5909,
      "ĠCo": 5910,
      "Ø¨ÛĮ": 5911,
      "Ġeffective": 5912,
      "Ġitems": 5913,
      "PRE": 5914,
      "Ġprior": 5915,
      "Dec": 5916,
      "Ġche": 5917,
      "Ġà¬Ľ": 5918,
      "resource": 5919,
      "ulations": 5920,
      "Ġmechan": 5921,
      "Ġappear": 5922,
      "Ġpi": 5923,
      "HOME": 5924,
      "Ġà²¶": 5925,
      "Ġsociety": 5926,
      "KEY": 5927,
      "bor": 5928,
      "à´Ń": 5929,
      "Ġweb": 5930,
      "á±®á±¥": 5931,
      "Ġgetting": 5932,
      "à´µà´°": 5933,
      "Ġfelt": 5934,
      "Ġrecomm": 5935,
      "fff": 5936,
      "Ġabsolute": 5937,
      "Host": 5938,
      "ture": 5939,
      "Ġlocation": 5940,
      "OK": 5941,
      "ignment": 5942,
      "ners": 5943,
      "Ġmor": 5944,
      "room": 5945,
      "Ġrev": 5946,
      "Ġà´ľ": 5947,
      "Ú©Ûģ": 5948,
      "Ġá±¥á±Łá±": 5949,
      "Ġliving": 5950,
      "SELECT": 5951,
      "Ġimprove": 5952,
      "Ġpick": 5953,
      "Ġmole": 5954,
      "ĠSim": 5955,
      "essages": 5956,
      "oph": 5957,
      "Ġtopic": 5958,
      "sych": 5959,
      "Ġfish": 5960,
      "Ġdebug": 5961,
      "Ġtool": 5962,
      "ĠSub": 5963,
      "................": 5964,
      "84": 5965,
      "=`": 5966,
      "pool": 5967,
      ".*": 5968,
      "Ġda": 5969,
      "ĠÙħØ³": 5970,
      "gebra": 5971,
      "Ġ2012": 5972,
      "Ġrelig": 5973,
      "à¤°à¤¶": 5974,
      "Ġcentury": 5975,
      "Em": 5976,
      "Ġpair": 5977,
      "Ġàªĸ": 5978,
      "Ġê¯ĳê¯Ĺ": 5979,
      "ĠYour": 5980,
      "Ġá±¨á±®á±Ń": 5981,
      "96": 5982,
      "ifest": 5983,
      "ĠMed": 5984,
      "'m": 5985,
      "hs": 5986,
      "ii": 5987,
      "Ġreference": 5988,
      "SIZE": 5989,
      "Ú¾Ø±": 5990,
      "Ġmonths": 5991,
      "à¥ª": 5992,
      "à¤¨à¤®": 5993,
      "à¤¡à¤²": 5994,
      "Ġdeveloped": 5995,
      "Ġissue": 5996,
      "mselves": 5997,
      "Process": 5998,
      "FS": 5999,
      "Label": 6000,
      "Ġsleep": 6001,
      "Ġexerc": 6002,
      "sn": 6003,
      "():": 6004,
      "Ġago": 6005,
      "ounter": 6006,
      "Update": 6007,
      "ĠÙĨÛģÛĮÚº": 6008,
      "Acc": 6009,
      "iny": 6010,
      "Ġexpression": 6011,
      "imately": 6012,
      "ĠBrit": 6013,
      "ĠLicensed": 6014,
      "allow": 6015,
      "Operation": 6016,
      "'ll": 6017,
      "ulate": 6018,
      "anged": 6019,
      "ĠÙ½": 6020,
      "Ġformula": 6021,
      "Ġà¤ĺà¤°": 6022,
      "Open": 6023,
      "Ġthread": 6024,
      "ums": 6025,
      "Ġbuilt": 6026,
      "Ġthemselves": 6027,
      "project": 6028,
      "sql": 6029,
      "Ã¤": 6030,
      "ensity": 6031,
      "Ġnote": 6032,
      "oke": 6033,
      "Instance": 6034,
      "ÙĬÚª": 6035,
      "Ġconduct": 6036,
      "ĠÙ¾ØłÙ¹Ú¾": 6037,
      "Ġà®ħà®¤": 6038,
      "Ġappropri": 6039,
      "()->": 6040,
      "ĠLog": 6041,
      "Ġfactor": 6042,
      "Ġsteps": 6043,
      "tree": 6044,
      "ĠIntern": 6045,
      "Ġassess": 6046,
      "Ġslow": 6047,
      "Ġcross": 6048,
      "Ġdetermine": 6049,
      "ACT": 6050,
      "à¤¾à¤ĥ": 6051,
      "Ġà¦¡": 6052,
      "Ġreserv": 6053,
      "Ġà´¬": 6054,
      "à©Ģà¨Ĥ": 6055,
      "Ø§Ø¦ÛĮ": 6056,
      "Ġfamil": 6057,
      "pm": 6058,
      "ĠÙħØ´": 6059,
      "Ġevidence": 6060,
      "Ġequations": 6061,
      "framework": 6062,
      "Ġempty": 6063,
      ":#": 6064,
      "ĠAcc": 6065,
      "Ġsimply": 6066,
      "Widget": 6067,
      "á±Ń": 6068,
      "à¤²à¤¯": 6069,
      "Ġà°Ī": 6070,
      "ĠMov": 6071,
      "Ġà¤Ĩà¤¨": 6072,
      "à¤Łà¤²": 6073,
      "ĠTrue": 6074,
      "Ġsec": 6075,
      "Ġloved": 6076,
      "stract": 6077,
      "utils": 6078,
      "free": 6079,
      "fmt": 6080,
      "ĠÛĶ": 6081,
      "à¥ĩà¥Ĵ": 6082,
      "á±¤á±¡": 6083,
      "Ġpermissions": 6084,
      "á±±á±Ł": 6085,
      "But": 6086,
      "}$$": 6087,
      "oding": 6088,
      "olumn": 6089,
      "]:": 6090,
      "ving": 6091,
      "Ġmodule": 6092,
      "ROP": 6093,
      "Ġplaying": 6094,
      "Frame": 6095,
      "document": 6096,
      "hash": 6097,
      "Ġtools": 6098,
      "bytes": 6099,
      "```": 6100,
      "Offset": 6101,
      "ĠØ®Ø§ÙĨ": 6102,
      "76": 6103,
      "jav": 6104,
      "400": 6105,
      "Null": 6106,
      "Ġep": 6107,
      "igen": 6108,
      "Ġscope": 6109,
      "Ġattack": 6110,
      "Ġapplicable": 6111,
      "72": 6112,
      "cr": 6113,
      "chtml": 6114,
      "à´¯à´¤": 6115,
      "à¬Łà¬¨": 6116,
      "Ġperformance": 6117,
      "Ġpyn": 6118,
      "Ġ\\\"": 6119,
      "Ġdetails": 6120,
      "Ġcurrently": 6121,
      "PS": 6122,
      "google": 6123,
      "Su": 6124,
      "Ġdep": 6125,
      "ĠJan": 6126,
      "Exec": 6127,
      "force": 6128,
      "Ġeveryone": 6129,
      "Ġvirtual": 6130,
      "ley": 6131,
      "Ġrad": 6132,
      "Ġkaba": 6133,
      "à«ĩ,": 6134,
      "à°²à°¨": 6135,
      "Ġ2018": 6136,
      "ĠPR": 6137,
      "ĠEd": 6138,
      "Ġremember": 6139,
      "Ġ(*": 6140,
      "interface": 6141,
      "Ġunits": 6142,
      "ws": 6143,
      "à¨Ń": 6144,
      "à¤¬à¤¨": 6145,
      "ĠØ¬Ø§ÙĨ": 6146,
      "atal": 6147,
      "ĠØ§Ùĩ": 6148,
      "Ġstrateg": 6149,
      "Ġability": 6150,
      "transition": 6151,
      "bf": 6152,
      "Ġpark": 6153,
      "Ġautom": 6154,
      "Ġsymptoms": 6155,
      "inct": 6156,
      "obj": 6157,
      "Ġparams": 6158,
      "done": 6159,
      "yl": 6160,
      "Ġvacc": 6161,
      "à²¯à²²": 6162,
      "à¤¿à¥ĳ": 6163,
      "à¤®à¤ķ": 6164,
      "Ġnotice": 6165,
      "Ġà°ħà°¨": 6166,
      "Ġprotected": 6167,
      "Ġign": 6168,
      "more": 6169,
      "Ġfmt": 6170,
      "Ġrule": 6171,
      "nov": 6172,
      "Ġwebs": 6173,
      "modal": 6174,
      "Ġcity": 6175,
      "Ġlicense": 6176,
      "ĠCL": 6177,
      "rome": 6178,
      "àª°àª®": 6179,
      "Ġsometimes": 6180,
      "Ġapprox": 6181,
      "Ġextra": 6182,
      "Ġroom": 6183,
      "Ġsolve": 6184,
      "6666": 6185,
      "subfield": 6186,
      "gment": 6187,
      "Ø²ÛĮ": 6188,
      "ÙĬØª": 6189,
      "Ġones": 6190,
      "Ġwhose": 6191,
      "Ġcompar": 6192,
      "actor": 6193,
      "Ġcreating": 6194,
      "ĠÛĮØ§": 6195,
      "à¥§": 6196,
      "à´¿.": 6197,
      "anges": 6198,
      "STAT": 6199,
      "Ġlove": 6200,
      "ĠWITHOUT": 6201,
      "ici": 6202,
      "Ġimplied": 6203,
      "Ġrecent": 6204,
      "Ġdrug": 6205,
      "ncy": 6206,
      "Ġà¤ħà¤Ń": 6207,
      "Ġcorrespond": 6208,
      "Post": 6209,
      "hedu": 6210,
      "osis": 6211,
      "Ġ['": 6212,
      "column": 6213,
      "ufact": 6214,
      "sld": 6215,
      "àŃįâĢĮ": 6216,
      "Ġá±Łá±¹": 6217,
      "ISTS": 6218,
      "ĠØ³ÙĨÚĮ": 6219,
      "BC": 6220,
      "Ġrequires": 6221,
      "Ġidentify": 6222,
      "Ġsed": 6223,
      "straint": 6224,
      "Ġhealthy": 6225,
      "Ġfire": 6226,
      "Ġobj": 6227,
      "RIMARY": 6228,
      "names": 6229,
      "ese": 6230,
      "Ġexists": 6231,
      "ĠWeb": 6232,
      "vec": 6233,
      "ĠHealth": 6234,
      "Ð°Ð": 6235,
      "copy": 6236,
      "Ġá±§": 6237,
      "ĠOption": 6238,
      "Ġenjoy": 6239,
      "à¤Ĩà¤µ": 6240,
      "Mode": 6241,
      "Ġwallet": 6242,
      "cfg": 6243,
      "Ġfoot": 6244,
      "Ġdirection": 6245,
      "ĠChina": 6246,
      "ĠSouth": 6247,
      "Ġtrying": 6248,
      "Gener": 6249,
      "png": 6250,
      "à´¥": 6251,
      "Ø§Úª": 6252,
      "CI": 6253,
      "ĠNov": 6254,
      "none": 6255,
      "vector": 6256,
      "ĠTH": 6257,
      "ĠUp": 6258,
      "Ġcook": 6259,
      "roy": 6260,
      "vey": 6261,
      "Ġspread": 6262,
      "apped": 6263,
      "Ġincreasing": 6264,
      "Ġexamples": 6265,
      "çļ": 6266,
      "heets": 6267,
      "ĠKIND": 6268,
      "Ġàªªàª£": 6269,
      "Ġproduce": 6270,
      "98": 6271,
      "aved": 6272,
      "ĠNorth": 6273,
      "Mat": 6274,
      "Ġreview": 6275,
      "ÙĬØ¯": 6276,
      "thread": 6277,
      "Ġminutes": 6278,
      "pkg": 6279,
      "Ġà¦ĺ": 6280,
      "Ġà¬ĵ": 6281,
      "ĠFOR": 6282,
      "Ġà¤ªà¤¤": 6283,
      "Ġcomponent": 6284,
      "Ġà´İà´¨": 6285,
      "Ġstreng": 6286,
      "Vari": 6287,
      "Ġease": 6288,
      "ÙĤØª": 6289,
      "Ġfast": 6290,
      "ĠValue": 6291,
      "Ġlooked": 6292,
      "instance": 6293,
      "Ġvers": 6294,
      "enced": 6295,
      "Ġkil": 6296,
      "ĠNe": 6297,
      "Ġtraining": 6298,
      "ĠSoftware": 6299,
      "ategy": 6300,
      "ĠÙĪÛģ": 6301,
      "à¦¸à¦®": 6302,
      "Ġparse": 6303,
      "ries": 6304,
      "Ġincluded": 6305,
      "Ġmedical": 6306,
      "aid": 6307,
      "Ġgreen": 6308,
      "obile": 6309,
      "ĠError": 6310,
      "Ġcompliance": 6311,
      "ĠÙħÛĮ": 6312,
      "lick": 6313,
      "Ġcarry": 6314,
      "çļĦ": 6315,
      "PP": 6316,
      "pload": 6317,
      "ĠÙĪØ§Ø±": 6318,
      "ij": 6319,
      "çĶ": 6320,
      "enge": 6321,
      "ÙħÙĦ": 6322,
      "á±ļá±¦": 6323,
      "ĠØ¬ÙĬÚª": 6324,
      "Ġreflect": 6325,
      "flag": 6326,
      "wd": 6327,
      "ster": 6328,
      "Ġclimate": 6329,
      "Top": 6330,
      "âĪ": 6331,
      "Ø§Øµ": 6332,
      "Ġ2016": 6333,
      "Entry": 6334,
      "ä»": 6335,
      "à²ķà²°": 6336,
      "Ġ2015": 6337,
      "cell": 6338,
      "master": 6339,
      "Ġthird": 6340,
      "Ġá±ĳá±": 6341,
      "Ġá±¢á±¤á±«": 6342,
      "example": 6343,
      "Ġgoverning": 6344,
      "orpor": 6345,
      "ĠWhile": 6346,
      "DATA": 6347,
      "oes": 6348,
      "zz": 6349,
      "Ġ^": 6350,
      "lear": 6351,
      "Ġmental": 6352,
      "uly": 6353,
      "Ġstorage": 6354,
      "clone": 6355,
      "ÂŃ": 6356,
      "slds": 6357,
      "idge": 6358,
      "trict": 6359,
      "Ġê¯²": 6360,
      "ship": 6361,
      "Ġboy": 6362,
      "Ġmusic": 6363,
      "ening": 6364,
      "oles": 6365,
      "click": 6366,
      "ENC": 6367,
      "VAL": 6368,
      "Ġmicro": 6369,
      "Ġextends": 6370,
      "porary": 6371,
      "Option": 6372,
      "Ĥ¬": 6373,
      "Ġbinary": 6374,
      "eloc": 6375,
      "ÙĬÙĪÙĨ": 6376,
      "vari": 6377,
      "Range": 6378,
      "å®": 6379,
      "cles": 6380,
      "Ġfeatures": 6381,
      "record": 6382,
      "cel": 6383,
      "vas": 6384,
      "nections": 6385,
      "ĠEarth": 6386,
      "à²µà²¨": 6387,
      "à¤¾à¥ĳ": 6388,
      "Ġpict": 6389,
      "Ġà¬ıà¬¹": 6390,
      "Ġcritical": 6391,
      "ĠØªÚ¾Ø§": 6392,
      "Ġlives": 6393,
      "Ġve": 6394,
      "ynamic": 6395,
      "Ġà¤īà¤¦": 6396,
      "}/${": 6397,
      "ĠSoc": 6398,
      "ĠFirst": 6399,
      "feature": 6400,
      "à¤®à¤²": 6401,
      "rown": 6402,
      "á±©á±ľ": 6403,
      "Ġá±Ľá±®": 6404,
      "Ġdirectly": 6405,
      "AMP": 6406,
      "ECT": 6407,
      "amm": 6408,
      "fields": 6409,
      "DATE": 6410,
      "Step": 6411,
      "Ġoccur": 6412,
      "Hash": 6413,
      "ares": 6414,
      "etwork": 6415,
      "agine": 6416,
      "à¤¿âĢį": 6417,
      "Ø§Ø¦ÙĬÙĨ": 6418,
      "78": 6419,
      "Kind": 6420,
      "ĠAm": 6421,
      "umb": 6422,
      "Ġcancer": 6423,
      "ĠEXISTS": 6424,
      "Ġsound": 6425,
      "Ġ29": 6426,
      "plies": 6427,
      "Ġcomment": 6428,
      "STER": 6429,
      "Met": 6430,
      "uple": 6431,
      "itation": 6432,
      "Ġreli": 6433,
      "site": 6434,
      "Ġdiet": 6435,
      "ÛĮØ³": 6436,
      "Ġà¤Ĩà¤¤": 6437,
      "Ġ2011": 6438,
      "Ġcompet": 6439,
      "Ġflags": 6440,
      "(\\": 6441,
      "match": 6442,
      "Ġsust": 6443,
      "Ġimages": 6444,
      "ĠUN": 6445,
      "ÙĨØ¯Ø§": 6446,
      "License": 6447,
      "hing": 6448,
      "irth": 6449,
      "Ġdoct": 6450,
      "Ġcaused": 6451,
      "acters": 6452,
      "Ġtechniques": 6453,
      "/$": 6454,
      "Target": 6455,
      "iform": 6456,
      "Ġappend": 6457,
      "Ġdecided": 6458,
      "500": 6459,
      "USER": 6460,
      "Ġcomponents": 6461,
      "ĠØ³Ø±": 6462,
      "ontal": 6463,
      "Next": 6464,
      "Ġfix": 6465,
      "oder": 6466,
      "Ġaltern": 6467,
      "strong": 6468,
      "ĠÛģÛĮ": 6469,
      "Ġà¦¬à¦²": 6470,
      "Meta": 6471,
      "author": 6472,
      "ÃŃ": 6473,
      "Ġ''": 6474,
      "ÙħØ§ÙĨ": 6475,
      "Ġheav": 6476,
      "clear": 6477,
      "Header": 6478,
      ")),": 6479,
      "ivil": 6480,
      "ĠIsl": 6481,
      "ĠHT": 6482,
      "prototype": 6483,
      "Ġcommit": 6484,
      "Task": 6485,
      "à¦ı": 6486,
      "Ġmount": 6487,
      "Ġê¯ĭ": 6488,
      "Ġalmost": 6489,
      "ĠDep": 6490,
      "DITION": 6491,
      "Sl": 6492,
      "send": 6493,
      "ils": 6494,
      "ĠØªØ±": 6495,
      "Const": 6496,
      "Ġencour": 6497,
      "Ú¾ÙĬ": 6498,
      "à§°à¦ķ": 6499,
      "àª°àª¨": 6500,
      "Ġ32": 6501,
      "à¨°à¨¸": 6502,
      "Ġà¦Ĩà¦®": 6503,
      "Ġdf": 6504,
      "Script": 6505,
      ",-": 6506,
      "ĠGu": 6507,
      "Ġelectric": 6508,
      "PK": 6509,
      "stop": 6510,
      "à¤²à¤¤": 6511,
      "Ġcontr": 6512,
      "Ġiter": 6513,
      "OW": 6514,
      "³ļ": 6515,
      "á³ļ": 6516,
      "Ġrender": 6517,
      "Ġintern": 6518,
      "OUR": 6519,
      "sed": 6520,
      "coming": 6521,
      "à®ªà®¤": 6522,
      "ĠRef": 6523,
      "ros": 6524,
      "ĠSer": 6525,
      "Ġlimitations": 6526,
      "Down": 6527,
      "128": 6528,
      "Ġbegan": 6529,
      "à¸": 6530,
      "Ġmember": 6531,
      "àŃ«": 6532,
      "Container": 6533,
      "Ġbehind": 6534,
      "Dr": 6535,
      "arily": 6536,
      "Ġ{@": 6537,
      "thern": 6538,
      "Ġdiag": 6539,
      "Ġskin": 6540,
      "qview": 6541,
      "à§İ": 6542,
      "ĠÙħÙĤ": 6543,
      "Ġdelete": 6544,
      "ĠVec": 6545,
      "Ġargument": 6546,
      "Cell": 6547,
      "duc": 6548,
      "Ġsetting": 6549,
      "Ġ2019": 6550,
      "ascript": 6551,
      "74": 6552,
      "={": 6553,
      "Search": 6554,
      "ÚĨÚ¾": 6555,
      "Ġà´ī": 6556,
      "Ġbenefits": 6557,
      "system": 6558,
      "Ġful": 6559,
      "apsh": 6560,
      "Ġpublished": 6561,
      "Location": 6562,
      "bi": 6563,
      "ĠTom": 6564,
      "Ġconc": 6565,
      "Control": 6566,
      "Ġ90": 6567,
      "Ġcard": 6568,
      "settings": 6569,
      "COL": 6570,
      "Ñĥ": 6571,
      "ĠAUT": 6572,
      "ĠDes": 6573,
      "Ġpredict": 6574,
      "Ġculture": 6575,
      "inated": 6576,
      "à¥«": 6577,
      "Ġbeaut": 6578,
      "à¤ĸà¤¨": 6579,
      "Web": 6580,
      "Ġgives": 6581,
      "Ġparameter": 6582,
      "GL": 6583,
      "tw": 6584,
      "ĠBr": 6585,
      "fd": 6586,
      "à±Ĩà°Ĥ": 6587,
      "Ġeverything": 6588,
      "Ġearth": 6589,
      "Ġwatch": 6590,
      "contrib": 6591,
      "ê¯Ľê¯ħ": 6592,
      "Ġàª°àª¹": 6593,
      "ODO": 6594,
      "79": 6595,
      "ÏĢ": 6596,
      "Ġreach": 6597,
      "ĠĠĠĠĠĠĠĠĠĠĠĠĠĠĠĠĠĠ": 6598,
      "Ġ35": 6599,
      "sort": 6600,
      "ensive": 6601,
      ")))": 6602,
      "à¤ĩà¤¨": 6603,
      "ICE": 6604,
      "Ġquickly": 6605,
      "itect": 6606,
      "Ġfigure": 6607,
      "uber": 6608,
      "crete": 6609,
      "second": 6610,
      "Ġà²Ī": 6611,
      "ĠPol": 6612,
      "ILITY": 6613,
      "Ġá±¨á±®á±Ńá±Łá±ľ": 6614,
      "=(": 6615,
      "blog": 6616,
      "atest": 6617,
      "Listener": 6618,
      "delete": 6619,
      "Ġmachine": 6620,
      "ĠJohn": 6621,
      "Ġcred": 6622,
      "Ġlarger": 6623,
      "onstr": 6624,
      "PECT": 6625,
      "iar": 6626,
      "Ġá±´": 6627,
      "Ġê¯Ĵ": 6628,
      "Ġà¤ªà¤¨": 6629,
      "á±¤á±§": 6630,
      "ALTER": 6631,
      "ministr": 6632,
      "Ġharm": 6633,
      "Ġ80": 6634,
      "Ident": 6635,
      "Ġpoly": 6636,
      "Ġanc": 6637,
      "Ġdecre": 6638,
      "Ġmoment": 6639,
      "Ġvirus": 6640,
      "IO": 6641,
      "Use": 6642,
      "stack": 6643,
      "ission": 6644,
      "Body": 6645,
      "ban": 6646,
      "Ġà¤¨à¤µ": 6647,
      "ê¯Łê¯Ĵ": 6648,
      "Ġexisting": 6649,
      "Ġsafety": 6650,
      "Level": 6651,
      "widget": 6652,
      "atively": 6653,
      "Ġcub": 6654,
      "ĠBAS": 6655,
      "Ġreturned": 6656,
      "Ġio": 6657,
      "Ġshared": 6658,
      "inally": 6659,
      "Ġselected": 6660,
      "Ġaware": 6661,
      "bobo": 6662,
      "ĠØ³ÙĪ": 6663,
      "Store": 6664,
      "ĠàŃ¨": 6665,
      "Ġreceived": 6666,
      "âĤ¬": 6667,
      "help": 6668,
      "Ġtold": 6669,
      "Ġthrows": 6670,
      "Core": 6671,
      "Session": 6672,
      "Vector": 6673,
      "namespace": 6674,
      "ĠHere": 6675,
      "ulti": 6676,
      "Ġanything": 6677,
      "Ġallowed": 6678,
      "Ġà¤¤à¤¥": 6679,
      "000000": 6680,
      "Ġsex": 6681,
      "isions": 6682,
      "Ġsequence": 6683,
      "uthors": 6684,
      "Ġviol": 6685,
      "Ġ×": 6686,
      "Ġfit": 6687,
      "à¬ģ": 6688,
      "agment": 6689,
      "ĠàªŁ": 6690,
      "à¤ıà¤²": 6691,
      "Ġà¤ĩà¤¤": 6692,
      "ê¯Ľê¯Ģ": 6693,
      "Ġdesigned": 6694,
      "ĠÙ¿ÙĪ": 6695,
      "Height": 6696,
      "Ab": 6697,
      "Dialog": 6698,
      "Mon": 6699,
      "Ġmsg": 6700,
      "Ġsolutions": 6701,
      "åĪ": 6702,
      "Ġsettings": 6703,
      "Addr": 6704,
      "ĠResult": 6705,
      "Ġfinancial": 6706,
      "61": 6707,
      "itute": 6708,
      "Ġwin": 6709,
      "ĠâĢĿ": 6710,
      "Ù¹ÛĮ": 6711,
      "Ġmaximum": 6712,
      "à§ĩ,": 6713,
      "ĠĠĠĠĠĠĠĠĠĠĠĠĠĠĠĠĠĠĠĠĠ": 6714,
      "Ġà¤Ľà¤¨": 6715,
      "Ġdatabase": 6716,
      "à¬Łà¬¨à¬®": 6717,
      "Ġcalculate": 6718,
      "Ġà²®à²¤": 6719,
      "Ġenvironmental": 6720,
      "Ġleading": 6721,
      "Ġparents": 6722,
      "Length": 6723,
      "tog": 6724,
      "Ġjoin": 6725,
      "ĠØ¯ÛĮ": 6726,
      "plicit": 6727,
      "dbo": 6728,
      "Ġaim": 6729,
      "ê¯Ŀê¯ķ": 6730,
      "Ġpassed": 6731,
      "á±Łá±Ľá±®": 6732,
      "ĠRep": 6733,
      "ĠForm": 6734,
      "oe": 6735,
      "range": 6736,
      "Ġyourself": 6737,
      "Ġà¤¯à¤¹": 6738,
      "Ġdiagn": 6739,
      "ĠâĪĴ": 6740,
      "Let": 6741,
      "Ġjson": 6742,
      "Ġenv": 6743,
      "Ø¨Ø§ÙĨ": 6744,
      "utor": 6745,
      "à¦®à¦¨": 6746,
      "ribe": 6747,
      "orrect": 6748,
      "Ġspr": 6749,
      "Ø§Ø±ÛĮ": 6750,
      "Connection": 6751,
      "Ġinher": 6752,
      "Ø§Ù¾": 6753,
      "à¤¯à¤°": 6754,
      "ĠApr": 6755,
      "Ġchemical": 6756,
      "dro": 6757,
      "isf": 6758,
      "ican": 6759,
      "Ġnodes": 6760,
      "Ġsoon": 6761,
      "Ġappropriate": 6762,
      "rary": 6763,
      "ĠÚĩ": 6764,
      "Ġà¤¬à¤¤": 6765,
      "Ġê¯ĥê¯ĥ": 6766,
      "Ġrock": 6767,
      "After": 6768,
      "uate": 6769,
      "ĠLe": 6770,
      "Ġchain": 6771,
      "irectory": 6772,
      "Ġrotate": 6773,
      "apy": 6774,
      "should": 6775,
      "ught": 6776,
      "Sign": 6777,
      "Ġ31": 6778,
      "ĠJS": 6779,
      "ĠProject": 6780,
      "Ġstatement": 6781,
      "Ġste": 6782,
      "ĠĠĠĠĠĠĠĠĠĠĠĠĠĠĠĠĠĠĠĠ": 6783,
      "Print": 6784,
      "á±Łá±¥": 6785,
      "rought": 6786,
      "Ġgenerate": 6787,
      "Ġbring": 6788,
      "PORT": 6789,
      "lyph": 6790,
      "oul": 6791,
      "ĠPM": 6792,
      "à¤Łà¤ķ": 6793,
      "evelop": 6794,
      "Ġeconomic": 6795,
      "Num": 6796,
      "Ġord": 6797,
      "cret": 6798,
      "Width": 6799,
      "ĠØ¨ÙĨ": 6800,
      "values": 6801,
      "Ġbooks": 6802,
      "á±¡": 6803,
      "lege": 6804,
      "Ġà´Ĵ": 6805,
      "à¦ķà§°": 6806,
      "ĠÚªÙĬÙĪ": 6807,
      "Ġà¤Ľà¤²": 6808,
      "itution": 6809,
      "ĠPRIMARY": 6810,
      "ĠGerm": 6811,
      "comment": 6812,
      "Ġ/>": 6813,
      "DEF": 6814,
      "Ġcollection": 6815,
      "Ġdefine": 6816,
      "allel": 6817,
      "ober": 6818,
      "ino": 6819,
      "Ġisn": 6820,
      "elocity": 6821,
      "AV": 6822,
      "mk": 6823,
      "Ġnational": 6824,
      "Ġdigital": 6825,
      "cy": 6826,
      "Ļá±": 6827,
      "Ġnp": 6828,
      "ĠOct": 6829,
      "à«Ģ.": 6830,
      "Ġê¯ĥê¯Į": 6831,
      "à¦Ĺà¦¤": 6832,
      "Ġeyes": 6833,
      "itary": 6834,
      "::{": 6835,
      "CONFIG": 6836,
      "VM": 6837,
      "Volume": 6838,
      "_;": 6839,
      "å¸": 6840,
      "ĠÙĪØ§ÙĦ": 6841,
      "Ġà¤īà¤¸": 6842,
      "Ġcompared": 6843,
      "Ġchanged": 6844,
      "////////////////////////////////": 6845,
      "Ġtraditional": 6846,
      "Ġindustry": 6847,
      "CP": 6848,
      "Ġimmedi": 6849,
      "à¤¼à¥Ģ": 6850,
      "Ġarguments": 6851,
      "Ġequip": 6852,
      "Ġà¨Ł": 6853,
      "Ġà²ī": 6854,
      "ĠFind": 6855,
      "Ġà¤Ĩà¤®": 6856,
      "ĠÙ¾ÙĪ": 6857,
      "Ġàªıàªķ": 6858,
      "Ġenh": 6859,
      "shape": 6860,
      "Ġalgorithm": 6861,
      "Ġcamp": 6862,
      "ĠSec": 6863,
      "Ġprice": 6864,
      "Ġregister": 6865,
      "ĠCONDITION": 6866,
      "åĮ": 6867,
      "ĠSu": 6868,
      "Thread": 6869,
      "Ġwrong": 6870,
      "hent": 6871,
      "Ġdefinition": 6872,
      "STRA": 6873,
      "grid": 6874,
      "à¤¾-": 6875,
      "Ġà¤¹à¤°": 6876,
      "àŃ¦àŃ¨": 6877,
      "ronic": 6878,
      "product": 6879,
      "depth": 6880,
      "equ": 6881,
      "kube": 6882,
      "Record": 6883,
      "ORE": 6884,
      "alar": 6885,
      "strict": 6886,
      "ression": 6887,
      "ONT": 6888,
      "ĠAmerica": 6889,
      "Ġsave": 6890,
      "Ġfem": 6891,
      "Ġdoc": 6892,
      "Ġà¬¯": 6893,
      "usion": 6894,
      "Ġestim": 6895,
      "á±Ĳá±": 6896,
      "di": 6897,
      "Ġmanufact": 6898,
      "Ġadult": 6899,
      "Ġideas": 6900,
      "Tree": 6901,
      "wik": 6902,
      "erve": 6903,
      "Ġcontainer": 6904,
      "DR": 6905,
      "Ġtri": 6906,
      "Ù¿": 6907,
      "ony": 6908,
      "ams": 6909,
      "Ġprop": 6910,
      "Ġà¤Ĺà¤¯": 6911,
      "àµĪ": 6912,
      "ÙĪÛĮ": 6913,
      "abit": 6914,
      "ports": 6915,
      "àŃ¦àŃ®àŃ": 6916,
      "Ġeasily": 6917,
      "Copy": 6918,
      "Ġ;;": 6919,
      "Ġangle": 6920,
      "Cache": 6921,
      "OM": 6922,
      "*)": 6923,
      "rase": 6924,
      "Ġpointer": 6925,
      "Ġsynt": 6926,
      "Ġgenerated": 6927,
      "ĠCONDITIONS": 6928,
      "ĠPost": 6929,
      "ĠCOVID": 6930,
      "à¤¯à¤ļ": 6931,
      "ĠCre": 6932,
      "ĠRev": 6933,
      "STR": 6934,
      "Ġpolicy": 6935,
      "Ù½ÙĬ": 6936,
      "á±Łá±¹á±ľ": 6937,
      "ĠØ·ÙĪØ±": 6938,
      "Ġdemonstr": 6939,
      "ĠBASIS": 6940,
      "ama": 6941,
      "URR": 6942,
      "Types": 6943,
      "urity": 6944,
      "ĠHer": 6945,
      "Ġcharacters": 6946,
      "Ġchoose": 6947,
      "Utils": 6948,
      "dropdown": 6949,
      "za": 6950,
      "Ġsmaller": 6951,
      "Ġplease": 6952,
      "Ġdir": 6953,
      "ĠSE": 6954,
      "Ġà¦īà¦ª": 6955,
      "ĠEvery": 6956,
      "Ġdescribe": 6957,
      "FOR": 6958,
      "linear": 6959,
      "OG": 6960,
      "à¦¾à¦Ĥ": 6961,
      "Ġ36": 6962,
      "Ġplatform": 6963,
      "bg": 6964,
      "Ġow": 6965,
      "à¨ı": 6966,
      "ĠÚ³": 6967,
      "usform": 6968,
      "à¦¼à¥¤": 6969,
      "à®©à®°": 6970,
      "ê¯Ľê¯ĩ": 6971,
      "Ġcarbon": 6972,
      "Ġcauses": 6973,
      "ography": 6974,
      "numerusform": 6975,
      "Ġeat": 6976,
      "Ġbalance": 6977,
      "ĠPe": 6978,
      "ĠOut": 6979,
      "Ġcompan": 6980,
      "Ġraise": 6981,
      "aints": 6982,
      "ØªØ±": 6983,
      "73": 6984,
      "tool": 6985,
      "Ġà¨¡": 6986,
      "Ġá±Ĵ": 6987,
      "á±Łá±ł": 6988,
      "à§°à§°": 6989,
      "Ġà¤Ĩà¤«": 6990,
      "REF": 6991,
      "Ġhands": 6992,
      "Ġinvolved": 6993,
      ")\\": 6994,
      "Ġpolitical": 6995,
      "Ġbyte": 6996,
      "Ñĸ": 6997,
      "isms": 6998,
      "otal": 6999,
      "illion": 7000,
      "Ġfrequency": 7001,
      "81": 7002,
      "ĠIndian": 7003,
      "Position": 7004,
      "51": 7005,
      "JECT": 7006,
      "}{\\": 7007,
      "Ġà¤®à¤§": 7008,
      "posite": 7009,
      "à¨¼à¨¾": 7010,
      "Format": 7011,
      "ĠÚªØ±Ú»": 7012,
      "Ġá±Ľá±Łá±¦á±®á±": 7013,
      "ĠNote": 7014,
      "orest": 7015,
      "Ġearli": 7016,
      "Ġapplications": 7017,
      "Ġprobably": 7018,
      "RR": 7019,
      "cover": 7020,
      "onal": 7021,
      "Ġpackage": 7022,
      "lose": 7023,
      "sim": 7024,
      "Ġ++": 7025,
      "Ġemail": 7026,
      "ĠÙĦÙĪ": 7027,
      "!!": 7028,
      "exit": 7029,
      "ÙħÙĨ": 7030,
      "á±®á±Ľ": 7031,
      "àª®àª¨": 7032,
      "Ġà¥§": 7033,
      "handle": 7034,
      "patch": 7035,
      "Ðº": 7036,
      "Ġforward": 7037,
      "PA": 7038,
      "Ġcore": 7039,
      "ĠII": 7040,
      "connect": 7041,
      "82": 7042,
      "sig": 7043,
      "Ġreplace": 7044,
      "umin": 7045,
      "Ġheader": 7046,
      "flags": 7047,
      "olved": 7048,
      "chools": 7049,
      "à¨¤à¨°": 7050,
      "Bytes": 7051,
      "Ġthinking": 7052,
      "App": 7053,
      "rupt": 7054,
      "Local": 7055,
      "uge": 7056,
      "à¨ī": 7057,
      "à¬¿.": 7058,
      "à¦¬à¦²": 7059,
      "Ġque": 7060,
      "Ġotherwise": 7061,
      "Ġsizeof": 7062,
      "Ġdescription": 7063,
      "split": 7064,
      "orem": 7065,
      "using": 7066,
      "Ġ2010": 7067,
      "javascript": 7068,
      "'ve": 7069,
      "graph": 7070,
      "Ġoverall": 7071,
      "Ġsymbol": 7072,
      "orizontal": 7073,
      "win": 7074,
      "åĬ": 7075,
      "erence": 7076,
      "Ø¨Ø§Ø¯": 7077,
      "tc": 7078,
      "Ġinform": 7079,
      "uler": 7080,
      "à¤ķà¤¤": 7081,
      "Ġà¤¦à¤°": 7082,
      "à³ģ,": 7083,
      "Ġperfect": 7084,
      "ĠResearch": 7085,
      "Classes": 7086,
      "ka": 7087,
      "ĠTher": 7088,
      "bind": 7089,
      "Ġwall": 7090,
      "Ġhidden": 7091,
      "switch": 7092,
      "Ġbelieve": 7093,
      "Ġgrep": 7094,
      "java": 7095,
      "Ġnight": 7096,
      "Ø±Ø¯": 7097,
      "Ġcoordin": 7098,
      "'],": 7099,
      "Ar": 7100,
      "ê£": 7101,
      "ê¯Ĳ": 7102,
      "alysis": 7103,
      "resents": 7104,
      "á±Łá±¡": 7105,
      "Ġapplied": 7106,
      "Ġê¯ĥê¯ĩê¯Ŀ": 7107,
      "ĠOpen": 7108,
      "plications": 7109,
      "Column": 7110,
      "Ptr": 7111,
      "Ġhar": 7112,
      "ĠAug": 7113,
      "ĠAPI": 7114,
      "ango": 7115,
      "JSON": 7116,
      "63": 7117,
      "Ġoil": 7118,
      "Ġstack": 7119,
      "ĠHel": 7120,
      "Ġsoil": 7121,
      "à²ĸ": 7122,
      "Ġthus": 7123,
      "ocab": 7124,
      "Ġà¤ħà¤¸à¤¤": 7125,
      "fill": 7126,
      "åį": 7127,
      "à¦¾à¦ģ": 7128,
      "iring": 7129,
      "Ġà¤¬à¤¹": 7130,
      "soft": 7131,
      "undred": 7132,
      "Ġà¤ħà¤¸à¤²": 7133,
      "Ġàªķàª°àªµ": 7134,
      "Vis": 7135,
      "Ġlock": 7136,
      "ancy": 7137,
      "ĠFUN": 7138,
      "Ġmagnet": 7139,
      "ãĢĤ": 7140,
      "STRAINT": 7141,
      "rics": 7142,
      "à²¤à²°": 7143,
      "Ġremain": 7144,
      "BUIL": 7145,
      "PAR": 7146,
      "Ġheld": 7147,
      "__(": 7148,
      "ĠInc": 7149,
      "Ġcounter": 7150,
      "àµ¾": 7151,
      "ĠAc": 7152,
      "Ġà¤ķà¤²": 7153,
      "Ġê¯ĥê¯į": 7154,
      "Ġà¤ļà¤²": 7155,
      "àª¿àªĤ": 7156,
      "WIT": 7157,
      "cm": 7158,
      "oom": 7159,
      "Ġtransparent": 7160,
      "Ġ),": 7161,
      "Ġphone": 7162,
      "coq": 7163,
      "rust": 7164,
      "Ġfill": 7165,
      "ĉĉĊ": 7166,
      "Ġ,[": 7167,
      "Func": 7168,
      "cmp": 7169,
      "Ġlibrary": 7170,
      "izations": 7171,
      "Ġer": 7172,
      "Ġled": 7173,
      "àª°àª£": 7174,
      "Ġà¤ħà¤¶": 7175,
      "ecause": 7176,
      "á±©á±¢": 7177,
      "keys": 7178,
      "Ġoperations": 7179,
      "Ġblocks": 7180,
      "enn": 7181,
      "à¤¦à¤²": 7182,
      "Ġquite": 7183,
      "Ġce": 7184,
      "Ġattention": 7185,
      "Ġparticularly": 7186,
      "dim": 7187,
      "Ġgit": 7188,
      "Ġsmiled": 7189,
      "ĠRegister": 7190,
      "ÙĪØ¨": 7191,
      "clos": 7192,
      "alloc": 7193,
      "á±ļá±ŀ": 7194,
      "Comp": 7195,
      "Ġprocesses": 7196,
      "à¦ĸà¦¨": 7197,
      "Ġinteger": 7198,
      "EM": 7199,
      "hr": 7200,
      "ĠTable": 7201,
      "step": 7202,
      "ĠØ¯ÙĪØ±": 7203,
      ")$": 7204,
      "Ġdemand": 7205,
      "Ġfailure": 7206,
      "Ġfront": 7207,
      "=\\": 7208,
      "±Û": 7209,
      "åĲ": 7210,
      "à¬ĺ": 7211,
      "Ġthous": 7212,
      "à¦ĵà¦¯": 7213,
      "enabled": 7214,
      "ĠArray": 7215,
      "items": 7216,
      "Ġdevices": 7217,
      "Ġpatterns": 7218,
      "outer": 7219,
      "\",\"": 7220,
      "tools": 7221,
      "weet": 7222,
      "temp": 7223,
      "Ġtd": 7224,
      "Ġtravel": 7225,
      "ĠOf": 7226,
      "ĠOff": 7227,
      "aws": 7228,
      "scale": 7229,
      "à¥¬": 7230,
      "à¥ĭ.": 7231,
      "ĠØ¢Ø±": 7232,
      "WORK": 7233,
      "Ġfixed": 7234,
      "eft": 7235,
      "Ġtesting": 7236,
      "ĠRun": 7237,
      "Ġresearchers": 7238,
      "Attribute": 7239,
      "Ġexactly": 7240,
      ")*": 7241,
      "ANT": 7242,
      "Ġdaily": 7243,
      "ĠFound": 7244,
      "ĠFeb": 7245,
      "cloud": 7246,
      "aka": 7247,
      "Ġcruc": 7248,
      "words": 7249,
      "Ġtherefore": 7250,
      "Ġà²Ĵ": 7251,
      "Ġraw": 7252,
      "Ġremov": 7253,
      "Ġprograms": 7254,
      "ĠÙĬØ§": 7255,
      ".$": 7256,
      "URE": 7257,
      "lg": 7258,
      "into": 7259,
      "Ġloop": 7260,
      "Ġpractices": 7261,
      "Ġchallenges": 7262,
      "Root": 7263,
      "Ġcast": 7264,
      "lections": 7265,
      "Ġdeg": 7266,
      "Ġcopyright": 7267,
      "Ġvariety": 7268,
      "rew": 7269,
      "ĠKey": 7270,
      "Ġextrem": 7271,
      "compiler": 7272,
      "ĠCHAR": 7273,
      "Ġvec": 7274,
      "ÙĨØ¯ÙĬ": 7275,
      "à¨¦à¨°": 7276,
      "ernel": 7277,
      "Ġforest": 7278,
      "notation": 7279,
      "Ġdownload": 7280,
      "Module": 7281,
      "ials": 7282,
      "servation": 7283,
      "Work": 7284,
      "Ġaud": 7285,
      "------------": 7286,
      "models": 7287,
      "Ġelectr": 7288,
      "Order": 7289,
      "Device": 7290,
      "ball": 7291,
      "Ñı": 7292,
      "Ġnov": 7293,
      "Ġ{\"": 7294,
      "à¤°à¤ľ": 7295,
      "Ġá±¤": 7296,
      "à¦¾à¥¤": 7297,
      "ĠDel": 7298,
      "àŃŁà¬°": 7299,
      "Ġá±¦á±ļá±±á±ļá±Ľ": 7300,
      "rule": 7301,
      "Ġactions": 7302,
      "Ġstories": 7303,
      "Ġnothing": 7304,
      "Ġshap": 7305,
      "ĠComput": 7306,
      "netes": 7307,
      "ĠEXPECT": 7308,
      "ubernetes": 7309,
      "onom": 7310,
      "Ġwarm": 7311,
      "urch": 7312,
      "ONE": 7313,
      "Unit": 7314,
      "iles": 7315,
      "ĠNO": 7316,
      "Ġtax": 7317,
      "ĠArt": 7318,
      "plugin": 7319,
      "ĉĠĠĠ": 7320,
      "Ġbecomes": 7321,
      "Ġà¬²": 7322,
      "á±Łá±«": 7323,
      "while": 7324,
      "à²Ĺà²³à²¨": 7325,
      "Ġcommunities": 7326,
      "á±¢á±Ł": 7327,
      "ieved": 7328,
      "False": 7329,
      "Ġpul": 7330,
      "Ġmis": 7331,
      "Ġnorm": 7332,
      "Ġconfiguration": 7333,
      "men": 7334,
      "oday": 7335,
      "Ġ&'": 7336,
      "Ġgenerally": 7337,
      "artment": 7338,
      "even": 7339,
      "mock": 7340,
      "Ġpsych": 7341,
      "Ġ./": 7342,
      "à¤§à¤¨": 7343,
      "à¥Īà¤Ĥà¥¤": 7344,
      "Ġscientific": 7345,
      "ds": 7346,
      "mitted": 7347,
      "Ġà¤¬à¤¢": 7348,
      "arc": 7349,
      "MAX": 7350,
      "asons": 7351,
      "Ġflag": 7352,
      "Ġswitch": 7353,
      "KUBE": 7354,
      "Lock": 7355,
      "Ġà¤¤à¤¸": 7356,
      "ĠØ¹ÙĦ": 7357,
      "Ġsignal": 7358,
      "Ġexpand": 7359,
      "ĠGeneral": 7360,
      "mun": 7361,
      "Invalid": 7362,
      "Ġsets": 7363,
      "Char": 7364,
      "Ġequival": 7365,
      ";/": 7366,
      "Del": 7367,
      "Menu": 7368,
      "ĠâĢĻ": 7369,
      "aby": 7370,
      "ĠBo": 7371,
      "ĠDate": 7372,
      "cluster": 7373,
      "à¥Ī,": 7374,
      "à¨°à¨ķ": 7375,
      "à®Łà®¤": 7376,
      "Ġà¤Ńà¤ıà¤ķ": 7377,
      "à¥ĭà¤Ĥà¥¤": 7378,
      "ê¯¢ê¯ħ": 7379,
      "ESCRIPT": 7380,
      "Ġreve": 7381,
      "iba": 7382,
      "callback": 7383,
      "mount": 7384,
      "pite": 7385,
      "ĠIP": 7386,
      "Ġà²ļ": 7387,
      "ĠEach": 7388,
      "percent": 7389,
      "normal": 7390,
      "Ġblue": 7391,
      "Bl": 7392,
      "Debug": 7393,
      "Ġà¬®à¬§": 7394,
      "Ġvisual": 7395,
      "Ġà¤ĵà¤¹": 7396,
      "Ġmention": 7397,
      "ĠUnless": 7398,
      "Ġmedic": 7399,
      "ictionary": 7400,
      "83": 7401,
      "double": 7402,
      "Ġwide": 7403,
      "Ġproced": 7404,
      "ĠComp": 7405,
      "Ġtrees": 7406,
      "ECK": 7407,
      "Ġwonder": 7408,
      "lor": 7409,
      "estern": 7410,
      "sect": 7411,
      "Ġflex": 7412,
      "Ġreported": 7413,
      "ĠNumber": 7414,
      "Ø§Ø´": 7415,
      "ĠJust": 7416,
      "Ġunsafe": 7417,
      "à´°à´¤": 7418,
      "Ġê¯ĳê¯ĥê¯ģ": 7419,
      "Ġqview": 7420,
      "AA": 7421,
      "CD": 7422,
      "Ġsurround": 7423,
      "Ã¢": 7424,
      "abilities": 7425,
      "ĠĠĠĠĠĠĠĠĠĠĠĠĠĠĠĠĠĠĠĠĠĠĠĠ": 7426,
      "CHECK": 7427,
      "ANG": 7428,
      "Ġcommunication": 7429,
      "iciency": 7430,
      "()).": 7431,
      "ĠScience": 7432,
      "Ġlearned": 7433,
      "UNT": 7434,
      "_(": 7435,
      "acro": 7436,
      "Provider": 7437,
      "nother": 7438,
      "support": 7439,
      "à¥Ń": 7440,
      "Ġàª¡": 7441,
      "ÙĦØ§": 7442,
      "Ġupper": 7443,
      "Ġsupply": 7444,
      "hedule": 7445,
      "ologies": 7446,
      "Enc": 7447,
      "Params": 7448,
      "xx": 7449,
      "hol": 7450,
      "render": 7451,
      "ĠMany": 7452,
      "Ġfeet": 7453,
      "Ġcharge": 7454,
      "AX": 7455,
      "high": 7456,
      "sudo": 7457,
      "Ġbond": 7458,
      "ĠADD": 7459,
      "Ġconcent": 7460,
      "ĠWest": 7461,
      "Ġready": 7462,
      "àŃ¨": 7463,
      "ĠPres": 7464,
      "à¥Ĥà¤Ĥ": 7465,
      "ously": 7466,
      "á±¤á±Ľ": 7467,
      "Ġà¦®à¦¨": 7468,
      "Section": 7469,
      "Ġà¥¨à¥¦": 7470,
      "Op": 7471,
      "BUG": 7472,
      "Ġbuy": 7473,
      "asm": 7474,
      "ament": 7475,
      "Ġlayer": 7476,
      "ĠRel": 7477,
      "ĠLI": 7478,
      "Ġreserved": 7479,
      "TW": 7480,
      "Ġeth": 7481,
      "Ġfarm": 7482,
      "Ġvalu": 7483,
      "Ġmock": 7484,
      "Ġhyp": 7485,
      "ÙĬÙħ": 7486,
      "Ġke": 7487,
      "ĠFalse": 7488,
      "Ġmoving": 7489,
      "summary": 7490,
      "make": 7491,
      "Ġmagn": 7492,
      "Ġ\"-": 7493,
      "Ġà²Ń": 7494,
      "à¥Įà¤Ĥ": 7495,
      "Ġá±±á±ļá±£á±Ł": 7496,
      "Pass": 7497,
      "Ġmix": 7498,
      "standing": 7499,
      "Ġcand": 7500,
      "ĠFunction": 7501,
      "Ġdecision": 7502,
      "ESTAMP": 7503,
      "IX": 7504,
      "sd": 7505,
      "tar": 7506,
      "Ġlost": 7507,
      "idx": 7508,
      "RT": 7509,
      "Ġ{'": 7510,
      "ĠSur": 7511,
      "Ġround": 7512,
      "ROOT": 7513,
      "Ġseek": 7514,
      "ynt": 7515,
      "ĠCons": 7516,
      "ership": 7517,
      "Ġà°¹": 7518,
      "à¦¤à§°": 7519,
      "Ġstarting": 7520,
      "Ġà¬°à¬¹": 7521,
      "AY": 7522,
      "SY": 7523,
      "custom": 7524,
      "ga": 7525,
      "åľ": 7526,
      "Ġlack": 7527,
      "Ġ1000": 7528,
      "à²¾à²Ĥ": 7529,
      "Ġpret": 7530,
      "IMESTAMP": 7531,
      "Ġcultural": 7532,
      "Ġdegree": 7533,
      "Ġrelease": 7534,
      "Ġ{\\": 7535,
      "ĠTODO": 7536,
      "Ġknew": 7537,
      "Ġplayed": 7538,
      "SU": 7539,
      "icult": 7540,
      "Ġtown": 7541,
      "ILE": 7542,
      "Ġesc": 7543,
      "ĠSelf": 7544,
      "ĠName": 7545,
      "ĠĠĠĠĠĠĠĠĠĠĠĠĠĠĠĠĠĠĠĠĠĠ": 7546,
      "ustral": 7547,
      "Do": 7548,
      "Ent": 7549,
      "Iter": 7550,
      "iers": 7551,
      "rf": 7552,
      "à¥įà¥¤": 7553,
      "asure": 7554,
      "Ġhundred": 7555,
      "Ú©ÙĨ": 7556,
      "ê¯¡ê¯Ĺê¯Ĵ": 7557,
      "queue": 7558,
      "irr": 7559,
      "Ġtra": 7560,
      "ilos": 7561,
      "odies": 7562,
      "Ġpoor": 7563,
      "IE": 7564,
      "Layout": 7565,
      "ĉĠ": 7566,
      "Ġing": 7567,
      "Ġgard": 7568,
      "Ġgames": 7569,
      "boot": 7570,
      "Ø¹Ø¯": 7571,
      "Ġ'/": 7572,
      "DEX": 7573,
      "Flags": 7574,
      "yll": 7575,
      "Ġà°Ń": 7576,
      "ĠBY": 7577,
      "Ġà¤ªà¤£": 7578,
      "ĠÙĨÙĩ": 7579,
      "Ġà¨¸à¨®": 7580,
      "ÚıÙĩÙĨ": 7581,
      "Ġstrategies": 7582,
      "sync": 7583,
      "ĠLear": 7584,
      "Ġplaces": 7585,
      "Ġofficial": 7586,
      "Ġcentral": 7587,
      "Ġratio": 7588,
      "Ġ_.": 7589,
      "umns": 7590,
      "Ġclick": 7591,
      "Parse": 7592,
      "ĠMovies": 7593,
      "car": 7594,
      "concept": 7595,
      "ÙĩØ§ÙĨ": 7596,
      "pository": 7597,
      "ĠĠĠĠĠĠĠĠĠĠĠĠĠĠĠĠĠĠĠĠĠĠĠĠĠĠĠĠĠĠĠĠĠĠĠĠĠĠĠ": 7598,
      "Ġregarding": 7599,
      "hest": 7600,
      "à¤°à¤¯": 7601,
      "à¤¯à¤¦": 7602,
      "ocaml": 7603,
      "à¨°à¨¡": 7604,
      "Ġenable": 7605,
      "look": 7606,
      "profile": 7607,
      "à°²à°ķ": 7608,
      "Ġsolar": 7609,
      "hesis": 7610,
      "ESCRIPTION": 7611,
      "Each": 7612,
      "Ġthreat": 7613,
      "à¤¤à¤¨": 7614,
      "apan": 7615,
      "Ġclasses": 7616,
      "ĠØ¨Ø±": 7617,
      "Ġseems": 7618,
      "Duration": 7619,
      "glyph": 7620,
      "iful": 7621,
      "Ġalign": 7622,
      "Ø§ØªÚ¾": 7623,
      "Show": 7624,
      "Ġmovement": 7625,
      "My": 7626,
      "MAT": 7627,
      "à¤°à¤ª": 7628,
      "inder": 7629,
      "ĠAlso": 7630,
      "Ġorigin": 7631,
      "/\"": 7632,
      "ĠÌ": 7633,
      "Ġsus": 7634,
      "ĠØ§Ùħ": 7635,
      "ĠØ§Ø³Øª": 7636,
      "related": 7637,
      "à¥®": 7638,
      "à¥ģà¥Ĵ": 7639,
      "Ġanimal": 7640,
      "defer": 7641,
      "Ġà§§à§": 7642,
      "RIGHT": 7643,
      "apshot": 7644,
      "eds": 7645,
      "Ġproviding": 7646,
      "Ġmonitor": 7647,
      "ĠCONSTRAINT": 7648,
      "ĠCalcul": 7649,
      "Ġvertical": 7650,
      "footer": 7651,
      "Dat": 7652,
      "TRA": 7653,
      "sive": 7654,
      "atically": 7655,
      "Ġintr": 7656,
      "Ġkids": 7657,
      "Ġperspect": 7658,
      ">::": 7659,
      "_->": 7660,
      "ien": 7661,
      "truct": 7662,
      "Ġwebsite": 7663,
      "Ġcoin": 7664,
      "Ġwind": 7665,
      "ĠAre": 7666,
      "Ġshift": 7667,
      "Ġpred": 7668,
      "ymbol": 7669,
      "auto": 7670,
      "GC": 7671,
      "Sec": 7672,
      "Vert": 7673,
      "Ġhop": 7674,
      "Ġá±°": 7675,
      "Ġà´²": 7676,
      "ĠOver": 7677,
      "Ġà¨¸à¨ķ": 7678,
      "Ġà¤ĸà¤°": 7679,
      "Ġreceive": 7680,
      "Gr": 7681,
      "Ġanimation": 7682,
      "Ġ300": 7683,
      "Ġtransport": 7684,
      "ABILITY": 7685,
      "card": 7686,
      "Ġhope": 7687,
      "Ġveget": 7688,
      "Ġ..": 7689,
      "Ġsad": 7690,
      "Ġcrucial": 7691,
      "abor": 7692,
      "Ġcluster": 7693,
      "Ġimportance": 7694,
      "Ġguid": 7695,
      "levant": 7696,
      "à§°à¦£": 7697,
      "à¨°à¨¤": 7698,
      "ĠØ³Ú¯": 7699,
      "à¦¼à¦¿": 7700,
      "MC": 7701,
      "ao": 7702,
      "illi": 7703,
      "Ġpurpose": 7704,
      "Ġnor": 7705,
      "ĠSince": 7706,
      "ĠMark": 7707,
      "Ġsha": 7708,
      "Ġcosts": 7709,
      "jection": 7710,
      "ios": 7711,
      "à¤±": 7712,
      "à¯ģ,": 7713,
      "Ġ64": 7714,
      "ê¯Ŀê¯Ĵ": 7715,
      "styles": 7716,
      "Ġyield": 7717,
      "Ġlargest": 7718,
      "ĠUnder": 7719,
      "hold": 7720,
      "picker": 7721,
      "Storage": 7722,
      "urrency": 7723,
      "Ġdescribed": 7724,
      "Ġfollowed": 7725,
      "Ġedge": 7726,
      "Ġcycle": 7727,
      "Ġexperiences": 7728,
      "care": 7729,
      "á±ļá±ł": 7730,
      "Ġê¯ĳê¯ĥê¯Ĵ": 7731,
      "ê¯ıê¯Ħ": 7732,
      "2015": 7733,
      "Ġsituation": 7734,
      "FONT": 7735,
      "endar": 7736,
      "Ġ70": 7737,
      "Ûķ": 7738,
      "password": 7739,
      "\"}": 7740,
      "915": 7741,
      "Any": 7742,
      "Ġsatisf": 7743,
      "Ġpush": 7744,
      "email": 7745,
      "ĠâĢ¢": 7746,
      "Ġ2009": 7747,
      "Úĥ": 7748,
      "à¬ı": 7749,
      "à¤ķà¤¨": 7750,
      "à°µà°°": 7751,
      "Ġconsist": 7752,
      "Ġà¬¸à¬®": 7753,
      "Ġbranch": 7754,
      "Ġprocessing": 7755,
      "Ġê¯±ê¯": 7756,
      "($": 7757,
      "php": 7758,
      "Ġrepresents": 7759,
      "71": 7760,
      "cb": 7761,
      "Ġran": 7762,
      "ĠDevelop": 7763,
      "Definition": 7764,
      "Ġgave": 7765,
      "BS": 7766,
      "Ġsession": 7767,
      "ulated": 7768,
      "à¤²à¤¬": 7769,
      "Ġstar": 7770,
      "riptor": 7771,
      "Ġinternational": 7772,
      "Ver": 7773,
      "à¤°à¤Ń": 7774,
      "Ġhot": 7775,
      "Ġtransaction": 7776,
      "à®µà®¤": 7777,
      "ê¯ıê¯ħ": 7778,
      "Ġdiseases": 7779,
      "gradient": 7780,
      "Ġcompanies": 7781,
      "Ġctx": 7782,
      "FIX": 7783,
      "Template": 7784,
      "Ġfair": 7785,
      "Ġpatient": 7786,
      "Ġwood": 7787,
      "Ġbey": 7788,
      "quote": 7789,
      "Ġtried": 7790,
      "Ġfeature": 7791,
      "Current": 7792,
      "Tag": 7793,
      "Ġdry": 7794,
      "henomen": 7795,
      "PUT": 7796,
      "Ġà°Ł": 7797,
      "ĠPublic": 7798,
      "Ø§Ú»ÙĬ": 7799,
      "Ġbeyond": 7800,
      "Go": 7801,
      "Rel": 7802,
      "ees": 7803,
      "ni": 7804,
      "admin": 7805,
      "Ġ\",": 7806,
      "rest": 7807,
      "Ġspect": 7808,
      "urance": 7809,
      "Stack": 7810,
      "Ġbutton": 7811,
      "attle": 7812,
      "ĠDi": 7813,
      "Ġà¤ĩà¤¨": 7814,
      "93": 7815,
      "ky": 7816,
      "Ġinj": 7817,
      "ĠDet": 7818,
      "âĢĿ.": 7819,
      "92": 7820,
      "94": 7821,
      "à¤¿.": 7822,
      "à°¦à°¨": 7823,
      "Ã³": 7824,
      "Ð´": 7825,
      "ades": 7826,
      "Load": 7827,
      "Ġsurv": 7828,
      "udden": 7829,
      "/.": 7830,
      "replace": 7831,
      "Ġgain": 7832,
      "Ġdeveloping": 7833,
      "Ġdamage": 7834,
      "Ġinfection": 7835,
      "Ġconver": 7836,
      "Ġà°¶": 7837,
      "Sim": 7838,
      "igr": 7839,
      "Rule": 7840,
      "rote": 7841,
      "ĠSup": 7842,
      "Ġstage": 7843,
      "Expect": 7844,
      "![": 7845,
      "NOT": 7846,
      "fail": 7847,
      "Ġtmp": 7848,
      "Ġrain": 7849,
      "Ġeye": 7850,
      "-(": 7851,
      "Ġol": 7852,
      "ĠSam": 7853,
      "ework": 7854,
      "ĠWHERE": 7855,
      "Ġ500": 7856,
      "Ġcool": 7857,
      "Ġà²¯": 7858,
      "ÛģØ±": 7859,
      "Ġà´¶": 7860,
      "strap": 7861,
      "Ġappre": 7862,
      "Ġroad": 7863,
      "Ġserious": 7864,
      "Impl": 7865,
      "mask": 7866,
      "sin": 7867,
      "Ù°": 7868,
      "ê¯ī": 7869,
      "Ø¯Ø±": 7870,
      "à®Łà®®": 7871,
      "Ġproduced": 7872,
      "á±¤á±Ńá±Ł": 7873,
      "Ġbirth": 7874,
      "Ġcomb": 7875,
      "Ġoperator": 7876,
      "Ġframework": 7877,
      "vest": 7878,
      "Ġfavor": 7879,
      "Ġinner": 7880,
      "Ġplot": 7881,
      "Ġscientists": 7882,
      "Ø³Ùħ": 7883,
      "ĠOur": 7884,
      "Ġcapt": 7885,
      "results": 7886,
      "CR": 7887,
      "Ġconv": 7888,
      "ournal": 7889,
      "Ġheard": 7890,
      "Ġusize": 7891,
      "à¦Ĩ": 7892,
      "Ġà«": 7893,
      "ÙĬØ³": 7894,
      "ĠØ§ÙĪØ³": 7895,
      "ĠKing": 7896,
      "Ġneigh": 7897,
      "Ġgoes": 7898,
      "Ġàª¸àª®": 7899,
      "Ġlate": 7900,
      "ĠTime": 7901,
      "ocr": 7902,
      "````": 7903,
      "Ġexplain": 7904,
      "Ġprojects": 7905,
      "'.": 7906,
      "Bit": 7907,
      "()));": 7908,
      "Ġunknown": 7909,
      "Ġadding": 7910,
      "Integer": 7911,
      "Ġpod": 7912,
      "Ġforces": 7913,
      "Ġtypically": 7914,
      "ĠJSON": 7915,
      "ĠOther": 7916,
      "straints": 7917,
      "draw": 7918,
      "Icon": 7919,
      "iples": 7920,
      "à¦ĺ": 7921,
      "Ø§Ø¦ÛĴ": 7922,
      "Ġà¤«à¤°": 7923,
      "à¦ļà¦¨": 7924,
      "ĠGoogle": 7925,
      "(|": 7926,
      "FD": 7927,
      "faces": 7928,
      "Ġsil": 7929,
      "Ġflo": 7930,
      "abet": 7931,
      "Ġ'\\": 7932,
      "Ġsupported": 7933,
      "<<": 7934,
      "Ġten": 7935,
      "acts": 7936,
      "Ġoffers": 7937,
      "Le": 7938,
      "PO": 7939,
      "Var": 7940,
      "Ġterr": 7941,
      "Ġattr": 7942,
      "ÙĩØ±": 7943,
      "uilt": 7944,
      "Ġsem": 7945,
      "à¤¤à¤µ": 7946,
      "ĠSw": 7947,
      "Ġproof": 7948,
      "ĠFree": 7949,
      "Ġgrowing": 7950,
      "ca": 7951,
      "Ġà¬ī": 7952,
      "Ġkiba": 7953,
      "à¦°à¦ķ": 7954,
      "à¤ļà¤²": 7955,
      "strip": 7956,
      "ĠØ³Ùħ": 7957,
      "ê¯¢ê¯ķ": 7958,
      "Ġhistorical": 7959,
      "ĠSm": 7960,
      "Ġinterval": 7961,
      "Ġpiece": 7962,
      "Ġefficient": 7963,
      "Ġlinks": 7964,
      "tcx": 7965,
      "Ġspir": 7966,
      "Ġtransfer": 7967,
      "Some": 7968,
      "here": 7969,
      "}_": 7970,
      "plot": 7971,
      "ĠØ§ÙĪ": 7972,
      "Ġenter": 7973,
      "$,": 7974,
      "Has": 7975,
      "SW": 7976,
      "greg": 7977,
      "ooth": 7978,
      "à¤µà¤ķ": 7979,
      "Ú©Ø±": 7980,
      "à´ķà´°": 7981,
      "ĠØ¢Ù¾": 7982,
      "ĠYork": 7983,
      "á±·á±Łá±¨": 7984,
      "à¤ĥà¥¤": 7985,
      "Ġà¨°à¨¹": 7986,
      ")^": 7987,
      "leased": 7988,
      "ico": 7989,
      "Ġhash": 7990,
      "Ġgrid": 7991,
      "Â±": 7992,
      "ĠRuss": 7993,
      "Args": 7994,
      "vents": 7995,
      "area": 7996,
      "Ġ75": 7997,
      "ĠÂ»": 7998,
      "Ġbacter": 7999,
      "Ġinnov": 8000,
      "ĠØ¨Ûģ": 8001,
      "Ġpassword": 8002,
      ".__": 8003,
      "FT": 8004,
      "à§Į": 8005,
      "à³ĥ": 8006,
      "ĠÚĢ": 8007,
      "ircle": 8008,
      "ê¯Ĺê¯Ĵ": 8009,
      "Ġà®ķà®Ł": 8010,
      "Ġdetect": 8011,
      "Ġfollows": 8012,
      "filename": 8013,
      "Ġà¨ĩà¨¹": 8014,
      "LOW": 8015,
      "browser": 8016,
      "dx": 8017,
      "ded": 8018,
      "stat": 8019,
      "otes": 8020,
      "access": 8021,
      "ĠBritish": 8022,
      "zy": 8023,
      "Ġinvalid": 8024,
      "stable": 8025,
      "acle": 8026,
      "Ġchoice": 8027,
      "Ġundefined": 8028,
      "Ġpages": 8029,
      "Ġ```": 8030,
      "}^{": 8031,
      "alpha": 8032,
      "Ġcontaining": 8033,
      "Ġteachers": 8034,
      "Ġdomain": 8035,
      "Ġsustain": 8036,
      "ê¯ħê¯ķ": 8037,
      "ambda": 8038,
      "uv": 8039,
      "note": 8040,
      "Ġadvant": 8041,
      "Ġbeginning": 8042,
      "Ġstrength": 8043,
      "Ø¯Ø§": 8044,
      "itionally": 8045,
      "Ġcreation": 8046,
      "which": 8047,
      "Ġseconds": 8048,
      "Ġoccurs": 8049,
      "displaystyle": 8050,
      "Prev": 8051,
      "Ġcache": 8052,
      "Ġdark": 8053,
      "Ġlif": 8054,
      "Ġ\"\",": 8055,
      "ĠSpec": 8056,
      "Ġradi": 8057,
      "craft": 8058,
      "ĠHigh": 8059,
      "ĠØ®ÙĪ": 8060,
      "\"\"\"": 8061,
      "Ġidentity": 8062,
      "àŃ©": 8063,
      "Ġà¤®à¤²": 8064,
      "á±ļá±´": 8065,
      "ellig": 8066,
      "ugg": 8067,
      "Ġá±¦á±©á±Ń": 8068,
      "ê¯ıê¯ķ": 8069,
      "Float": 8070,
      "orrow": 8071,
      "ĠMake": 8072,
      "ĠChar": 8073,
      "Ġlimited": 8074,
      "DS": 8075,
      "Tim": 8076,
      "bal": 8077,
      "contin": 8078,
      "ena": 8079,
      "Ġbuf": 8080,
      "à¤®à¤¸": 8081,
      "reset": 8082,
      "ĠÙħØ±": 8083,
      ")));": 8084,
      "ĠStart": 8085,
      "SHA": 8086,
      "glyphicon": 8087,
      "initial": 8088,
      "Ġcoming": 8089,
      "Ġtrigger": 8090,
      "plements": 8091,
      "phas": 8092,
      "ĠÚ¯ÛĮØ§": 8093,
      "ifying": 8094,
      "Ġ2008": 8095,
      "ĠâĨ": 8096,
      "ĠWITH": 8097,
      "/\\": 8098,
      "¶á±Ł": 8099,
      "Ġà¨ķà¨°à¨¨": 8100,
      "Ġprobability": 8101,
      "Ġestablish": 8102,
      "IV": 8103,
      "Sig": 8104,
      "Ġlived": 8105,
      "Ġtrust": 8106,
      "à¦°à¦£": 8107,
      "æĪ": 8108,
      "romise": 8109,
      "Insert": 8110,
      "à³Ĩà²Ĥ": 8111,
      "Ġjourney": 8112,
      "Before": 8113,
      "#####": 8114,
      "controller": 8115,
      "region": 8116,
      "Ø®Øª": 8117,
      "Ġearlier": 8118,
      "global": 8119,
      "uary": 8120,
      "orders": 8121,
      "Ú¯ÛĮ": 8122,
      "Ġexcited": 8123,
      "EQ": 8124,
      "ä¹": 8125,
      "aled": 8126,
      "ÙĤÙĬ": 8127,
      "undle": 8128,
      "àŃĢ-": 8129,
      "Ġgenetic": 8130,
      "docs": 8131,
      "Ġcompletely": 8132,
      "ĠÙ¾Ø§Ú©Ø³ØªØ§ÙĨ": 8133,
      "jango": 8134,
      "lines": 8135,
      "Ġschools": 8136,
      "Ġrates": 8137,
      "inese": 8138,
      "real": 8139,
      "Ġreaction": 8140,
      "ibly": 8141,
      "Ġà¤ĩà¤ķ": 8142,
      "des": 8143,
      "Ġscore": 8144,
      "primary": 8145,
      "center": 8146,
      "Ġstructures": 8147,
      "Ġbasis": 8148,
      "Ġsuccessful": 8149,
      "haps": 8150,
      "tm": 8151,
      "urb": 8152,
      "urt": 8153,
      "ĠCong": 8154,
      "Ġletter": 8155,
      "Ġhumans": 8156,
      "ucket": 8157,
      "Ġcou": 8158,
      "Ġbul": 8159,
      "rot": 8160,
      "ĠBit": 8161,
      "Ġleave": 8162,
      "à¤ľà¤°": 8163,
      "à®¤à®²": 8164,
      "Ġê¯ĳê¯ĥê¯Ĺ": 8165,
      "ĠàªĨàªª": 8166,
      "àŃ¦àŃ¨àŃ": 8167,
      "Interface": 8168,
      "ĠFUNCTION": 8169,
      ":(": 8170,
      "Ġreq": 8171,
      "ĠAustral": 8172,
      "uman": 8173,
      "Ġexternal": 8174,
      "selected": 8175,
      "Ġimplementation": 8176,
      "Right": 8177,
      "igate": 8178,
      "ĠMost": 8179,
      "Auth": 8180,
      "inate": 8181,
      "storage": 8182,
      "ĠCour": 8183,
      "Ġgoal": 8184,
      "Parameters": 8185,
      "ctl": 8186,
      "ĠOb": 8187,
      "à®ķà®ª": 8188,
      "Second": 8189,
      "Ġfoods": 8190,
      "dist": 8191,
      "pa": 8192,
      "Ġfig": 8193,
      "ĠText": 8194,
      "Ġà°«": 8195,
      "ØªØ§Ø¨": 8196,
      "Ġà¤¬à¤¸": 8197,
      "Ġ\\<": 8198,
      "à´Łà´¤": 8199,
      "Ġgets": 8200,
      "frames": 8201,
      "Ġà¥©": 8202,
      "ASH": 8203,
      "Ġà¦ıà¦¬": 8204,
      "Ass": 8205,
      "Ġselection": 8206,
      "Ġdrink": 8207,
      "OFTW": 8208,
      "OFTWARE": 8209,
      "ĠSch": 8210,
      "Ġà¤¸à¤¨": 8211,
      "ses": 8212,
      "ĠPRO": 8213,
      "Ġoverflow": 8214,
      "iced": 8215,
      "Ġinstr": 8216,
      "Ġdeal": 8217,
      "Ġopportunities": 8218,
      "COLOR": 8219,
      "Here": 8220,
      "à¬ŀ": 8221,
      "à¤¯à¤ĸ": 8222,
      "effic": 8223,
      "ØªØł": 8224,
      "ĠÙĪØ§ÙĤ": 8225,
      "Ġremoved": 8226,
      "à©Īà¨Ĥ": 8227,
      "rench": 8228,
      "Ġá±¯á±·": 8229,
      "Ġmeasures": 8230,
      "Delete": 8231,
      "ĠTherefore": 8232,
      "UUID": 8233,
      "Ġtx": 8234,
      "forms": 8235,
      "Ġrecover": 8236,
      "Once": 8237,
      "NET": 8238,
      "Policy": 8239,
      "wide": 8240,
      "Ġapi": 8241,
      "gricult": 8242,
      "Ġresponsible": 8243,
      "PREFIX": 8244,
      "Entity": 8245,
      "'))": 8246,
      "Close": 8247,
      "Ġdistinct": 8248,
      "Wrap": 8249,
      "peed": 8250,
      "à¤µà¤£": 8251,
      "Ġalgebra": 8252,
      "ĠDESCRIPTION": 8253,
      "ÙĩÙĩ": 8254,
      "python": 8255,
      "pet": 8256,
      "Ġip": 8257,
      "à®°à®®": 8258,
      "Ġà®®à®±": 8259,
      "ê¯°ê¯°ê¯°": 8260,
      "à¬¼à¬¾": 8261,
      "Ġadjust": 8262,
      "Ġremains": 8263,
      "Ġsimpl": 8264,
      "Ġkeys": 8265,
      "Ġconcepts": 8266,
      "ĠWrite": 8267,
      "ĠÙħØ·": 8268,
      "æĸĩ": 8269,
      "rd": 8270,
      "session": 8271,
      "Ġwrote": 8272,
      "à¤¹à¤¨": 8273,
      "Ġà¤ħà¤ª": 8274,
      "Ġsurpr": 8275,
      "Ġancient": 8276,
      "Left": 8277,
      "asy": 8278,
      "à¦ªà¦¤": 8279,
      "à²¸à²²": 8280,
      "Ġconcer": 8281,
      "osing": 8282,
      "Ġlooks": 8283,
      "Ġprotection": 8284,
      "fit": 8285,
      "ancing": 8286,
      "=\"../../../../../": 8287,
      "Ġarchitect": 8288,
      "BL": 8289,
      "capt": 8290,
      "ederal": 8291,
      "aker": 8292,
      "Ġ!==": 8293,
      "ĠØ¯Ø±": 8294,
      "Ġcrate": 8295,
      ">)": 8296,
      "OID": 8297,
      "animation": 8298,
      "Ø¬ÙĪØ¯": 8299,
      "Ġpowerful": 8300,
      "ĠPhys": 8301,
      "Ge": 8302,
      "layout": 8303,
      "rb": 8304,
      "ä½": 8305,
      "Ġsal": 8306,
      "Ġinsp": 8307,
      "Ġvelocity": 8308,
      "Ġexception": 8309,
      "Ġà¤ľà¤°": 8310,
      "hemes": 8311,
      "Ġà¦¸à¦®à¦¯": 8312,
      "å¤": 8313,
      "track": 8314,
      "angular": 8315,
      "Ġcapacity": 8316,
      "Ġinteresting": 8317,
      "Ġclosed": 8318,
      "hood": 8319,
      "Ġhair": 8320,
      "ĠĠĠĠĠĠĠĠĠĠĠĠĠĠĠĠĠĠĠĠĠĠĠĠĠĠ": 8321,
      "Ġsea": 8322,
      "Ġ45": 8323,
      "Ġprefer": 8324,
      "structor": 8325,
      "BR": 8326,
      "Cre": 8327,
      "Pod": 8328,
      "isher": 8329,
      "ĠCode": 8330,
      "à¤ªà¤ķ": 8331,
      "Ġlegal": 8332,
      "origin": 8333,
      "Ġsold": 8334,
      "Ġsides": 8335,
      "ened": 8336,
      "eck": 8337,
      "Ġpor": 8338,
      "Ġconstruction": 8339,
      "Ġconsole": 8340,
      "ĠBook": 8341,
      "ĠJapan": 8342,
      "Ġà¤ķà¤°à¤¦": 8343,
      "à¬ļà¬³": 8344,
      "ĠDefault": 8345,
      "Ġà¤Ĩà¤ªà¤²": 8346,
      "Me": 8347,
      "move": 8348,
      "Ġcit": 8349,
      "Ġindependent": 8350,
      "ĠTem": 8351,
      "These": 8352,
      "Ġsetup": 8353,
      "AME": 8354,
      "anation": 8355,
      "ĠMap": 8356,
      "ĠMus": 8357,
      "ĠKh": 8358,
      "Empty": 8359,
      "Ġlay": 8360,
      "Ġ\\\\": 8361,
      "****************************************************************": 8362,
      "91": 8363,
      "TC": 8364,
      "ÚĢ": 8365,
      "à§¨": 8366,
      "unique": 8367,
      "Ġà°ı": 8368,
      "ĠØ§Ø¨": 8369,
      "typed": 8370,
      "Ġdifferences": 8371,
      "Ġcolors": 8372,
      "Ġà®ĩà®¨": 8373,
      "Ġá±©á±±": 8374,
      "Ġestablished": 8375,
      "Ġaspects": 8376,
      "Ġboost": 8377,
      "ugins": 8378,
      "tk": 8379,
      "ĠSOFTWARE": 8380,
      "à²°à²¦": 8381,
      "aste": 8382,
      "\":\"": 8383,
      "Ġrelationships": 8384,
      "ĠCURR": 8385,
      "Ġconnections": 8386,
      "ĠEduc": 8387,
      "à²¯à²¨": 8388,
      "skip": 8389,
      ">%": 8390,
      "AUT": 8391,
      "Bo": 8392,
      "ĠAM": 8393,
      "ĠØ³Ø§ÙĦ": 8394,
      "ĠÙĪÙĤØª": 8395,
      "overn": 8396,
      "Ġforeign": 8397,
      "ested": 8398,
      "Ġdead": 8399,
      "ĠÛģÙħ": 8400,
      "Ġà¬ıà¬ķ": 8401,
      "================================================================": 8402,
      "icrosoft": 8403,
      "Ġà¬ļà¬³": 8404,
      "ospital": 8405,
      "}_{": 8406,
      "ĠDesc": 8407,
      "ĠEV": 8408,
      "Ġcloud": 8409,
      "theta": 8410,
      "ĠIndex": 8411,
      "Ġteacher": 8412,
      "Vec": 8413,
      "ĠAg": 8414,
      "Ġpoll": 8415,
      "Ġefforts": 8416,
      "rim": 8417,
      "Ġcircuit": 8418,
      "docker": 8419,
      "Ġreasons": 8420,
      "ĠHREF": 8421,
      "Ġwaste": 8422,
      "Ġà¤Ĩà¤§": 8423,
      "Ġà¤ħà¤®": 8424,
      "ĠEuropean": 8425,
      "YRIGHT": 8426,
      "à´İ": 8427,
      "Ġinfin": 8428,
      "Ø§Úº": 8429,
      "ifically": 8430,
      "à²¿,": 8431,
      "prot": 8432,
      "à´¯à´®": 8433,
      "à²¤à²¦": 8434,
      "ĠØ´Ø±": 8435,
      "Ġgrade": 8436,
      "Ġlocated": 8437,
      "iders": 8438,
      "Ġui": 8439,
      "ĠCOP": 8440,
      "Ġleaves": 8441,
      "ĠVal": 8442,
      "ĠAUTO": 8443,
      "Ġbeautiful": 8444,
      "Ġmotion": 8445,
      "Ġhour": 8446,
      "Ġclin": 8447,
      "Ġà¤¹à¤ľ": 8448,
      "Ġelif": 8449,
      "Ġfully": 8450,
      "TA": 8451,
      "category": 8452,
      "Ġty": 8453,
      "Ġwild": 8454,
      "ulator": 8455,
      "Ġconnected": 8456,
      "ĠMo": 8457,
      "WITH": 8458,
      "Ġmessages": 8459,
      "ĠÃĹ": 8460,
      "ĠTechn": 8461,
      "Ġinfluence": 8462,
      "à¬ĵ": 8463,
      "à¤°à¤¬": 8464,
      "à¤²à¤®": 8465,
      "ĠPat": 8466,
      "Ġà¤Ĩà¤ľ": 8467,
      "Ġà¤ħà¤µ": 8468,
      "à«ĭ.": 8469,
      "Ġworkers": 8470,
      "Ø¬Ú¾": 8471,
      "Ġà¦Ĩà¦Ľ": 8472,
      "Ġá±¥á±®á±¨": 8473,
      "Ġà¨ªà¨°": 8474,
      "Ġfeeling": 8475,
      "ĠÙ¾ÙĨÙĩÙĨ": 8476,
      "toggle": 8477,
      "Send": 8478,
      "kh": 8479,
      "uzz": 8480,
      "Ġpet": 8481,
      "ÙĦØ³": 8482,
      "Ġappreci": 8483,
      "cap": 8484,
      "final": 8485,
      "tage": 8486,
      "Ġcold": 8487,
      "rier": 8488,
      "Ġstrings": 8489,
      "Ġ400": 8490,
      "Ġresistance": 8491,
      "Reader": 8492,
      "axis": 8493,
      "ĠChild": 8494,
      "Ġillustr": 8495,
      "WORD": 8496,
      "bus": 8497,
      "elcome": 8498,
      "FLAG": 8499,
      "DA": 8500,
      "ê¯±": 8501,
      "àªł": 8502,
      "apse": 8503,
      "à¦¿à¥¤": 8504,
      "ĠÚªÙĪ": 8505,
      "ĠØªÙĪÙĩØ§ÙĨ": 8506,
      "Ġà®Ĵà®°": 8507,
      "Ø±Ø¨": 8508,
      "Ġ33": 8509,
      "Ġtasks": 8510,
      "ĠUsing": 8511,
      "SL": 8512,
      "imize": 8513,
      "Ġphase": 8514,
      "Ġcapital": 8515,
      "Repos": 8516,
      "POS": 8517,
      "ĠURL": 8518,
      "eces": 8519,
      "Ġequipment": 8520,
      "Ġ{};": 8521,
      "::<": 8522,
      "Ġdegre": 8523,
      "Ġchannel": 8524,
      "Ġminimum": 8525,
      "ostic": 8526,
      "Ġsys": 8527,
      "ĠÃ¯": 8528,
      "ê£³": 8529,
      "Ġvaluable": 8530,
      "tl": 8531,
      "Ġrap": 8532,
      "sets": 8533,
      "Ġoccurre": 8534,
      "Ġconflic": 8535,
      "Obj": 8536,
      "Ġcubic": 8537,
      "mos": 8538,
      "ifies": 8539,
      "ĠOT": 8540,
      "ĠJune": 8541,
      "Ġhighly": 8542,
      "Ġbelong": 8543,
      "Ġintegr": 8544,
      "structions": 8545,
      "ĠFoundation": 8546,
      "zero": 8547,
      "ĠAng": 8548,
      "Ġphilos": 8549,
      "network": 8550,
      "gz": 8551,
      "ki": 8552,
      "zone": 8553,
      "Ġrelevant": 8554,
      "à±ģ,": 8555,
      "ÙĪØ±Øª": 8556,
      "2017": 8557,
      "Ġdegrees": 8558,
      "Br": 8559,
      "Ġcos": 8560,
      "Ġinsert": 8561,
      "Ġkill": 8562,
      "à®¤à®¤": 8563,
      "àª°àª¤": 8564,
      "Ġà¤ħà¤¹": 8565,
      "à¨¦à¨µ": 8566,
      "à¤ĩà¤¤": 8567,
      "Ġteaching": 8568,
      "Ġdatetime": 8569,
      "SSL": 8570,
      "Ġmilitary": 8571,
      "ĠÙĦÛĮÛĴ": 8572,
      "Ġexercise": 8573,
      "BUILD": 8574,
      "Join": 8575,
      "Ġrect": 8576,
      "ĠUser": 8577,
      "onic": 8578,
      "Ġbits": 8579,
      "schema": 8580,
      "Ġincorpor": 8581,
      "ĠEqu": 8582,
      "Ġmissing": 8583,
      "Msg": 8584,
      "à°ĸ": 8585,
      "Ġrich": 8586,
      "ĠProgram": 8587,
      "Head": 8588,
      "Ġderiv": 8589,
      "TIME": 8590,
      "Ġtend": 8591,
      "à¥įâĢĭ": 8592,
      "à¬°à¬°": 8593,
      "à¦¨à¦¤": 8594,
      "àª°àªķ": 8595,
      "Style": 8596,
      "à¬ķà¬°": 8597,
      "phere": 8598,
      "Ġadapt": 8599,
      "classes": 8600,
      "ê¯Ľê¯ģ": 8601,
      "à¤¼à¥ĩ": 8602,
      "van": 8603,
      "itis": 8604,
      "ume": 8605,
      "component": 8606,
      "progress": 8607,
      "Project": 8608,
      "EOF": 8609,
      "Mark": 8610,
      "Ġchart": 8611,
      "onepercent": 8612,
      "Fe": 8613,
      "home": 8614,
      "Ġwaves": 8615,
      "ĠId": 8616,
      "à¤¸à¤¤": 8617,
      "Ġimpl": 8618,
      "Ġemotion": 8619,
      "coll": 8620,
      "Ø£": 8621,
      "Ġà¤¤à¤¤": 8622,
      "00000000": 8623,
      "Ġcompute": 8624,
      "Ġdie": 8625,
      "adr": 8626,
      "chain": 8627,
      "à¤¯à¤ľ": 8628,
      "ÙĬÙ½": 8629,
      "ĠDNA": 8630,
      "ĠLin": 8631,
      "à²¯à²ķ": 8632,
      "icks": 8633,
      "ê¯Ķê¯Ĵ": 8634,
      "á±©á±ŀ": 8635,
      "username": 8636,
      "2014": 8637,
      "ÚĻÙĬ": 8638,
      "á±½á±¨": 8639,
      "-.": 8640,
      "Ġrepl": 8641,
      "ĠJack": 8642,
      "Ġ*/;": 8643,
      "Des": 8644,
      "ĠPoint": 8645,
      "iot": 8646,
      "Ġenum": 8647,
      "æĹ": 8648,
      "Ġdanger": 8649,
      "Ġà¤¸à¤¤": 8650,
      "INER": 8651,
      "aight": 8652,
      "repeat": 8653,
      "Ġcivil": 8654,
      "Ġpg": 8655,
      "ĠBase": 8656,
      "nta": 8657,
      "à´ķà´¯": 8658,
      "à®±à®¤": 8659,
      "issue": 8660,
      "Ġà¤°à¤¹à¤²": 8661,
      "points": 8662,
      "Ġrepresenting": 8663,
      "Handle": 8664,
      "DF": 8665,
      "OB": 8666,
      "Sk": 8667,
      "Ġextract": 8668,
      "ipal": 8669,
      "Socket": 8670,
      "Ġtail": 8671,
      "INCRE": 8672,
      "Ġinterpret": 8673,
      "FER": 8674,
      "road": 8675,
      "Ġchapter": 8676,
      "Ġaccel": 8677,
      "legal": 8678,
      "SM": 8679,
      "Ġtouch": 8680,
      "Ġsin": 8681,
      "ĠAnt": 8682,
      "Ġinvolves": 8683,
      "PKG": 8684,
      "$(": 8685,
      "bx": 8686,
      "Ġtoys": 8687,
      "àŃª": 8688,
      "Ġà´¦": 8689,
      "à®ķà®¤": 8690,
      "ĠØ¬Ø³": 8691,
      "ĠØ¨Ú¾": 8692,
      "Ġá±łá±Łá±±": 8693,
      "Ġà¨īà¨®": 8694,
      ".\\": 8695,
      "uations": 8696,
      "inger": 8697,
      "Ġship": 8698,
      "à¤¬à¤²": 8699,
      "Ġweather": 8700,
      "Ġprep": 8701,
      "Ġrespond": 8702,
      "big": 8703,
      "ara": 8704,
      "aven": 8705,
      "Ġtrade": 8706,
      "Ġnews": 8707,
      "Application": 8708,
      "ĠAfrica": 8709,
      "TEXT": 8710,
      "Ġcmd": 8711,
      "Ø¹ÙħØ§ÙĦ": 8712,
      "123": 8713,
      "panel": 8714,
      "Ġbroad": 8715,
      "Ġfat": 8716,
      "Ġdensity": 8717,
      "Ġqual": 8718,
      "Ġcompre": 8719,
      "cohol": 8720,
      "aught": 8721,
      "à¥¯": 8722,
      "irc": 8723,
      "irtual": 8724,
      "**/": 8725,
      "()),": 8726,
      "à¤¦à¤®": 8727,
      "osa": 8728,
      "ialize": 8729,
      "à¤ľà¤²": 8730,
      "à¤¶à¤ķ": 8731,
      "Ġstrict": 8732,
      "ĠExample": 8733,
      "Ġhydro": 8734,
      "Variable": 8735,
      "OURCE": 8736,
      "gar": 8737,
      "ĠMem": 8738,
      "ipher": 8739,
      "Enabled": 8740,
      "Ġanswers": 8741,
      "Description": 8742,
      "decoration": 8743,
      "ran": 8744,
      "icated": 8745,
      "ĠCor": 8746,
      "Ġà®µà®°": 8747,
      "Term": 8748,
      "limit": 8749,
      "amin": 8750,
      "Ġplayer": 8751,
      "invalid": 8752,
      "Ġcursor": 8753,
      "oting": 8754,
      "ups": 8755,
      "USE": 8756,
      "editor": 8757,
      "Ġnuc": 8758,
      "á±Łá±¸": 8759,
      "ĠEven": 8760,
      "claim": 8761,
      "Ġê¯Ĩê¯ľê¯Ĥ": 8762,
      "Ġrequirements": 8763,
      "101": 8764,
      "Graph": 8765,
      "but": 8766,
      "++;": 8767,
      "401": 8768,
      "si": 8769,
      "ya": 8770,
      "icies": 8771,
      "ĠDay": 8772,
      "ALSE": 8773,
      "Values": 8774,
      "Ġdocumentation": 8775,
      "Ġobserved": 8776,
      ">../": 8777,
      "Button": 8778,
      "Ġveh": 8779,
      "ØµÙĪ": 8780,
      "Ġhappens": 8781,
      "Ġchanging": 8782,
      "Ġcircle": 8783,
      "Ġtrend": 8784,
      "job": 8785,
      "Äģ": 8786,
      "Ġmo": 8787,
      "ĠMIT": 8788,
      "Ġrob": 8789,
      "ĠStep": 8790,
      "Ġequivalent": 8791,
      "Writer": 8792,
      "àªĿ": 8793,
      "Ġà´Ń": 8794,
      "ĠĠĠĠĠĠĠĠĠĠĠĠĠĠĠĠĠĠĠĠĠĠĠĠĠ": 8795,
      "ĠØ§Ùģ": 8796,
      "ĠOper": 8797,
      "á±ļá±«": 8798,
      "à¤ıà¤¸": 8799,
      "á±©á±±": 8800,
      "à¦Ĺà§°": 8801,
      "../../../": 8802,
      "ê¯Ŀê¯Ħ": 8803,
      "à¨¼à¨¿": 8804,
      "Ġeasier": 8805,
      "wargs": 8806,
      "yes": 8807,
      "Ġ\"%": 8808,
      "ĠGroup": 8809,
      "Ġfinding": 8810,
      "Timeout": 8811,
      "manager": 8812,
      "GET": 8813,
      "Sync": 8814,
      "WN": 8815,
      "full": 8816,
      "Ġut": 8817,
      "Ġstrategy": 8818,
      ")=": 8819,
      "ker": 8820,
      "ala": 8821,
      "Ġexpos": 8822,
      "Matrix": 8823,
      "times": 8824,
      "{},": 8825,
      "amil": 8826,
      "Ġalone": 8827,
      "Ġgrav": 8828,
      "Ġcert": 8829,
      "Ġbrought": 8830,
      "amera": 8831,
      "Ġà¤¬à¤ļ": 8832,
      "Ġà¤ħà¤¤": 8833,
      "ĠØ³ÙĨØ¯": 8834,
      "á±¤á±´": 8835,
      "Ġparty": 8836,
      "ê¯Ŀê¯ĥ": 8837,
      "à¬ªà¬°": 8838,
      "à©Ī,": 8839,
      "Ġà¦ħà¦Ń": 8840,
      "Ġhimself": 8841,
      "Ġpicture": 8842,
      "Document": 8843,
      "Ġ37": 8844,
      "setup": 8845,
      "issions": 8846,
      "Ġliterature": 8847,
      "CK": 8848,
      "PACK": 8849,
      "Ð²": 8850,
      "ĠPower": 8851,
      "------------------------------------------------": 8852,
      "Ġlabor": 8853,
      "MODE": 8854,
      "ĠInternational": 8855,
      "lab": 8856,
      "seq": 8857,
      "Ġvary": 8858,
      "scan": 8859,
      "Ġworked": 8860,
      "Ġsites": 8861,
      "got": 8862,
      "ĠØ£": 8863,
      "extern": 8864,
      "Ġnotes": 8865,
      "IMIT": 8866,
      "xygen": 8867,
      "Ġbehavi": 8868,
      "erate": 8869,
      "à¤°à¤ļ": 8870,
      "à¤°à¤§": 8871,
      "Ġê¯³": 8872,
      "Ġkin": 8873,
      "ĠØ¨Ø¹Ø¯": 8874,
      "Ġà¦Ĩà¦¨": 8875,
      "Ġinstalled": 8876,
      "BASE": 8877,
      "ĠWorks": 8878,
      "ĠÙĪØ§ÙĤØ¹": 8879,
      "Ġrestrict": 8880,
      "apers": 8881,
      "ĠMethod": 8882,
      "Ġalthough": 8883,
      "prop": 8884,
      "leted": 8885,
      "ĠException": 8886,
      "Ġscen": 8887,
      "typedef": 8888,
      "amma": 8889,
      "Ġ([": 8890,
      "application": 8891,
      "Ġshowed": 8892,
      "Ġprofessional": 8893,
      "power": 8894,
      "serve": 8895,
      "ĠÙĨØ¸": 8896,
      "ĠØ²ÛĮ": 8897,
      "Ġprintf": 8898,
      ">;": 8899,
      "pay": 8900,
      "inating": 8901,
      "olid": 8902,
      "ummy": 8903,
      "á±Łá±´": 8904,
      "à²°à²µ": 8905,
      "á±ļá±¥": 8906,
      "á±ļá±²": 8907,
      "produ": 8908,
      "Ġgeneration": 8909,
      "Ġreduced": 8910,
      "á±¤á±Ńá±Łá±¹": 8911,
      "ĠØ¬ÙĨÙĩÙĨ": 8912,
      "Ġfamilies": 8913,
      "Ġcorresponding": 8914,
      ")?": 8915,
      "See": 8916,
      "TLS": 8917,
      "Ġconvers": 8918,
      "organ": 8919,
      "ĠCLASS": 8920,
      "Ġconcern": 8921,
      "holder": 8922,
      "ĠÙħØª": 8923,
      "Ġclock": 8924,
      "QUE": 8925,
      "Ġpaid": 8926,
      "rgan": 8927,
      "ĠWhy": 8928,
      "tn": 8929,
      "éĢ": 8930,
      "á±Ĵ": 8931,
      "Ġwat": 8932,
      "à¬ī": 8933,
      "trl": 8934,
      "Ġàª¯": 8935,
      "á±Łá±°": 8936,
      "á±Łá±µ": 8937,
      "à¤ªà¤£": 8938,
      "à´°à´®": 8939,
      "à¬¤à¬¨": 8940,
      "ĠÚªÙĨ": 8941,
      "à¦ªà¦¨": 8942,
      "Ġà¦Ĩà¦°": 8943,
      "Ø§ÙħÙĦ": 8944,
      "Ù¾ÙĪØ±": 8945,
      "Ġà°¸à°®": 8946,
      "ĠÙĤØ±": 8947,
      "ĠØ§ÙĦÙĦÛģ": 8948,
      "EGER": 8949,
      "matrix": 8950,
      "Ġàª¶àªķ": 8951,
      "Ġkept": 8952,
      "Cal": 8953,
      "Ġnative": 8954,
      "Ġusage": 8955,
      "ãģ®": 8956,
      "partial": 8957,
      "Ġdiscovered": 8958,
      "Ġcontinued": 8959,
      "DROP": 8960,
      "MIT": 8961,
      "æķ": 8962,
      "Ġhon": 8963,
      "Ġguide": 8964,
      "IR": 8965,
      "ingu": 8966,
      "Ġbelief": 8967,
      "Ġbigint": 8968,
      "ĠApril": 8969,
      "ipe": 8970,
      "à¤¨à¤²": 8971,
      "ĠBuild": 8972,
      "Expr": 8973,
      "ĠAny": 8974,
      "ĠSept": 8975,
      "total": 8976,
      "Ġseparate": 8977,
      "300": 8978,
      "Why": 8979,
      "ued": 8980,
      "Ġàª§": 8981,
      "à¦¿à¦Ĥ": 8982,
      "á±Łá±¸á±": 8983,
      "à³Ĩ,": 8984,
      "Ġà¤²à¤ķ": 8985,
      "ĠÙĨÙĪ": 8986,
      "ĠÚĨÚ¾Ûģ": 8987,
      "à¤ĩà¤¯": 8988,
      "Ġá±ľá±®": 8989,
      "Ġá±¢á±®á±±á±Łá±ľá±¼á±Ł": 8990,
      "Ġexperim": 8991,
      "Ġexecut": 8992,
      "Ġpretty": 8993,
      "enum": 8994,
      "Ġbright": 8995,
      "âĢĿ,": 8996,
      "Ġagre": 8997,
      "Ġtopics": 8998,
      "Ġtherapy": 8999,
      "WS": 9000,
      "nce": 9001,
      "prefix": 9002,
      "Â·": 9003,
      "åŃ": 9004,
      "Ġcrop": 9005,
      "Ġfight": 9006,
      "ĠThus": 9007,
      "erved": 9008,
      "Ġacid": 9009,
      "à¤ķà¤°à¤£": 9010,
      "Click": 9011,
      "Ġlots": 9012,
      "Ġrace": 9013,
      "ĠBO": 9014,
      "ĠØ¹Ø§Ùħ": 9015,
      "Ġgiving": 9016,
      "ÛĮØ§Ûģ": 9017,
      "metadata": 9018,
      "Ġboundary": 9019,
      "Names": 9020,
      "_)": 9021,
      "Ġtiny": 9022,
      "àªĽ": 9023,
      "àŃ¬": 9024,
      "à¥ģà¥ĳ": 9025,
      "Ġà¤¸à¤¦": 9026,
      "Ġà®°": 9027,
      "ĠRET": 9028,
      "àª°àªµ": 9029,
      "á±®á±¡": 9030,
      "Ù¹Ø±ÛĮ": 9031,
      "ancel": 9032,
      "Ġá±ŀá±®á±±": 9033,
      "Region": 9034,
      "ĠÙ¹ÛĮ": 9035,
      "ĠChinese": 9036,
      "uddenly": 9037,
      "Repository": 9038,
      "quire": 9039,
      "ĠAlthough": 9040,
      "library": 9041,
      "INCREMENT": 9042,
      "bound": 9043,
      "Ġreader": 9044,
      "=\"_": 9045,
      "Init": 9046,
      "Ġresulting": 9047,
      "ĠExpl": 9048,
      "ãĢģ": 9049,
      "Ġanalyt": 9050,
      "dialog": 9051,
      "Ġburn": 9052,
      "Ø±ØŃ": 9053,
      "Ġ2000": 9054,
      "ĠMet": 9055,
      "Ġshall": 9056,
      "plet": 9057,
      "Ġaffected": 9058,
      "ographic": 9059,
      "ÙĨÙĬ": 9060,
      "Ġà¤ħà¤ľ": 9061,
      "ĠØ¯ÙĪ": 9062,
      "Ġà¦ħà¦¸à¦®": 9063,
      "Ġexperiment": 9064,
      "Ġorganization": 9065,
      "ENCES": 9066,
      "BM": 9067,
      "lebr": 9068,
      "ĠSchool": 9069,
      "Ġremote": 9070,
      "opts": 9071,
      "ĠConfig": 9072,
      "Fail": 9073,
      "Main": 9074,
      "bad": 9075,
      "xs": 9076,
      "}-": 9077,
      "Ġupdated": 9078,
      "Ġprotein": 9079,
      "\"},": 9080,
      "MIN": 9081,
      "pol": 9082,
      "idents": 9083,
      "Ġvisible": 9084,
      "ĠEngine": 9085,
      "mult": 9086,
      "ario": 9087,
      "account": 9088,
      "ĠBar": 9089,
      "ĠLine": 9090,
      "ĠView": 9091,
      "Ġhighest": 9092,
      "Ġaxis": 9093,
      "TARG": 9094,
      "warning": 9095,
      "Ġicon": 9096,
      "Ġaw": 9097,
      "Ġnam": 9098,
      "Ġeating": 9099,
      "ĠCF": 9100,
      "atei": 9101,
      "á±ļá±µ": 9102,
      "á±ļá±¸á±": 9103,
      "ĠØªÙħ": 9104,
      "ysql": 9105,
      "ĠàŃ¦": 9106,
      "Ġà¬®à¬ĩ": 9107,
      "Ġrefers": 9108,
      "àª¶àª¨": 9109,
      "Ġprinciples": 9110,
      "Ġá±Ľá±Łá±¦á±®á±¸": 9111,
      "draft": 9112,
      "Ġmask": 9113,
      "Ġenabled": 9114,
      "contains": 9115,
      "Ġacad": 9116,
      "OLDER": 9117,
      "High": 9118,
      "Ġincome": 9119,
      "ĠØ§ØŃ": 9120,
      "ĠForce": 9121,
      "olving": 9122,
      "Ġolder": 9123,
      "Ġpurch": 9124,
      "ynamics": 9125,
      "fg": 9126,
      "orter": 9127,
      "essor": 9128,
      "Ġseason": 9129,
      "blem": 9130,
      "prev": 9131,
      "Dep": 9132,
      "GB": 9133,
      "Ġ###": 9134,
      "Ġodd": 9135,
      "à¤Ĥ.": 9136,
      "Ú¾Ø§ÙĨ": 9137,
      "\">&": 9138,
      "Ġà¤ħà¤²": 9139,
      "ê¯¡ê¯ħ": 9140,
      "ĠØ¢Ú¾ÙĬ": 9141,
      "Ġà¤īà¤¨à¤ķ": 9142,
      "airs": 9143,
      "à¨Łà¨°": 9144,
      "Ġá±ļá±±á±Ł": 9145,
      "Ġà²ĩà²¦": 9146,
      "Ġà°īà°¨": 9147,
      "å¸Ĥ": 9148,
      "Ġgarden": 9149,
      "Pub": 9150,
      "arant": 9151,
      "Ġwid": 9152,
      "security": 9153,
      "trigger": 9154,
      "Ġvocab": 9155,
      "Ġanyone": 9156,
      "roduction": 9157,
      ",\\": 9158,
      "213": 9159,
      "Ġnation": 9160,
      "Ġprepar": 9161,
      "Ġdiff": 9162,
      "ĠEnvironment": 9163,
      "rh": 9164,
      "internal": 9165,
      "ÙĨÙĪ": 9166,
      "apis": 9167,
      "ĠGen": 9168,
      "Ġlogic": 9169,
      "Author": 9170,
      "world": 9171,
      "idate": 9172,
      "Ġgold": 9173,
      "Ġvs": 9174,
      "Ġà¤¤à¤ķ": 9175,
      "Ø¨Ûģ": 9176,
      "Ġboard": 9177,
      "Parser": 9178,
      "çĶ¨": 9179,
      "Wallet": 9180,
      "Ġsamples": 9181,
      "Ġox": 9182,
      "ĠSign": 9183,
      "Ġàªĺ": 9184,
      "verify": 9185,
      "ĠDon": 9186,
      "Ġà¤ªà¤¦": 9187,
      "Ġà¤¬à¤¡": 9188,
      "Ġà°ªà°°": 9189,
      "Ġà®ĩà®¤": 9190,
      "Ġlaws": 9191,
      "ĠTimmy": 9192,
      "ĠCenter": 9193,
      "Ġplane": 9194,
      "Ġplaced": 9195,
      "scription": 9196,
      "Ġhighlight": 9197,
      "dig": 9198,
      "ĠFORE": 9199,
      "Ġcharg": 9200,
      "Ġjud": 9201,
      "ÙģÛĮ": 9202,
      "IColor": 9203,
      ")}": 9204,
      "Ag": 9205,
      "AST": 9206,
      "erry": 9207,
      "Ġexploring": 9208,
      "Ġsevere": 9209,
      "Ġdiagram": 9210,
      "Ġimmediately": 9211,
      ".'": 9212,
      "IAL": 9213,
      "Ġfear": 9214,
      "ĠSun": 9215,
      "Ġcareful": 9216,
      "cut": 9217,
      "à¬°à¬ķ": 9218,
      "ĠÙ¾ÙĬ": 9219,
      "ĠÙĪÙĬÙĪ": 9220,
      "...</": 9221,
      "Ġidentified": 9222,
      "ĠØ§Ù¾ÙĨÛĴ": 9223,
      "ĠCongress": 9224,
      "Found": 9225,
      "Nodes": 9226,
      "isation": 9227,
      "Ġstraight": 9228,
      "ervices": 9229,
      "ĠREFER": 9230,
      "hetic": 9231,
      "ĠDepartment": 9232,
      "Note": 9233,
      "Ġfaster": 9234,
      "ĠAir": 9235,
      "ĠHash": 9236,
      "screen": 9237,
      "ifications": 9238,
      "ems": 9239,
      "Ġcontribute": 9240,
      "ĠMarch": 9241,
      "short": 9242,
      "scape": 9243,
      "Ġmiles": 9244,
      "Eng": 9245,
      "WE": 9246,
      "vn": 9247,
      "Ġbatter": 9248,
      "ĠBob": 9249,
      "ORY": 9250,
      "116": 9251,
      "Decl": 9252,
      "Extension": 9253,
      "Perm": 9254,
      "Ret": 9255,
      "×ķ": 9256,
      "á±ª": 9257,
      "Ġcd": 9258,
      "Ġbur": 9259,
      "à¤ªà¤¯": 9260,
      "à¤Ĺà¤³": 9261,
      "à¦²à¦¤": 9262,
      "à©ĩà¨Ĥ": 9263,
      "ĠÙĪÚı": 9264,
      "Ġadvent": 9265,
      "ê¯Łê¯ķ": 9266,
      "Ġserve": 9267,
      "à¨¬à¨°": 9268,
      "Ġworksheets": 9269,
      "ĠÚ©Ù²Ø´": 9270,
      "Ġnetworks": 9271,
      "Ġê¯Ĺê¯Ĵ": 9272,
      "Ġcombination": 9273,
      "semb": 9274,
      "Pers": 9275,
      "ndef": 9276,
      "ĠTR": 9277,
      "Ġdetail": 9278,
      "Byte": 9279,
      "blue": 9280,
      "ĠColor": 9281,
      "ĠHar": 9282,
      "Ġcolumns": 9283,
      "Ġrapid": 9284,
      "2000": 9285,
      "TM": 9286,
      "gs": 9287,
      "ĠWH": 9288,
      "Ø¬ÛĮ": 9289,
      "Ġhandler": 9290,
      "Ġcharacteristics": 9291,
      "rules": 9292,
      "Ġpool": 9293,
      "ĠService": 9294,
      "à¤ķà¤®": 9295,
      "à¦¾,": 9296,
      "Ġ&[": 9297,
      "Ġà¤ıà¤µ": 9298,
      "Ġsky": 9299,
      "Ġgene": 9300,
      "Ġdetermined": 9301,
      "Ġsignificantly": 9302,
      "Ġdepth": 9303,
      "Ùĥ": 9304,
      "Ġà¤®à¤¤": 9305,
      "Ġweak": 9306,
      "Ġà¤ħà¤Ĺ": 9307,
      "Ġà¤ħà¤¬": 9308,
      "ĠØ¬Ø¨": 9309,
      "Ġà¨¨à¨¹": 9310,
      "ĠØ§Ø³ÙĦØ§Ùħ": 9311,
      "Ġextension": 9312,
      "Ġà²ħà²µà²°": 9313,
      "Ġá±¡á±Łá±¦": 9314,
      "Ġá±¦á±ļá±¸": 9315,
      "While": 9316,
      "SQL": 9317,
      "fol": 9318,
      "Ġfresh": 9319,
      "Ġregions": 9320,
      "handler": 9321,
      "children": 9322,
      "stylesheet": 9323,
      "ja": 9324,
      "ench": 9325,
      "Ġdoll": 9326,
      "Ġkum": 9327,
      "Ġemphas": 9328,
      "svg": 9329,
      "flex": 9330,
      "åİ": 9331,
      "atin": 9332,
      "Ġworth": 9333,
      "Ġded": 9334,
      "ĠJournal": 9335,
      "Ġrecently": 9336,
      "(!": 9337,
      "cil": 9338,
      "Ġbaby": 9339,
      "Ġdu": 9340,
      "istor": 9341,
      "Ġdei": 9342,
      "LETE": 9343,
      "tribution": 9344,
      "require": 9345,
      "jar": 9346,
      "Ġpull": 9347,
      "ÙĨØ²": 9348,
      "uries": 9349,
      "Ġà¤¬à¤ľ": 9350,
      "Ġà¤Ĩà¤¦": 9351,
      "components": 9352,
      "Ġpregn": 9353,
      "ĠÙĨØ§ÙĦ": 9354,
      "heduler": 9355,
      "à°¦à°°": 9356,
      "Ġcompare": 9357,
      "à©ģà©°": 9358,
      "ĠÚ©Ø±ÙĨÛĴ": 9359,
      "kubernetes": 9360,
      "}'": 9361,
      "eros": 9362,
      "alog": 9363,
      "uri": 9364,
      "ĠFOREIGN": 9365,
      "Ġhtml": 9366,
      "scroll": 9367,
      "Ġparallel": 9368,
      ")).": 9369,
      "ilit": 9370,
      "Ġec": 9371,
      "osen": 9372,
      "ĠBlock": 9373,
      "ĠHistory": 9374,
      "Ġ2007": 9375,
      "anguages": 9376,
      "iences": 9377,
      "asic": 9378,
      "enter": 9379,
      "ĠNode": 9380,
      "anted": 9381,
      "ENCE": 9382,
      "login": 9383,
      "Ġholds": 9384,
      "á±²": 9385,
      "Ġà¬¥": 9386,
      "Ġkatei": 9387,
      "ĠØ§Ø¹": 9388,
      "ê¯¡ê¯ķ": 9389,
      "ĠØ¯ÙĨ": 9390,
      "Ġà´ªà´°": 9391,
      "Ġà´ªà´±": 9392,
      "Ġpromote": 9393,
      "Ġdiverse": 9394,
      "Ġtoward": 9395,
      "emon": 9396,
      "Ġmodified": 9397,
      "Ġ]]": 9398,
      "FUN": 9399,
      "Look": 9400,
      "rev": 9401,
      "ĠInstitute": 9402,
      "water": 9403,
      "amental": 9404,
      "Ġ150": 9405,
      "ĠIST": 9406,
      "Ġ34": 9407,
      "Ġprime": 9408,
      "ĠIts": 9409,
      "phrase": 9410,
      "DEFAULT": 9411,
      "Ġtypename": 9412,
      "Ġiron": 9413,
      "TT": 9414,
      "elines": 9415,
      "Cond": 9416,
      "Match": 9417,
      "Ġsng": 9418,
      "omb": 9419,
      "à¤¯à¤µà¤¸": 9420,
      "Ġkm": 9421,
      "á±Łá±¯": 9422,
      "Ġà¤ªà¤¡": 9423,
      "à°¿,": 9424,
      "à®ķà®µ": 9425,
      "ĠØ³Ú©": 9426,
      "á±®á±ľ": 9427,
      "Ġsyn": 9428,
      "à´Ĥ.": 9429,
      "ĠÚªØ¦ÙĬ": 9430,
      "collect": 9431,
      "à¤Ĩà¤°": 9432,
      "à©Ī.": 9433,
      "Ġdeliver": 9434,
      "á±¥á±¤": 9435,
      "clusive": 9436,
      "mif": 9437,
      "orse": 9438,
      "ĠĠĠĊ": 9439,
      "ĠEl": 9440,
      "register": 9441,
      "typename": 9442,
      "Ġachieve": 9443,
      "Ġmathematics": 9444,
      "inn": 9445,
      "Ġfost": 9446,
      "à²İ": 9447,
      "Ġmid": 9448,
      "Ġandroid": 9449,
      "ĠCRE": 9450,
      "ĠPresident": 9451,
      ">();": 9452,
      "Are": 9453,
      "keyframes": 9454,
      "Ġreality": 9455,
      "Ġdepending": 9456,
      "Ġalternative": 9457,
      "Ġstored": 9458,
      "à²°à²¤": 9459,
      "events": 9460,
      "Ġformed": 9461,
      "Ø§ØµÙĦ": 9462,
      "zip": 9463,
      "ether": 9464,
      "à¤¸à¤¦": 9465,
      "Ġsequ": 9466,
      "à¬¿à¥¤": 9467,
      "à¨°à¨®": 9468,
      "Ġê¯ĳê¯Ĩ": 9469,
      "ê¯¦ê¯«": 9470,
      "Ġà¦Ĩà¦Ĺ": 9471,
      "á±©á±Ľ": 9472,
      "à¦·à¦¯": 9473,
      "Ġà§¨à§¦": 9474,
      "ĠPython": 9475,
      "Ġsplit": 9476,
      "ali": 9477,
      "à¤¤à¤¤": 9478,
      "ĠMc": 9479,
      "irror": 9480,
      "che": 9481,
      "~~": 9482,
      "Ġsand": 9483,
      "Ġpen": 9484,
      "READ": 9485,
      "Ġcalls": 9486,
      "CLU": 9487,
      "Ġproperly": 9488,
      "Font": 9489,
      "PH": 9490,
      "gi": 9491,
      "mu": 9492,
      "ĠNum": 9493,
      "Ġviews": 9494,
      "EGIN": 9495,
      "domain": 9496,
      "ĠØ§Ø³ØªØ¹ÙħØ§ÙĦ": 9497,
      "]}": 9498,
      "brief": 9499,
      "Ġhit": 9500,
      "ĠØ³Ø¨": 9501,
      "ĠJuly": 9502,
      "toString": 9503,
      "Ġcouldn": 9504,
      "Ġstandards": 9505,
      "aign": 9506,
      "vo": 9507,
      "Ġwoman": 9508,
      "Ġhabit": 9509,
      "imp": 9510,
      "Ġ<-": 9511,
      "à¤¸à¤Ń": 9512,
      "Ġà¦®à¦¹": 9513,
      "Ġàª®àª³": 9514,
      "Ġ2005": 9515,
      "Ġlesson": 9516,
      "checkbox": 9517,
      "Ġowner": 9518,
      "ASE": 9519,
      "MK": 9520,
      "Ã¶": 9521,
      "Ġattributes": 9522,
      "======": 9523,
      "Ġemer": 9524,
      "ASK": 9525,
      "ĠArch": 9526,
      "Success": 9527,
      "ĠAugust": 9528,
      "ACH": 9529,
      "DO": 9530,
      "Parent": 9531,
      "beta": 9532,
      "sible": 9533,
      "igration": 9534,
      "ocal": 9535,
      "download": 9536,
      "ĠØ¦": 9537,
      "oses": 9538,
      "ĠWell": 9539,
      "à®ķà®®": 9540,
      "volume": 9541,
      "Ġ{{": 9542,
      "ĠPress": 9543,
      "ria": 9544,
      "à³ģà²Ĥ": 9545,
      "Ġjoint": 9546,
      "CLUD": 9547,
      "ylla": 9548,
      ">\"": 9549,
      "à®ľ": 9550,
      "Ġà´¯": 9551,
      "Ġà¤¬à¤²": 9552,
      "Ġà¥¤à¥¤": 9553,
      "tests": 9554,
      "Ġá±µá±·": 9555,
      "Ġallowing": 9556,
[...]
