{
  "version": "1.0",
  "truncation": null,
  "padding": null,
  "added_tokens": [
    {
      "id": 0,
      "content": "<PAD>",
      "single_word": false,
      "lstrip": false,
      "rstrip": false,
      "normalized": false,
      "special": true
    },
    {
      "id": 1,
      "content": "<UNK>",
      "single_word": false,
      "lstrip": false,
      "rstrip": false,
      "normalized": false,
      "special": true
    },
    {
      "id": 2,
      "content": "<BOS>",
      "single_word": false,
      "lstrip": false,
      "rstrip": false,
      "normalized": false,
      "special": true
    },
    {
      "id": 3,
      "content": "<EOS>",
      "single_word": false,
      "lstrip": false,
      "rstrip": false,
      "normalized": false,
      "special": true
    }
  ],
  "normalizer": {
    "type": "Sequence",
    "normalizers": [
      {
        "type": "NFD"
      },
      {
        "type": "Lowercase"
      },
      {
        "type": "StripAccents"
      }
    ]
  },
  "pre_tokenizer": {
    "type": "ByteLevel",
    "add_prefix_space": true,
    "trim_offsets": true,
    "use_regex": true
  },
  "post_processor": null,
  "decoder": null,
  "model": {
    "type": "BPE",
    "dropout": null,
    "unk_token": "<UNK>",
    "continuing_subword_prefix": null,
    "end_of_word_suffix": null,
    "fuse_unk": false,
    "byte_fallback": false,
    "ignore_merges": false,
    "vocab": {
      "<PAD>": 0,
      "<UNK>": 1,
      "<BOS>": 2,
      "<EOS>": 3,
      "!": 4,
      "\"": 5,
      "'": 6,
      ",": 7,
      "-": 8,
      ".": 9,
      "0": 10,
      "1": 11,
      "2": 12,
      "3": 13,
      "4": 14,
      "5": 15,
      "6": 16,
      "7": 17,
      "8": 18,
      "9": 19,
      ":": 20,
      ";": 21,
      "?": 22,
      "a": 23,
      "b": 24,
      "c": 25,
      "d": 26,
      "e": 27,
      "f": 28,
      "g": 29,
      "h": 30,
      "i": 31,
      "j": 32,
      "k": 33,
      "l": 34,
      "m": 35,
      "n": 36,
      "o": 37,
      "p": 38,
      "q": 39,
      "r": 40,
      "s": 41,
      "t": 42,
      "u": 43,
      "v": 44,
      "w": 45,
      "x": 46,
      "y": 47,
      "z": 48,
      "¢": 49,
      "¬": 50,
      "Å": 51,
      "â": 52,
      "ĉ": 53,
      "Ċ": 54,
      "č": 55,
      "Ġ": 56,
      "Ĥ": 57,
      "Ħ": 58,
      "ĵ": 59,
      "Ġt": 60,
      "he": 61,
      "Ġa": 62,
      "Ġs": 63,
      "Ġthe": 64,
      "Ġw": 65,
      "nd": 66,
      "ed": 67,
      "čĊ": 68,
      "Ġb": 69,
      "Ġto": 70,
      "in": 71,
      "Ġand": 72,
      "it": 73,
      "Ġf": 74,
      "Ġh": 75,
      "Ġwa": 76,
      "re": 77,
      "ou": 78,
      "Ġl": 79,
      "Ġhe": 80,
      "er": 81,
      "on": 82,
      "Ġc": 83,
      "ĠčĊ": 84,
      "Ġp": 85,
      "Ġwas": 86,
      "Ġd": 87,
      "Ġm": 88,
      "ay": 89,
      "Ġg": 90,
      "im": 91,
      "ar": 92,
      "is": 93,
      "Ġn": 94,
      "Ġsa": 95,
      "ing": 96,
      "ll": 97,
      "at": 98,
      "Ġit": 99,
      "om": 100,
      "Ġshe": 101,
      "id": 102,
      "Ġha": 103,
      "le": 104,
      "Ġo": 105,
      "Ġth": 106,
      "nt": 107,
      "Ġe": 108,
      "Ġtim": 109,
      "or": 110,
      "et": 111,
      "Ġin": 112,
      "ow": 113,
      "Ġbe": 114,
      "ver": 115,
      "Ġthey": 116,
      "il": 117,
      "Ġwe": 118,
      "an": 119,
      "ce": 120,
      "st": 121,
      "Ġ\"": 122,
      "Ġr": 123,
      "ot": 124,
      "ie": 125,
      "Ġher": 126,
      "Ġso": 127,
      "ld": 128,
      "Ġon": 129,
      "ig": 130,
      "ir": 131,
      "Ġu": 132,
      "ked": 133,
      "am": 134,
      "Ġbu": 135,
      "Ġfr": 136,
      "Ġy": 137,
      "Ġhis": 138,
      "Ġpl": 139,
      "Ġsaid": 140,
      "Ġday": 141,
      "ke": 142,
      "pp": 143,
      "Ġwit": 144,
      "Ġwith": 145,
      "ve": 146,
      "Ġof": 147,
      "Ġst": 148,
      "Ġyou": 149,
      "itt": 150,
      "Ġplay": 151,
      "oo": 152,
      "her": 153,
      "Ġthat": 154,
      "very": 155,
      "al": 156,
      "Ġhad": 157,
      "ould": 158,
      "ck": 159,
      "Ġup": 160,
      "se": 161,
      "Ġj": 162,
      "Ġhapp": 163,
      "ad": 164,
      "Ġlitt": 165,
      "Ġlittle": 166,
      "Ġsh": 167,
      "ound": 168,
      "Ġsm": 169,
      "Ġthere": 170,
      "Ġtime": 171,
      "iend": 172,
      "Ġfriend": 173,
      "un": 174,
      "Ġne": 175,
      "Ġbut": 176,
      "Ġbo": 177,
      "Ġli": 178,
      "Ġbig": 179,
      "Ġi": 180,
      "ter": 181,
      "Ġone": 182,
      "en": 183,
      "Ġfor": 184,
      "Ġhappy": 185,
      "out": 186,
      "ved": 187,
      "Ġk": 188,
      "once": 189,
      "Ġre": 190,
      "Ġvery": 191,
      "ch": 192,
      "el": 193,
      "ht": 194,
      "Ġwant": 195,
      "all": 196,
      "Ġas": 197,
      "'s": 198,
      "Ġsaw": 199,
      "ome": 200,
      "Ġan": 201,
      "Ġwh": 202,
      "ily": 203,
      "ec": 204,
      "um": 205,
      "âĤ": 206,
      "âĤ¬": 207,
      "my": 208,
      "ore": 209,
      "Ġsp": 210,
      "ake": 211,
      "amed": 212,
      "Ġupon": 213,
      "ab": 214,
      "ill": 215,
      "Ġwent": 216,
      "Ġall": 217,
      "Ġnot": 218,
      "ly": 219,
      "Ġnamed": 220,
      "Ġwere": 221,
      "ain": 222,
      "Ġsu": 223,
      "Ġlo": 224,
      "ide": 225,
      "lp": 226,
      "ry": 227,
      ".\"": 228,
      "au": 229,
      "Ġcould": 230,
      "ic": 231,
      "Ġtoo": 232,
      "Ġhelp": 233,
      "!\"": 234,
      "Ġfriends": 235,
      "Ġfl": 236,
      "Ġloo": 237,
      "irl": 238,
      "Ġgirl": 239,
      "Ġwanted": 240,
      "get": 241,
      "Ġout": 242,
      "Ġhim": 243,
      "ack": 244,
      "Ġwhe": 245,
      "iled": 246,
      "ep": 247,
      "ind": 248,
      "Ġmom": 249,
      "round": 250,
      "Ġat": 251,
      "ard": 252,
      "ame": 253,
      "'t": 254,
      "fu": 255,
      "hing": 256,
      "one": 257,
      "Ġsmiled": 258,
      "Ġwhen": 259,
      "ree": 260,
      "ri": 261,
      "way": 262,
      "are": 263,
      "hed": 264,
      "Ġtoget": 265,
      "Ġex": 266,
      "Ġtogether": 267,
      "Ġle": 268,
      "Ġmu": 269,
      "ace": 270,
      "Ġthen": 271,
      "ark": 272,
      "ast": 273,
      "oom": 274,
      "Ġse": 275,
      "Ġlily": 276,
      "Ġgo": 277,
      "Ġsad": 278,
      "Ġloved": 279,
      "ful": 280,
      "Ġsom": 281,
      "Ġsomet": 282,
      "?\"": 283,
      "Ġwould": 284,
      "Ġbr": 285,
      "Ġfrom": 286,
      "Ġag": 287,
      "Ġal": 288,
      "oug": 289,
      "Ġcan": 290,
      "Ġpu": 291,
      "Ġdo": 292,
      "Ġevery": 293,
      "Ġboy": 294,
      "elt": 295,
      "Ġlooked": 296,
      "Ġfelt": 297,
      "ight": 298,
      "Ġkn": 299,
      "Ġsomething": 300,
      "es": 301,
      "th": 302,
      "ted": 303,
      "Ġtree": 304,
      "Ġaround": 305,
      "Ġthem": 306,
      "Ġfound": 307,
      "Ġpark": 308,
      "ood": 309,
      "Ġasked": 310,
      "ag": 311,
      "ther": 312,
      "Ġwor": 313,
      "Ġback": 314,
      "Ġfun": 315,
      "Ġcl": 316,
      "Ġpo": 317,
      "Ġother": 318,
      "ave": 319,
      "Ġbir": 320,
      "Ġhome": 321,
      "Ġwater": 322,
      "Ġdid": 323,
      "Ġsmall": 324,
      "Ġch": 325,
      "Ġagain": 326,
      "Ġbird": 327,
      "dy": 328,
      "pl": 329,
      "Ġis": 330,
      "Ġcat": 331,
      "Ġran": 332,
      "Ġplaying": 333,
      "eci": 334,
      "side": 335,
      "ong": 336,
      "Ġnew": 337,
      "Ġspeci": 338,
      "Ġspecial": 339,
      "sh": 340,
      "Ġtoy": 341,
      "ited": 342,
      "Ġco": 343,
      "Ġstar": 344,
      "aug": 345,
      "ny": 346,
      "ss": 347,
      "Ġtheir": 348,
      "Ġfe": 349,
      "ouse": 350,
      "Ġgr": 351,
      "Ġthoug": 352,
      "Ġboat": 353,
      "Ġlike": 354,
      "Ġlived": 355,
      "Ġstarted": 356,
      "qu": 357,
      "Ġsun": 358,
      "Ġpr": 359,
      "Ġgood": 360,
      "Ġno": 361,
      "Ġthis": 362,
      "Ġplayed": 363,
      "Ġthought": 364,
      "cy": 365,
      "Ġaway": 366,
      "Ġcar": 367,
      "Ġexc": 368,
      "ick": 369,
      "ur": 370,
      "Åĵ": 371,
      "Ġget": 372,
      "ower": 373,
      "abb": 374,
      "able": 375,
      "Ġflower": 376,
      "Ġexcited": 377,
      "op": 378,
      "Ġab": 379,
      "Ġbl": 380,
      "Ġlot": 381,
      "Ġdad": 382,
      "imal": 383,
      "ish": 384,
      "lly": 385,
      "own": 386,
      "Ġbec": 387,
      "Ġbear": 388,
      "Ġanimal": 389,
      "Ġtook": 390,
      "fter": 391,
      "pt": 392,
      "ust": 393,
      "Ġqu": 394,
      "Ġafter": 395,
      "Ġwar": 396,
      "Ġstr": 397,
      "Ġliked": 398,
      "Ġsee": 399,
      "dd": 400,
      "ff": 401,
      "king": 402,
      "ned": 403,
      "ug": 404,
      "Ġwal": 405,
      "our": 406,
      "Ġcare": 407,
      "Ġmad": 408,
      "Ġsam": 409,
      "Ġhave": 410,
      "pped": 411,
      "itty": 412,
      "Ġnever": 413,
      "Ġkitty": 414,
      "Ġwho": 415,
      "Ġwhat": 416,
      "ump": 417,
      "Ġanimals": 418,
      "Ġmade": 419,
      "ac": 420,
      "nny": 421,
      "Ġke": 422,
      "Ġsome": 423,
      "Ġfast": 424,
      "Ġho": 425,
      "Ġlu": 426,
      "Ġpre": 427,
      "Ġme": 428,
      "Ġmake": 429,
      "Ġgot": 430,
      "Ġbug": 431,
      "Ġjo": 432,
      "Ġkne": 433,
      "Ġfeel": 434,
      "ky": 435,
      "yes": 436,
      "Ġam": 437,
      "Ġsn": 438,
      "Ġfish": 439,
      "Ġlet": 440,
      "Ġlaug": 441,
      "ared": 442,
      "Ġold": 443,
      "Ġthing": 444,
      "Ġrabb": 445,
      "ways": 446,
      "Ġalways": 447,
      "Ġabout": 448,
      "Ġrabbit": 449,
      "âĦ": 450,
      "Ġtw": 451,
      "Ġtake": 452,
      "Ġsc": 453,
      "nder": 454,
      "Ġtom": 455,
      "Ġfin": 456,
      "oud": 457,
      "Ġpic": 458,
      "Ġdec": 459,
      "Ġgum": 460,
      "Ġnow": 461,
      "ided": 462,
      "Ġint": 463,
      "Ġrun": 464,
      "ady": 465,
      "Ġshow": 466,
      "âĤ¬âĦ": 467,
      "Ġcouldn": 468,
      "Ġlear": 469,
      "Ġput": 470,
      "Ġlucy": 471,
      "Ġdecided": 472,
      "âĤ¬âĦ¢": 473,
      "Ġbot": 474,
      "Ġhouse": 475,
      "ream": 476,
      "ous": 477,
      "Ġcr": 478,
      "Ġgre": 479,
      "Ġbest": 480,
      "Ġyour": 481,
      "Ġbox": 482,
      "Ġoutside": 483,
      "Ġexpl": 484,
      "room": 485,
      "we": 486,
      "Ġhow": 487,
      "Ġcame": 488,
      "Ġmi": 489,
      "Ġman": 490,
      "Ġow": 491,
      "Ġthan": 492,
      "Ġend": 493,
      "Ġever": 494,
      "ang": 495,
      "Ġoff": 496,
      "Ġjust": 497,
      "ause": 498,
      "Ġmommy": 499,
      "Ġmuch": 500,
      "Ġclo": 501,
      "Ġbecause": 502,
      "Ġknew": 503,
      "Ġinto": 504,
      "aw": 505,
      "az": 506,
      "iz": 507,
      "ice": 508,
      "lie": 509,
      "ost": 510,
      "Ġtri": 511,
      "Ġare": 512,
      "Ġamy": 513,
      "ite": 514,
      "Ġmore": 515,
      "Ġshare": 516,
      "Ġneed": 517,
      "illy": 518,
      "Ġnotic": 519,
      "Ġlearned": 520,
      "Ġnoticed": 521,
      "ax": 522,
      "ant": 523,
      "ail": 524,
      "ber": 525,
      "end": 526,
      "ure": 527,
      "Ġz": 528,
      "Ġve": 529,
      "Ġtold": 530,
      "Ġfu": 531,
      "Ġfore": 532,
      "Ġfind": 533,
      "Ġlong": 534,
      "Ġcall": 535,
      "Ġdown": 536,
      "Ġmy": 537,
      "ntil": 538,
      "Ġem": 539,
      "Ġuntil": 540,
      "Ġsudd": 541,
      "Ġflu": 542,
      "Ġkept": 543,
      "Ġlaughed": 544,
      "Ġthings": 545,
      "Ġpicked": 546,
      "Ġboth": 547,
      "Ġsudden": 548,
      "av": 549,
      "ble": 550,
      "lf": 551,
      "ning": 552,
      "Ġv": 553,
      "Ġhug": 554,
      "Ġcher": 555,
      "Ġground": 556,
      "Ġgame": 557,
      "ary": 558,
      "ise": 559,
      "ist": 560,
      "Ġelly": 561,
      "Ġjim": 562,
      "Ġsue": 563,
      "Ġlook": 564,
      "Ġlots": 565,
      "Ġsnow": 566,
      "Ġtwo": 567,
      "Ġthanked": 568,
      "Ġforest": 569,
      "Ġsuddenly": 570,
      "ach": 571,
      "ile": 572,
      "ive": 573,
      "sed": 574,
      "Ġtry": 575,
      "Ġby": 576,
      "Ġbet": 577,
      "Ġway": 578,
      "Ġgave": 579,
      "other": 580,
      "Ġbunny": 581,
      "Ġjill": 582,
      "Ġjump": 583,
      "Ġif": 584,
      "ect": 585,
      "Ġleave": 586,
      "Ġdog": 587,
      "Ġknow": 588,
      "Ġword": 589,
      "Ġbloom": 590,
      "Ġdaddy": 591,
      "Ġpret": 592,
      "Ġjoe": 593,
      "Ġmia": 594,
      "Ġcalled": 595,
      ",\"": 596,
      "ak": 597,
      "ase": 598,
      "ove": 599,
      "rp": 600,
      "uck": 601,
      "ving": 602,
      "wh": 603,
      "Ġ1": 604,
      "Ġ3": 605,
      "Ġ8": 606,
      "Ġtr": 607,
      "Ġad": 608,
      "Ġsl": 609,
      "Ġwill": 610,
      "Ġwait": 611,
      "Ġlake": 612,
      "Ġpain": 613,
      "Ġde": 614,
      "Ġdon": 615,
      "ate": 616,
      "Ġbeep": 617,
      "Ġrace": 618,
      "Ġroom": 619,
      "Ġsoon": 620,
      "alk": 621,
      "self": 622,
      "Ġhappily": 623,
      "Ġshop": 624,
      "Ġany": 625,
      "Ġspe": 626,
      "Ġcatch": 627,
      "Ġproud": 628,
      "ffy": 629,
      "Ġscared": 630,
      "Ġcrab": 631,
      "ched": 632,
      "ied": 633,
      "Ġ2": 634,
      "Ġ4": 635,
      "Ġ5": 636,
      "Ġ6": 637,
      "Ġ7": 638,
      "Ġ9": 639,
      "Ġwo": 640,
      "Ġbin": 641,
      "Ġtow": 642,
      "Ġfo": 643,
      "Ġwat": 644,
      "Ġlady": 645,
      "Ġheard": 646,
      "Ġcu": 647,
      "Ġmag": 648,
      "let": 649,
      "Ġover": 650,
      "Ġeve": 651,
      "Ġeach": 652,
      "Ġinside": 653,
      "Ġbeing": 654,
      "ank": 655,
      "irst": 656,
      "Ġjack": 657,
      "Ġice": 658,
      "Ġreal": 659,
      "Ġrepl": 660,
      "rior": 661,
      "Ġothers": 662,
      "Ġquick": 663,
      "Ġwarrior": 664,
      "Ġwalking": 665,
      "Ġowl": 666,
      "Ġclos": 667,
      "Ġtried": 668,
      "Ġfluffy": 669,
      "Ġcherry": 670,
      "Ġbetter": 671,
      "Ġbinky": 672,
      "Ġreplied": 673,
      "as": 674,
      "cream": 675,
      "ip": 676,
      "me": 677,
      "mer": 678,
      "ton": 679,
      "Ġide": 680,
      "Ġte": 681,
      "Ġar": 682,
      "Ġbed": 683,
      "Ġbad": 684,
      "iny": 685,
      "Ġfar": 686,
      "Ġpie": 687,
      "Ġdre": 688,
      "Ġmet": 689,
      "Ġmouse": 690,
      "Ġmary": 691,
      "Ġgard": 692,
      "lla": 693,
      "lled": 694,
      "Ġhand": 695,
      "Ġella": 696,
      "Ġtimmy": 697,
      "Ġro": 698,
      "Ġright": 699,
      "Ġyum": 700,
      "keep": 701,
      "Ġstor": 702,
      "Ġstill": 703,
      "ook": 704,
      "alth": 705,
      "Ġshould": 706,
      "Ġbutton": 707,
      "ened": 708,
      "Ġsus": 709,
      "Ġsurp": 710,
      "Ġeveryone": 711,
      "that": 712,
      "Ġstrang": 713,
      "Ġamaz": 714,
      "Ġfull": 715,
      "Ġshopkeep": 716,
      "Ġwonder": 717,
      "Ġcloser": 718,
      "Ġidea": 719,
      "Ġpiece": 720,
      "Ġgarden": 721,
      "Ġsurpr": 722,
      "Ġshopkeeper": 723,
      "ah": 724,
      "ere": 725,
      "een": 726,
      "fe": 727,
      "ft": 728,
      "iff": 729,
      "kin": 730,
      "ty": 731,
      "ush": 732,
      "Ġtast": 733,
      "hes": 734,
      "here": 735,
      "Ġsar": 736,
      "Ġsky": 737,
      "Ġball": 738,
      "Ġfle": 739,
      "Ġfam": 740,
      "Ġfirst": 741,
      "Ġpe": 742,
      "Ġper": 743,
      "Ġpick": 744,
      "Ġpump": 745,
      "Ġdiff": 746,
      "arlie": 747,
      "Ġits": 748,
      "Ġhair": 749,
      "Ġen": 750,
      "ane": 751,
      "ies": 752,
      "igh": 753,
      "Ġunder": 754,
      "pping": 755,
      "ool": 756,
      "Ġjane": 757,
      "Ġkind": 758,
      "Ġwhy": 759,
      "Ġmush": 760,
      "Ġbrush": 761,
      "ough": 762,
      "thank": 763,
      "Ġpole": 764,
      "Ġcharlie": 765,
      "Ġtoys": 766,
      "aught": 767,
      "Ġgrace": 768,
      "Ġqueen": 769,
      "Ġwalked": 770,
      "Ġcareful": 771,
      "Ġhole": 772,
      "Ġgreen": 773,
      "Ġleaves": 774,
      "Ġpainter": 775,
      "Ġrealiz": 776,
      "Ġyummy": 777,
      "Ġsusie": 778,
      "Ġsarah": 779,
      "Ġfamily": 780,
      "Ġpumpkin": 781,
      "Ġmushroom": 782,
      "and": 783,
      "ass": 784,
      "fore": 785,
      "hi": 786,
      "host": 787,
      "ious": 788,
      "led": 789,
      "mom": 790,
      "og": 791,
      "oke": 792,
      "pe": 793,
      "sy": 794,
      "sic": 795,
      "ue": 796,
      "ye": 797,
      "zag": 798,
      "Ġted": 799,
      "Ġtail": 800,
      "Ġsound": 801,
      "Ġwin": 802,
      "Ġwis": 803,
      "Ġwind": 804,
      "Ġfly": 805,
      "Ġhoo": 806,
      "Ġhard": 807,
      "Ġcle": 808,
      "Ġdis": 809,
      "Ġdep": 810,
      "Ġdream": 811,
      "Ġmax": 812,
      "Ġmother": 813,
      "Ġghost": 814,
      "ars": 815,
      "llow": 816,
      "Ġhaving": 817,
      "ort": 818,
      "owd": 819,
      "Ġbeau": 820,
      "Ġbenny": 821,
      "Ġbefore": 822,
      "Ġwear": 823,
      "Ġrac": 824,
      "igzag": 825,
      "Ġplace": 826,
      "Ġste": 827,
      "Ġstu": 828,
      "Ġstore": 829,
      "cket": 830,
      "Ġnear": 831,
      "Ġhimself": 832,
      "Ġmusic": 833,
      "Ġpulled": 834,
      "Ġpond": 835,
      "Ġdidn": 836,
      "Ġchalk": 837,
      "Ġflowers": 838,
      "Ġwarm": 839,
      "Ġfaster": 840,
      "Ġrunning": 841,
      "endable": 842,
      "Ġzigzag": 843,
      "Ġvest": 844,
      "Ġjimmy": 845,
      "Ġslow": 846,
      "Ġdeep": 847,
      "Ġtown": 848,
      "Ġeven": 849,
      "Ġquickly": 850,
      "althy": 851,
      "Ġstrange": 852,
      "Ġamazing": 853,
      "Ġwonderful": 854,
      "Ġteddy": 855,
      "Ġhoop": 856,
      "Ġdependable": 857,
      "'m": 858,
      "bye": 859,
      "ct": 860,
      "can": 861,
      "don": 862,
      "fect": 863,
      "ged": 864,
      "iful": 865,
      "la": 866,
      "mber": 867,
      "no": 868,
      "oon": 869,
      "ting": 870,
      "tiful": 871,
      "us": 872,
      "Ġim": 873,
      "Ġtur": 874,
      "Ġsor": 875,
      "Ġwr": 876,
      "Ġwet": 877,
      "Ġtou": 878,
      "Ġfav": 879,
      "ount": 880,
      "Ġhere": 881,
      "Ġcon": 882,
      "Ġcom": 883,
      "Ġcome": 884,
      "Ġpowd": 885,
      "Ġdr": 886,
      "Ġdel": 887,
      "Ġmome": 888,
      "Ġmost": 889,
      "ayak": 890,
      "aring": 891,
      "ised": 892,
      "Ġnor": 893,
      "Ġnice": 894,
      "Ġsafe": 895,
      "Ġthin": 896,
      "nts": 897,
      "Ġeyes": 898,
      "ster": 899,
      "Ġred": 900,
      "Ġrake": 901,
      "irt": 902,
      "Ġkayak": 903,
      "Ġrel": 904,
      "Ġreac": 905,
      "ally": 906,
      "Ġwhile": 907,
      "Ġspot": 908,
      "Ġlost": 909,
      "Ġflo": 910,
      "Ġbrown": 911,
      "age": 912,
      "Ġcoin": 913,
      "Ġcold": 914,
      "Ġgoodbye": 915,
      "Ġbecame": 916,
      "Ġexplore": 917,
      "Ġmany": 918,
      "Ġjumped": 919,
      "Ġpretty": 920,
      "what": 921,
      "Ġspeed": 922,
      "Ġmagic": 923,
      "member": 924,
      "Ġbedroom": 925,
      "Ġmetal": 926,
      "Ġstory": 927,
      "Ġsurprise": 928,
      "Ġflew": 929,
      "Ġperfect": 930,
      "Ġdiffere": 931,
      "Ġbeautiful": 932,
      "Ġstudy": 933,
      "Ġsorry": 934,
      "Ġpowder": 935,
      "Ġmoment": 936,
      "Ġreached": 937,
      "ale": 938,
      "apped": 939,
      "be": 940,
      "cil": 941,
      "de": 942,
      "day": 943,
      "jo": 944,
      "nie": 945,
      "rough": 946,
      "sp": 947,
      "where": 948,
      "xt": 949,
      "Ġtilly": 950,
      "hel": 951,
      "Ġsou": 952,
      "Ġswe": 953,
      "Ġbar": 954,
      "Ġbill": 955,
      "Ġbook": 956,
      "Ġfi": 957,
      "Ġface": 958,
      "reed": 959,
      "Ġloud": 960,
      "Ġlist": 961,
      "Ġche": 962,
      "Ġcind": 963,
      "Ġcard": 964,
      "Ġple": 965,
      "Ġpen": 966,
      "Ġpare": 967,
      "Ġpast": 968,
      "Ġpour": 969,
      "Ġdone": 970,
      "Ġmor": 971,
      "Ġmum": 972,
      "Ġgive": 973,
      "isit": 974,
      "Ġnight": 975,
      "idd": 976,
      "Ġor": 977,
      "Ġthrough": 978,
      "Ġeat": 979,
      "oring": 980,
      "Ġbeen": 981,
      "Ġraz": 982,
      "ient": 983,
      "Ġun": 984,
      "Ġuse": 985,
      "Ġbush": 986,
      "Ġyard": 987,
      "Ġstove": 988,
      "sent": 989,
      "Ġshiny": 990,
      "Ġshirt": 991,
      "Ġnext": 992,
      "Ġready": 993,
      "Ġremember": 994,
      "Ġannie": 995,
      "Ġlove": 996,
      "Ġflame": 997,
      "getable": 998,
      "fully": 999,
      "Ġseen": 1000,
      "Ġgoing": 1001,
      "Ġbrave": 1002,
      "Ġpus": 1003,
      "ess": 1004,
      "Ġclum": 1005,
      "Ġpocket": 1006,
      "Ġsmaller": 1007,
      "Ġbirds": 1008,
      "Ġcol": 1009,
      "Ġsunny": 1010,
      "Ġprom": 1011,
      "Ġnose": 1012,
      "ours": 1013,
      "Ġcarefully": 1014,
      "Ġkeep": 1015,
      "Ġhopping": 1016,
      "Ġpresent": 1017,
      "Ġfeeling": 1018,
      "Ġshowed": 1019,
      "Ġexploring": 1020,
      "Ġown": 1021,
      "Ġneedle": 1022,
      "Ġvegetable": 1023,
      "Ġemily": 1024,
      "Ġvisit": 1025,
      "Ġfollow": 1026,
      "Ġwatched": 1027,
      "Ġcut": 1028,
      "Ġdress": 1029,
      "Ġrealized": 1030,
      "mommy": 1031,
      "Ġrachel": 1032,
      "Ġwrong": 1033,
      "Ġcoming": 1034,
      "Ġnora": 1035,
      "Ġrelax": 1036,
      "Ġfloat": 1037,
      "Ġdifferent": 1038,
      "Ġsoup": 1039,
      "Ġsweet": 1040,
      "Ġcindy": 1041,
      "Ġpencil": 1042,
      "Ġparents": 1043,
      "Ġpastry": 1044,
      "Ġrazor": 1045,
      "Ġvegetables": 1046,
      "'ll": 1047,
      "bed": 1048,
      "cr": 1049,
      "do": 1050,
      "iver": 1051,
      "oss": 1052,
      "oice": 1053,
      "per": 1054,
      "port": 1055,
      "row": 1056,
      "ries": 1057,
      "so": 1058,
      "tin": 1059,
      "ued": 1060,
      "wed": 1061,
      "you": 1062,
      "yer": 1063,
      "ze": 1064,
      "Ġ-": 1065,
      "Ġacr": 1066,
      "Ġsw": 1067,
      "Ġsch": 1068,
      "Ġsec": 1069,
      "Ġsilly": 1070,
      "Ġtoday": 1071,
      "Ġfan": 1072,
      "Ġfall": 1073,
      "Ġfill": 1074,
      "Ġfree": 1075,
      "Ġfood": 1076,
      "Ġhat": 1077,
      "Ġhide": 1078,
      "Ġhur": 1079,
      "ret": 1080,
      "reat": 1081,
      "Ġlaw": 1082,
      "ert": 1083,
      "Ġcast": 1084,
      "Ġcase": 1085,
      "Ġpat": 1086,
      "Ġdry": 1087,
      "Ġmo": 1088,
      "Ġmat": 1089,
      "Ġmone": 1090,
      "Ġgl": 1091,
      "Ġgone": 1092,
      "ished": 1093,
      "Ġnaught": 1094,
      "ather": 1095,
      "Ġoct": 1096,
      "orite": 1097,
      "Ġbeg": 1098,
      "Ġbeh": 1099,
      "Ġweight": 1100,
      "Ġride": 1101,
      "Ġsoft": 1102,
      "Ġframe": 1103,
      "Ġfrog": 1104,
      "Ġye": 1105,
      "Ġsto": 1106,
      "Ġshout": 1107,
      "Ġshared": 1108,
      "Ġsme": 1109,
      "Ġneigh": 1110,
      "Ġbob": 1111,
      "Ġlive": 1112,
      "ching": 1113,
      "Ġwhale": 1114,
      "Ġspr": 1115,
      "Ġsure": 1116,
      "Ġlola": 1117,
      "Ġhelped": 1118,
      "ried": 1119,
      "rived": 1120,
      "rious": 1121,
      "Ġmust": 1122,
      "Ġsear": 1123,
      "Ġbroke": 1124,
      "Ġalso": 1125,
      "Ġworry": 1126,
      "Ġfell": 1127,
      "Ġgrabb": 1128,
      "Ġprin": 1129,
      "opus": 1130,
      "pty": 1131,
      "Ġhopped": 1132,
      "Ġfinished": 1133,
      "Ġgrew": 1134,
      "Ġexplain": 1135,
      "Ġneeded": 1136,
      "ures": 1137,
      "Ġfuel": 1138,
      "Ġempty": 1139,
      "Ġwords": 1140,
      "Ġpretend": 1141,
      "Ġcurious": 1142,
      "Ġarrived": 1143,
      "Ġfarmer": 1144,
      "Ġpieces": 1145,
      "Ġtaste": 1146,
      "Ġwishes": 1147,
      "Ġstepped": 1148,
      "Ġimport": 1149,
      "Ġtouch": 1150,
      "Ġfavorite": 1151,
      "Ġcontin": 1152,
      "Ġdrove": 1153,
      "spect": 1154,
      "Ġfix": 1155,
      "Ġplease": 1156,
      "Ġclumsy": 1157,
      "Ġpromised": 1158,
      "Ġacross": 1159,
      "Ġschool": 1160,
      "Ġlawyer": 1161,
      "Ġcastle": 1162,
      "Ġmoney": 1163,
      "Ġnaughty": 1164,
      "Ġoctopus": 1165,
      "Ġshouted": 1166,
      "Ġneighb": 1167,
      "Ġgrabbed": 1168,
      "Ġimportant": 1169,
      "Ġcontinued": 1170,
      "aking": 1171,
      "ape": 1172,
      "bur": 1173,
      "bwe": 1174,
      "bble": 1175,
      "cu": 1176,
      "eer": 1177,
      "gly": 1178,
      "hn": 1179,
      "lc": 1180,
      "lace": 1181,
      "med": 1182,
      "more": 1183,
      "mmer": 1184,
      "ng": 1185,
      "net": 1186,
      "pened": 1187,
      "te": 1188,
      "thing": 1189,
      "zz": 1190,
      "Ġ'": 1191,
      "Ġtie": 1192,
      "Ġtiny": 1193,
      "hell": 1194,
      "Ġsis": 1195,
      "Ġwil": 1196,
      "Ġbilly": 1197,
      "Ġhours": 1198,
      "Ġwaited": 1199,
      "Ġlat": 1200,
      "Ġhear": 1201,
      "Ġheav": 1202,
      "Ġhealthy": 1203,
      "ers": 1204,
      "onster": 1205,
      "Ġcool": 1206,
      "Ġcaught": 1207,
      "Ġcount": 1208,
      "Ġdark": 1209,
      "Ġmil": 1210,
      "Ġmind": 1211,
      "Ġmidd": 1212,
      "Ġmonster": 1213,
      "Ġgather": 1214,
      "Ġnat": 1215,
      "Ġsack": 1216,
      "Ġhammer": 1217,
      "Ġopened": 1218,
      "Ġthree": 1219,
      "Ġears": 1220,
      "ors": 1221,
      "Ġbelie": 1222,
      "ild": 1223,
      "Ġwealthy": 1224,
      "Ġwelc": 1225,
      "Ġrain": 1226,
      "Ġherself": 1227,
      "ired": 1228,
      "Ġugly": 1229,
      "Ġbubble": 1230,
      "Ġbuild": 1231,
      "ves": 1232,
      "Ġstuck": 1233,
      "Ġyoung": 1234,
      "cklace": 1235,
      "Ġshore": 1236,
      "Ġsmile": 1237,
      "Ġfriendly": 1238,
      "Ġnecklace": 1239,
      "Ġlizz": 1240,
      "Ġrec": 1241,
      "Ġreind": 1242,
      "Ġrespect": 1243,
      "Ġwhite": 1244,
      "Ġspid": 1245,
      "Ġhelping": 1246,
      "Ġhelpful": 1247,
      "Ġate": 1248,
      "Ġless": 1249,
      "?\".": 1250,
      "Ġbrother": 1251,
      "Ġagreed": 1252,
      "Ġalong": 1253,
      "Ġalert": 1254,
      "Ġeverywhere": 1255,
      "Ġtrees": 1256,
      "Ġwork": 1257,
      "Ġworked": 1258,
      "Ġclapped": 1259,
      "Ġpol": 1260,
      "Ġpoin": 1261,
      "Ġchain": 1262,
      "Ġcobwe": 1263,
      "Ġgrow": 1264,
      "Ġgrass": 1265,
      "Ġpro": 1266,
      "Ġnodd": 1267,
      "ople": 1268,
      "Ġable": 1269,
      "Ġblack": 1270,
      "Ġblue": 1271,
      "Ġstrong": 1272,
      "Ġstraw": 1273,
      "Ġbugs": 1274,
      "Ġknee": 1275,
      "Ġsnail": 1276,
      "Ġscary": 1277,
      "Ġpict": 1278,
      "Ġmix": 1279,
      "angle": 1280,
      "Ġclose": 1281,
      "Ġtriangle": 1282,
      "Ġzip": 1283,
      "Ġlonger": 1284,
      "Ġflute": 1285,
      "Ġvoice": 1286,
      "Ġhugged": 1287,
      "why": 1288,
      "Ġslide": 1289,
      "Ġanymore": 1290,
      "Ġspent": 1291,
      "Ġmagnet": 1292,
      "Ġarrow": 1293,
      "Ġdrew": 1294,
      "Ġhands": 1295,
      "Ġtasted": 1296,
      "Ġballoon": 1297,
      "Ġpeople": 1298,
      "Ġhaircu": 1299,
      "peat": 1300,
      "Ġwine": 1301,
      "Ġclean": 1302,
      "Ġturned": 1303,
      "Ġdelic": 1304,
      "Ġthink": 1305,
      "Ġmagical": 1306,
      "dest": 1307,
      "joy": 1308,
      "Ġbarber": 1309,
      "Ġlistened": 1310,
      "Ġchewed": 1311,
      "Ġmoral": 1312,
      "Ġremembered": 1313,
      "Ġfollowed": 1314,
      "Ġfancy": 1315,
      "Ġfilled": 1316,
      "Ġhurt": 1317,
      "Ġmodest": 1318,
      "Ġbegan": 1319,
      "Ġbehind": 1320,
      "Ġstopped": 1321,
      "Ġsmelly": 1322,
      "Ġspray": 1323,
      "Ġprint": 1324,
      "hello": 1325,
      "Ġsister": 1326,
      "Ġwilbur": 1327,
      "Ġlater": 1328,
      "Ġmilk": 1329,
      "Ġmiddle": 1330,
      "Ġnature": 1331,
      "Ġbelieve": 1332,
      "Ġlizzie": 1333,
      "Ġreindeer": 1334,
      "Ġcobweb": 1335,
      "Ġnodded": 1336,
      "Ġstrawber": 1337,
      "Ġhaircut": 1338,
      "\".": 1339,
      "'re": 1340,
      "air": 1341,
      "bo": 1342,
      "br": 1343,
      "bar": 1344,
      "ced": 1345,
      "cage": 1346,
      "cient": 1347,
      "ele": 1348,
      "eared": 1349,
      "gry": 1350,
      "gust": 1351,
      "io": 1352,
      "ier": 1353,
      "ion": 1354,
      "iet": 1355,
      "lu": 1356,
      "lse": 1357,
      "liver": 1358,
      "lves": 1359,
      "ner": 1360,
      "niz": 1361,
      "oh": 1362,
      "ond": 1363,
      "rass": 1364,
      "ul": 1365,
      "ually": 1366,
      "vice": 1367,
      "vail": 1368,
      "ward": 1369,
      "yard": 1370,
      "Ġtal": 1371,
      "Ġtall": 1372,
      "Ġtalk": 1373,
      "Ġtired": 1374,
      "Ġavail": 1375,
      "Ġsil": 1376,
      "Ġsig": 1377,
      "Ġside": 1378,
      "Ġwom": 1379,
      "Ġwore": 1380,
      "Ġwise": 1381,
      "Ġwip": 1382,
      "Ġbit": 1383,
      "Ġtop": 1384,
      "Ġtoug": 1385,
      "ined": 1386,
      "ining": 1387,
      "inner": 1388,
      "Ġfit": 1389,
      "Ġfake": 1390,
      "Ġfac": 1391,
      "Ġhid": 1392,
      "Ġhor": 1393,
      "Ġhot": 1394,
      "Ġhig": 1395,
      "Ġhum": 1396,
      "Ġhill": 1397,
      "Ġhigh": 1398,
      "Ġwag": 1399,
      "repeat": 1400,
      "Ġlun": 1401,
      "Ġlight": 1402,
      "Ġlate": 1403,
      "Ġland": 1404,
      "Ġhead": 1405,
      "Ġcake": 1406,
      "Ġcreat": 1407,
      "Ġcele": 1408,
      "Ġpot": 1409,
      "Ġdan": 1410,
      "Ġdri": 1411,
      "Ġdist": 1412,
      "Ġduck": 1413,
      "Ġdinner": 1414,
      "Ġmay": 1415,
      "Ġmis": 1416,
      "Ġgi": 1417,
      "Ġgar": 1418,
      "Ġgun": 1419,
      "imb": 1420,
      "imes": 1421,
      "Ġsat": 1422,
      "Ġsailed": 1423,
      "les": 1424,
      "Ġoliver": 1425,
      "ntually": 1426,
      "Ġear": 1427,
      "Ġelse": 1428,
      "Ġinst": 1429,
      "vered": 1430,
      "ceive": 1431,
      "Ġru": 1432,
      "Ġrad": 1433,
      "Ġused": 1434,
      "Ġbus": 1435,
      "Ġbuy": 1436,
      "Ġplan": 1437,
      "Ġplant": 1438,
      "Ġplate": 1439,
      "ppeared": 1440,
      "Ġwithout": 1441,
      "vent": 1442,
      "Ġstay": 1443,
      "Ġstand": 1444,
      "Ġstret": 1445,
      "adow": 1446,
      "Ġsharing": 1447,
      "Ġicy": 1448,
      "Ġforth": 1449,
      "Ġkis": 1450,
      "Ġrelie": 1451,
      "Ġreceive": 1452,
      "Ġancient": 1453,
      "âĤ¬.": 1454,
      "Ġspoon": 1455,
      "Ġsuper": 1456,
      "Ġlooking": 1457,
      "Ġwhere": 1458,
      "ards": 1459,
      "Ġlend": 1460,
      "Ġleft": 1461,
      "Ġmud": 1462,
      "Ġsea": 1463,
      "Ġsometimes": 1464,
      "Ġbright": 1465,
      "Ġalone": 1466,
      "Ġpudd": 1467,
      "Ġdoor": 1468,
      "Ġdoes": 1469,
      "Ġworld": 1470,
      "Ġworried": 1471,
      "Ġbackyard": 1472,
      "Ġclimb": 1473,
      "Ġchore": 1474,
      "Ġbirdcage": 1475,
      "Ġcovered": 1476,
      "Ġgrant": 1477,
      "Ġnoise": 1478,
      "Ġgetting": 1479,
      "Ġquiet": 1480,
      "Ġseemed": 1481,
      "Ġsame": 1482,
      "Ġmeet": 1483,
      "Ġmeadow": 1484,
      "Ġjob": 1485,
      "Ġjohn": 1486,
      "Ġleta": 1487,
      "Ġlaughing": 1488,
      "Ġfine": 1489,
      "Ġshowing": 1490,
      "Ġbott": 1491,
      "Ġcraw": 1492,
      "Ġgreat": 1493,
      "Ġzi": 1494,
      "Ġmyster": 1495,
      "Ġembar": 1496,
      "blem": 1497,
      "Ġcherries": 1498,
      "Ġlooks": 1499,
      "Ġtrying": 1500,
      "Ġtrou": 1501,
      "Ġtruck": 1502,
      "Ġtrue": 1503,
      "Ġadm": 1504,
      "Ġadvice": 1505,
      "Ġadvent": 1506,
      "Ġanything": 1507,
      "Ġtowards": 1508,
      "Ġfox": 1509,
      "Ġwatch": 1510,
      "Ġeventually": 1511,
      "Ġroll": 1512,
      "Ġroad": 1513,
      "Ġenough": 1514,
      "Ġenjoy": 1515,
      "Ġunderst": 1516,
      "Ġgraceful": 1517,
      "ogniz": 1518,
      "Ġwished": 1519,
      "Ġwindow": 1520,
      "Ġdisgust": 1521,
      "Ġslowly": 1522,
      "Ġturn": 1523,
      "Ġpushing": 1524,
      "Ġpushed": 1525,
      "Ġcolor": 1526,
      "Ġswim": 1527,
      "Ġsecond": 1528,
      "Ġpath": 1529,
      "Ġyears": 1530,
      "Ġsearch": 1531,
      "Ġneighbors": 1532,
      "Ġcountry": 1533,
      "Ġrecogniz": 1534,
      "Ġlesson": 1535,
      "Ġpolite": 1536,
      "Ġproblem": 1537,
      "Ġpictures": 1538,
      "rassed": 1539,
      "Ġavailable": 1540,
      "Ġsilver": 1541,
      "Ġsign": 1542,
      "Ġwoman": 1543,
      "Ġtough": 1544,
      "Ġhigher": 1545,
      "Ġlunch": 1546,
      "Ġcelebr": 1547,
      "Ġgarage": 1548,
      "Ġradio": 1549,
      "Ġplants": 1550,
      "Ġstanding": 1551,
      "Ġstretch": 1552,
      "Ġmysterious": 1553,
      "Ġembarrassed": 1554,
      "Ġdisgusting": 1555,
      "af": 1556,
      "aked": 1557,
      "aight": 1558,
      "ased": 1559,
      "appeared": 1560,
      "bow": 1561,
      "bled": 1562,
      "cet": 1563,
      "cked": 1564,
      "cape": 1565,
      "ee": 1566,
      "est": 1567,
      "ead": 1568,
      "fit": 1569,
      "fle": 1570,
      "fish": 1571,
      "fort": 1572,
      "gy": 1573,
      "ger": 1574,
      "got": 1575,
      "gum": 1576,
      "gled": 1577,
      "if": 1578,
      "iqu": 1579,
      "ible": 1580,
      "ks": 1581,
      "kay": 1582,
      "ling": 1583,
      "look": 1584,
      "ms": 1585,
      "ming": 1586,
      "now": 1587,
      "nce": 1588,
      "not": 1589,
      "ness": 1590,
      "of": 1591,
      "ocked": 1592,
      "ped": 1593,
      "ru": 1594,
      "sure": 1595,
      "scape": 1596,
      "tr": 1597,
      "the": 1598,
      "tim": 1599,
      "tur": 1600,
      "vous": 1601,
      "wow": 1602,
      "xible": 1603,
      "zy": 1604,
      "ĠĠ": 1605,
      "ĠĠčĊ": 1606,
      "Ġtick": 1607,
      "Ġtable": 1608,
      "Ġtreat": 1609,
      "head": 1610,
      "help": 1611,
      "Ġahead": 1612,
      "Ġsay": 1613,
      "Ġsle": 1614,
      "Ġsitt": 1615,
      "Ġsel": 1616,
      "Ġsep": 1617,
      "Ġsick": 1618,
      "Ġwon": 1619,
      "Ġwing": 1620,
      "Ġble": 1621,
      "Ġbow": 1622,
      "Ġbab": 1623,
      "Ġbag": 1624,
      "Ġbite": 1625,
      "inal": 1626,
      "Ġandy": 1627,
      "Ġfau": 1628,
      "Ġhar": 1629,
      "Ġhun": 1630,
      "Ġhidd": 1631,
      "Ġwaved": 1632,
      "reet": 1633,
      "read": 1634,
      "Ġheld": 1635,
      "ered": 1636,
      "erous": 1637,
      "ervous": 1638,
      "Ġcry": 1639,
      "Ġcau": 1640,
      "Ġcour": 1641,
      "Ġcaw": 1642,
      "Ġcook": 1643,
      "Ġpa": 1644,
      "Ġpile": 1645,
      "Ġwasn": 1646,
      "Ġdang": 1647,
      "Ġdiz": 1648,
      "Ġmight": 1649,
      "Ġmount": 1650,
      "Ġmess": 1651,
      "Ġmaking": 1652,
      "Ġge": 1653,
      "Ġgu": 1654,
      "Ġgig": 1655,
      "Ġgas": 1656,
      "arp": 1657,
      "isted": 1658,
      "Ġnervous": 1659,
      "Ġsand": 1660,
      "Ġsail": 1661,
      "ated": 1662,
      "Ġshell": 1663,
      "Ġshelves": 1664,
      "less": 1665,
      "Ġobed": 1666,
      "Ġokay": 1667,
      "Ġthirst": 1668,
      "Ġeas": 1669,
      "Ġescape": 1670,
      "orable": 1671,
      "Ġinv": 1672,
      "Ġinter": 1673,
      "owed": 1674,
      "Ġbel": 1675,
      "Ġweep": 1676,
      "Ġwealth": 1677,
      "cess": 1678,
      "sting": 1679,
      "Ġrot": 1680,
      "Ġriver": 1681,
      "Ġraked": 1682,
      "iest": 1683,
      "Ġonce": 1684,
      "iginal": 1685,
      "Ġus": 1686,
      "Ġbucket": 1687,
      "Ġfright": 1688,
      "Ġstone": 1689,
      "Ġstreet": 1690,
      "Ġjug": 1691,
      "Ġhappen": 1692,
      "Ġshining": 1693,
      "Ġsharp": 1694,
      "Ġsmoke": 1695,
      "Ġbigger": 1696,
      "Ġforgot": 1697,
      "Ġread": 1698,
      "Ġreward": 1699,
      "Ġrefle": 1700,
      "Ġretur": 1701,
      "Ġwants": 1702,
      "Ġspread": 1703,
      "Ġnothing": 1704,
      "Ġsuch": 1705,
      "ideo": 1706,
      "icul": 1707,
      "!\",": 1708,
      "!\".": 1709,
      "fused": 1710,
      "Ġleg": 1711,
      "Ġmug": 1712,
      "arket": 1713,
      "Ġsew": 1714,
      "Ġsent": 1715,
      "Ġgoal": 1716,
      "Ġbring": 1717,
      "Ġbran": 1718,
      "Ġagree": 1719,
      "Ġcannot": 1720,
      "Ġpurp": 1721,
      "Ġdoing": 1722,
      "ager": 1723,
      "agreed": 1724,
      "Ġworking": 1725,
      "Ġclot": 1726,
      "place": 1727,
      "Ġisn": 1728,
      "Ġcoat": 1729,
      "Ġfear": 1730,
      "Ġnosy": 1731,
      "Ġnobo": 1732,
      "ured": 1733,
      "urbed": 1734,
      "Åĵyes": 1735,
      "Åĵlet": 1736,
      "Åĵthank": 1737,
      "Åĵhi": 1738,
      "Åĵcan": 1739,
      "Åĵoh": 1740,
      "Ġexcitedly": 1741,
      "Ġwarned": 1742,
      "Ġwarning": 1743,
      "Ġstring": 1744,
      "Ġstraight": 1745,
      "Ġseek": 1746,
      "Ġwalk": 1747,
      "ourite": 1748,
      "Ġcareless": 1749,
      "acher": 1750,
      "Ġlulu": 1751,
      "Ġmakes": 1752,
      "Ġjoin": 1753,
      "Ġsnee": 1754,
      "Ġlaugh": 1755,
      "Ġtwist": 1756,
      "Ġtwisted": 1757,
      "Ġscre": 1758,
      "Ġfinally": 1759,
      "Ġintere": 1760,
      "Ġcouldna": 1761,
      "Ġlearnt": 1762,
      "Ġcrow": 1763,
      "well": 1764,
      "ween": 1765,
      "Ġclosed": 1766,
      "Ġvideo": 1767,
      "Ġgames": 1768,
      "Ġbetween": 1769,
      "Ġways": 1770,
      "Ġ10": 1771,
      "Ġtrust": 1772,
      "Ġadorable": 1773,
      "Ġwaiting": 1774,
      "Ġdeaf": 1775,
      "Ġdona": 1776,
      "Ġfoot": 1777,
      "Ġwatching": 1778,
      "meow": 1779,
      "Ġtell": 1780,
      "Ġtest": 1781,
      "Ġteach": 1782,
      "Ġteacher": 1783,
      "Ġfarm": 1784,
      "Ġhanded": 1785,
      "Ġstories": 1786,
      "Ġstrangers": 1787,
      "Ġamazed": 1788,
      "Ġwondered": 1789,
      "Ġsurprised": 1790,
      "Ġflexible": 1791,
      "Ġpee": 1792,
      "Ġpeace": 1793,
      "Ġperm": 1794,
      "Ġdifficul": 1795,
      "Ġrealize": 1796,
      "Ġsounds": 1797,
      "Ġharder": 1798,
      "Ġclearing": 1799,
      "Ġdisappeared": 1800,
      "Ġdisagreed": 1801,
      "Ġdreams": 1802,
      "Ġraced": 1803,
      "Ġsteal": 1804,
      "Ġjimmya": 1805,
      "ctive": 1806,
      "Ġimag": 1807,
      "Ġtouched": 1808,
      "Ġfavourite": 1809,
      "Ġdrank": 1810,
      "Ġdelight": 1811,
      "Ġbarked": 1812,
      "Ġlisten": 1813,
      "Ġmorning": 1814,
      "Ġgiven": 1815,
      "Ġoriginal": 1816,
      "Ġuniqu": 1817,
      "Ġlovely": 1818,
      "Ġcolour": 1819,
      "Ġowner": 1820,
      "Ġswam": 1821,
      "Ġsecret": 1822,
      "Ġfalling": 1823,
      "Ġfreeze": 1824,
      "Ġmatching": 1825,
      "Ġglad": 1826,
      "Ġlively": 1827,
      "Ġbroken": 1828,
      "Ġexplaining": 1829,
      "Ġfixed": 1830,
      "Ġheavy": 1831,
      "Ġheavier": 1832,
      "Ġgathered": 1833,
      "Ġwelcom": 1834,
      "Ġwelcome": 1835,
      "Ġrainbow": 1836,
      "Ġbubblegum": 1837,
      "Ġspider": 1838,
      "Ġspiders": 1839,
      "Ġpointed": 1840,
      "Ġpointing": 1841,
      "Ġmixed": 1842,
      "Ġdelicate": 1843,
      "Ġdelicious": 1844,
      "Ġhurts": 1845,
      "Ġsprayed": 1846,
      "Ġstrawberry": 1847,
      "Ġstrawberries": 1848,
      "Ġtalking": 1849,
      "Ġwipe": 1850,
      "Ġhumble": 1851,
      "Ġwagged": 1852,
      "Ġcreative": 1853,
      "Ġdance": 1854,
      "Ġdriver": 1855,
      "Ġdisturbed": 1856,
      "Ġmaybe": 1857,
      "Ġgiving": 1858,
      "Ġinstead": 1859,
      "Ġbushes": 1860,
      "Ġkissed": 1861,
      "Ġrelieved": 1862,
      "Ġpuddle": 1863,
      "Ġchores": 1864,
      "Ġgranted": 1865,
      "Ġzipping": 1866,
      "Ġtroubled": 1867,
      "Ġadventures": 1868,
      "Ġunderstand": 1869,
      "Ġturns": 1870,
      "Ġcolorful": 1871,
      "Ġswimming": 1872,
      "Ġrecognized": 1873,
      "Ġcelebrate": 1874,
      "fortable": 1875,
      "rupt": 1876,
      "Ġsleep": 1877,
      "Ġsitting": 1878,
      "Ġselfish": 1879,
      "Ġsepar": 1880,
      "Ġwings": 1881,
      "Ġblew": 1882,
      "Ġbaby": 1883,
      "Ġfaucet": 1884,
      "Ġharsh": 1885,
      "Ġhungry": 1886,
      "Ġhidden": 1887,
      "Ġcourse": 1888,
      "Ġcookies": 1889,
      "Ġdangerous": 1890,
      "Ġdizzy": 1891,
      "Ġmountain": 1892,
      "Ġgiggled": 1893,
      "Ġgasped": 1894,
      "Ġobedient": 1895,
      "Ġthirsty": 1896,
      "Ġinterrupt": 1897,
      "Ġstones": 1898,
      "Ġreflective": 1899,
      "Ġpurple": 1900,
      "Ġnobody": 1901,
      "Åĵleta": 1902,
      "Ġsneeze": 1903,
      "Ġtwisty": 1904,
      "Ġinteresting": 1905,
      "Ġdifficult": 1906,
      "Ġunique": 1907
    },
    "merges": [
      [
        "Ġ",
        "t"
      ],
      [
        "h",
        "e"
      ],
      [
        "Ġ",
        "a"
      ],
      [
        "Ġ",
        "s"
      ],
      [
        "Ġt",
        "he"
      ],
      [
        "Ġ",
        "w"
      ],
      [
        "n",
        "d"
      ],
      [
        "e",
        "d"
      ],
      [
        "č",
        "Ċ"
      ],
      [
        "Ġ",
        "b"
      ],
      [
        "Ġt",
        "o"
      ],
      [
        "i",
        "n"
      ],
      [
        "Ġa",
        "nd"
      ],
      [
        "i",
        "t"
      ],
      [
        "Ġ",
        "f"
      ],
      [
        "Ġ",
        "h"
      ],
      [
        "Ġw",
        "a"
      ],
      [
        "r",
        "e"
      ],
      [
        "o",
        "u"
      ],
      [
        "Ġ",
        "l"
      ],
      [
        "Ġ",
        "he"
      ],
      [
        "e",
        "r"
      ],
      [
        "o",
        "n"
      ],
      [
        "Ġ",
        "c"
      ],
      [
        "Ġ",
        "čĊ"
      ],
      [
        "Ġ",
        "p"
      ],
      [
        "Ġwa",
        "s"
      ],
      [
        "Ġ",
        "d"
      ],
      [
        "Ġ",
        "m"
      ],
      [
        "a",
        "y"
      ],
      [
        "Ġ",
        "g"
      ],
      [
        "i",
        "m"
      ],
      [
        "a",
        "r"
      ],
      [
        "i",
        "s"
      ],
      [
        "Ġ",
        "n"
      ],
      [
        "Ġs",
        "a"
      ],
      [
        "in",
        "g"
      ],
      [
        "l",
        "l"
      ],
      [
        "a",
        "t"
      ],
      [
        "Ġ",
        "it"
      ],
      [
        "o",
        "m"
      ],
      [
        "Ġs",
        "he"
      ],
      [
        "i",
        "d"
      ],
      [
        "Ġh",
        "a"
      ],
      [
        "l",
        "e"
      ],
      [
        "Ġ",
        "o"
      ],
      [
        "Ġt",
        "h"
      ],
      [
        "n",
        "t"
      ],
      [
        "Ġ",
        "e"
      ],
      [
        "Ġt",
        "im"
      ],
      [
        "o",
        "r"
      ],
      [
        "e",
        "t"
      ],
      [
        "Ġ",
        "in"
      ],
      [
        "o",
        "w"
      ],
      [
        "Ġb",
        "e"
      ],
      [
        "v",
        "er"
      ],
      [
        "Ġthe",
        "y"
      ],
      [
        "i",
        "l"
      ],
      [
        "Ġw",
        "e"
      ],
      [
        "a",
        "n"
      ],
      [
        "c",
        "e"
      ],
      [
        "s",
        "t"
      ],
      [
        "Ġ",
        "\""
      ],
      [
        "Ġ",
        "r"
      ],
      [
        "o",
        "t"
      ],
      [
        "i",
        "e"
      ],
      [
        "Ġhe",
        "r"
      ],
      [
        "Ġs",
        "o"
      ],
      [
        "l",
        "d"
      ],
      [
        "Ġ",
        "on"
      ],
      [
        "i",
        "g"
      ],
      [
        "i",
        "r"
      ],
      [
        "Ġ",
        "u"
      ],
      [
        "k",
        "ed"
      ],
      [
        "a",
        "m"
      ],
      [
        "Ġb",
        "u"
      ],
      [
        "Ġf",
        "r"
      ],
      [
        "Ġ",
        "y"
      ],
      [
        "Ġh",
        "is"
      ],
      [
        "Ġp",
        "l"
      ],
      [
        "Ġsa",
        "id"
      ],
      [
        "Ġd",
        "ay"
      ],
      [
        "k",
        "e"
      ],
      [
        "p",
        "p"
      ],
      [
        "Ġw",
        "it"
      ],
      [
        "Ġwit",
        "h"
      ],
      [
        "v",
        "e"
      ],
      [
        "Ġo",
        "f"
      ],
      [
        "Ġs",
        "t"
      ],
      [
        "Ġy",
        "ou"
      ],
      [
        "it",
        "t"
      ],
      [
        "Ġpl",
        "ay"
      ],
      [
        "o",
        "o"
      ],
      [
        "he",
        "r"
      ],
      [
        "Ġth",
        "at"
      ],
      [
        "ver",
        "y"
      ],
      [
        "a",
        "l"
      ],
      [
        "Ġha",
        "d"
      ],
      [
        "ou",
        "ld"
      ],
      [
        "c",
        "k"
      ],
      [
        "Ġu",
        "p"
      ],
      [
        "s",
        "e"
      ],
      [
        "Ġ",
        "j"
      ],
      [
        "Ġha",
        "pp"
      ],
      [
        "a",
        "d"
      ],
      [
        "Ġl",
        "itt"
      ],
      [
        "Ġlitt",
        "le"
      ],
      [
        "Ġs",
        "h"
      ],
      [
        "ou",
        "nd"
      ],
      [
        "Ġs",
        "m"
      ],
      [
        "Ġthe",
        "re"
      ],
      [
        "Ġtim",
        "e"
      ],
      [
        "ie",
        "nd"
      ],
      [
        "Ġfr",
        "iend"
      ],
      [
        "u",
        "n"
      ],
      [
        "Ġn",
        "e"
      ],
      [
        "Ġbu",
        "t"
      ],
      [
        "Ġb",
        "o"
      ],
      [
        "Ġl",
        "i"
      ],
      [
        "Ġb",
        "ig"
      ],
      [
        "Ġ",
        "i"
      ],
      [
        "t",
        "er"
      ],
      [
        "Ġon",
        "e"
      ],
      [
        "e",
        "n"
      ],
      [
        "Ġf",
        "or"
      ],
      [
        "Ġhapp",
        "y"
      ],
      [
        "ou",
        "t"
      ],
      [
        "v",
        "ed"
      ],
      [
        "Ġ",
        "k"
      ],
      [
        "on",
        "ce"
      ],
      [
        "Ġ",
        "re"
      ],
      [
        "Ġ",
        "very"
      ],
      [
        "c",
        "h"
      ],
      [
        "e",
        "l"
      ],
      [
        "h",
        "t"
      ],
      [
        "Ġwa",
        "nt"
      ],
      [
        "a",
        "ll"
      ],
      [
        "Ġa",
        "s"
      ],
      [
        "'",
        "s"
      ],
      [
        "Ġsa",
        "w"
      ],
      [
        "om",
        "e"
      ],
      [
        "Ġa",
        "n"
      ],
      [
        "Ġw",
        "h"
      ],
      [
        "il",
        "y"
      ],
      [
        "e",
        "c"
      ],
      [
        "u",
        "m"
      ],
      [
        "â",
        "Ĥ"
      ],
      [
        "âĤ",
        "¬"
      ],
      [
        "m",
        "y"
      ],
      [
        "o",
        "re"
      ],
      [
        "Ġs",
        "p"
      ],
      [
        "a",
        "ke"
      ],
      [
        "am",
        "ed"
      ],
      [
        "Ġup",
        "on"
      ],
      [
        "a",
        "b"
      ],
      [
        "i",
        "ll"
      ],
      [
        "Ġwe",
        "nt"
      ],
      [
        "Ġa",
        "ll"
      ],
      [
        "Ġn",
        "ot"
      ],
      [
        "l",
        "y"
      ],
      [
        "Ġn",
        "amed"
      ],
      [
        "Ġwe",
        "re"
      ],
      [
        "a",
        "in"
      ],
      [
        "Ġs",
        "u"
      ],
      [
        "Ġl",
        "o"
      ],
      [
        "id",
        "e"
      ],
      [
        "l",
        "p"
      ],
      [
        "r",
        "y"
      ],
      [
        ".",
        "\""
      ],
      [
        "a",
        "u"
      ],
      [
        "Ġc",
        "ould"
      ],
      [
        "i",
        "c"
      ],
      [
        "Ġto",
        "o"
      ],
      [
        "Ġhe",
        "lp"
      ],
      [
        "!",
        "\""
      ],
      [
        "Ġfriend",
        "s"
      ],
      [
        "Ġf",
        "l"
      ],
      [
        "Ġl",
        "oo"
      ],
      [
        "ir",
        "l"
      ],
      [
        "Ġg",
        "irl"
      ],
      [
        "Ġwant",
        "ed"
      ],
      [
        "g",
        "et"
      ],
      [
        "Ġ",
        "out"
      ],
      [
        "Ġh",
        "im"
      ],
      [
        "a",
        "ck"
      ],
      [
        "Ġw",
        "he"
      ],
      [
        "il",
        "ed"
      ],
      [
        "e",
        "p"
      ],
      [
        "i",
        "nd"
      ],
      [
        "Ġm",
        "om"
      ],
      [
        "r",
        "ound"
      ],
      [
        "Ġa",
        "t"
      ],
      [
        "ar",
        "d"
      ],
      [
        "am",
        "e"
      ],
      [
        "'",
        "t"
      ],
      [
        "f",
        "u"
      ],
      [
        "h",
        "ing"
      ],
      [
        "on",
        "e"
      ],
      [
        "Ġsm",
        "iled"
      ],
      [
        "Ġwhe",
        "n"
      ],
      [
        "re",
        "e"
      ],
      [
        "r",
        "i"
      ],
      [
        "w",
        "ay"
      ],
      [
        "a",
        "re"
      ],
      [
        "he",
        "d"
      ],
      [
        "Ġto",
        "get"
      ],
      [
        "Ġe",
        "x"
      ],
      [
        "Ġtoget",
        "her"
      ],
      [
        "Ġl",
        "e"
      ],
      [
        "Ġm",
        "u"
      ],
      [
        "a",
        "ce"
      ],
      [
        "Ġthe",
        "n"
      ],
      [
        "ar",
        "k"
      ],
      [
        "a",
        "st"
      ],
      [
        "o",
        "om"
      ],
      [
        "Ġs",
        "e"
      ],
      [
        "Ġl",
        "ily"
      ],
      [
        "Ġg",
        "o"
      ],
      [
        "Ġsa",
        "d"
      ],
      [
        "Ġlo",
        "ved"
      ],
      [
        "fu",
        "l"
      ],
      [
        "Ġs",
        "om"
      ],
      [
        "Ġsom",
        "et"
      ],
      [
        "?",
        "\""
      ],
      [
        "Ġw",
        "ould"
      ],
      [
        "Ġb",
        "r"
      ],
      [
        "Ġfr",
        "om"
      ],
      [
        "Ġa",
        "g"
      ],
      [
        "Ġa",
        "l"
      ],
      [
        "ou",
        "g"
      ],
      [
        "Ġc",
        "an"
      ],
      [
        "Ġp",
        "u"
      ],
      [
        "Ġd",
        "o"
      ],
      [
        "Ġe",
        "very"
      ],
      [
        "Ġbo",
        "y"
      ],
      [
        "el",
        "t"
      ],
      [
        "Ġloo",
        "ked"
      ],
      [
        "Ġf",
        "elt"
      ],
      [
        "ig",
        "ht"
      ],
      [
        "Ġk",
        "n"
      ],
      [
        "Ġsomet",
        "hing"
      ],
      [
        "e",
        "s"
      ],
      [
        "t",
        "h"
      ],
      [
        "t",
        "ed"
      ],
      [
        "Ġt",
        "ree"
      ],
      [
        "Ġa",
        "round"
      ],
      [
        "Ġthe",
        "m"
      ],
      [
        "Ġf",
        "ound"
      ],
      [
        "Ġp",
        "ark"
      ],
      [
        "oo",
        "d"
      ],
      [
        "Ġas",
        "ked"
      ],
      [
        "a",
        "g"
      ],
      [
        "t",
        "her"
      ],
      [
        "Ġw",
        "or"
      ],
      [
        "Ġb",
        "ack"
      ],
      [
        "Ġf",
        "un"
      ],
      [
        "Ġc",
        "l"
      ],
      [
        "Ġp",
        "o"
      ],
      [
        "Ġo",
        "ther"
      ],
      [
        "a",
        "ve"
      ],
      [
        "Ġb",
        "ir"
      ],
      [
        "Ġh",
        "ome"
      ],
      [
        "Ġwa",
        "ter"
      ],
      [
        "Ġd",
        "id"
      ],
      [
        "Ġsm",
        "all"
      ],
      [
        "Ġc",
        "h"
      ],
      [
        "Ġag",
        "ain"
      ],
      [
        "Ġbir",
        "d"
      ],
      [
        "d",
        "y"
      ],
      [
        "p",
        "l"
      ],
      [
        "Ġ",
        "is"
      ],
      [
        "Ġc",
        "at"
      ],
      [
        "Ġr",
        "an"
      ],
      [
        "Ġplay",
        "ing"
      ],
      [
        "ec",
        "i"
      ],
      [
        "s",
        "ide"
      ],
      [
        "on",
        "g"
      ],
      [
        "Ġne",
        "w"
      ],
      [
        "Ġsp",
        "eci"
      ],
      [
        "Ġspeci",
        "al"
      ],
      [
        "s",
        "h"
      ],
      [
        "Ġto",
        "y"
      ],
      [
        "it",
        "ed"
      ],
      [
        "Ġc",
        "o"
      ],
      [
        "Ġst",
        "ar"
      ],
      [
        "au",
        "g"
      ],
      [
        "n",
        "y"
      ],
      [
        "s",
        "s"
      ],
      [
        "Ġthe",
        "ir"
      ],
      [
        "Ġf",
        "e"
      ],
      [
        "ou",
        "se"
      ],
      [
        "Ġg",
        "r"
      ],
      [
        "Ġth",
        "oug"
      ],
      [
        "Ġbo",
        "at"
      ],
      [
        "Ġli",
        "ke"
      ],
      [
        "Ġli",
        "ved"
      ],
      [
        "Ġstar",
        "ted"
      ],
      [
        "q",
        "u"
      ],
      [
        "Ġs",
        "un"
      ],
      [
        "Ġp",
        "r"
      ],
      [
        "Ġg",
        "ood"
      ],
      [
        "Ġn",
        "o"
      ],
      [
        "Ġth",
        "is"
      ],
      [
        "Ġplay",
        "ed"
      ],
      [
        "Ġthoug",
        "ht"
      ],
      [
        "c",
        "y"
      ],
      [
        "Ġa",
        "way"
      ],
      [
        "Ġc",
        "ar"
      ],
      [
        "Ġex",
        "c"
      ],
      [
        "i",
        "ck"
      ],
      [
        "u",
        "r"
      ],
      [
        "Å",
        "ĵ"
      ],
      [
        "Ġg",
        "et"
      ],
      [
        "ow",
        "er"
      ],
      [
        "ab",
        "b"
      ],
      [
        "ab",
        "le"
      ],
      [
        "Ġfl",
        "ower"
      ],
      [
        "Ġexc",
        "ited"
      ],
      [
        "o",
        "p"
      ],
      [
        "Ġa",
        "b"
      ],
      [
        "Ġb",
        "l"
      ],
      [
        "Ġl",
        "ot"
      ],
      [
        "Ġd",
        "ad"
      ],
      [
        "im",
        "al"
      ],
      [
        "is",
        "h"
      ],
      [
        "ll",
        "y"
      ],
      [
        "ow",
        "n"
      ],
      [
        "Ġbe",
        "c"
      ],
      [
        "Ġbe",
        "ar"
      ],
      [
        "Ġan",
        "imal"
      ],
      [
        "Ġtoo",
        "k"
      ],
      [
        "f",
        "ter"
      ],
      [
        "p",
        "t"
      ],
      [
        "u",
        "st"
      ],
      [
        "Ġ",
        "qu"
      ],
      [
        "Ġa",
        "fter"
      ],
      [
        "Ġwa",
        "r"
      ],
      [
        "Ġst",
        "r"
      ],
      [
        "Ġli",
        "ked"
      ],
      [
        "Ġse",
        "e"
      ],
      [
        "d",
        "d"
      ],
      [
        "f",
        "f"
      ],
      [
        "k",
        "ing"
      ],
      [
        "n",
        "ed"
      ],
      [
        "u",
        "g"
      ],
      [
        "Ġwa",
        "l"
      ],
      [
        "ou",
        "r"
      ],
      [
        "Ġc",
        "are"
      ],
      [
        "Ġm",
        "ad"
      ],
      [
        "Ġsa",
        "m"
      ],
      [
        "Ġha",
        "ve"
      ],
      [
        "pp",
        "ed"
      ],
      [
        "itt",
        "y"
      ],
      [
        "Ġne",
        "ver"
      ],
      [
        "Ġk",
        "itty"
      ],
      [
        "Ġwh",
        "o"
      ],
      [
        "Ġwh",
        "at"
      ],
      [
        "um",
        "p"
      ],
      [
        "Ġanimal",
        "s"
      ],
      [
        "Ġmad",
        "e"
      ],
      [
        "a",
        "c"
      ],
      [
        "n",
        "ny"
      ],
      [
        "Ġ",
        "ke"
      ],
      [
        "Ġs",
        "ome"
      ],
      [
        "Ġf",
        "ast"
      ],
      [
        "Ġh",
        "o"
      ],
      [
        "Ġl",
        "u"
      ],
      [
        "Ġp",
        "re"
      ],
      [
        "Ġm",
        "e"
      ],
      [
        "Ġm",
        "ake"
      ],
      [
        "Ġg",
        "ot"
      ],
      [
        "Ġbu",
        "g"
      ],
      [
        "Ġj",
        "o"
      ],
      [
        "Ġkn",
        "e"
      ],
      [
        "Ġfe",
        "el"
      ],
      [
        "k",
        "y"
      ],
      [
        "y",
        "es"
      ],
      [
        "Ġa",
        "m"
      ],
      [
        "Ġs",
        "n"
      ],
      [
        "Ġf",
        "ish"
      ],
      [
        "Ġl",
        "et"
      ],
      [
        "Ġl",
        "aug"
      ],
      [
        "ar",
        "ed"
      ],
      [
        "Ġo",
        "ld"
      ],
      [
        "Ġth",
        "ing"
      ],
      [
        "Ġr",
        "abb"
      ],
      [
        "way",
        "s"
      ],
      [
        "Ġal",
        "ways"
      ],
      [
        "Ġab",
        "out"
      ],
      [
        "Ġrabb",
        "it"
      ],
      [
        "â",
        "Ħ"
      ],
      [
        "Ġt",
        "w"
      ],
      [
        "Ġt",
        "ake"
      ],
      [
        "Ġs",
        "c"
      ],
      [
        "nd",
        "er"
      ],
      [
        "Ġto",
        "m"
      ],
      [
        "Ġf",
        "in"
      ],
      [
        "ou",
        "d"
      ],
      [
        "Ġp",
        "ic"
      ],
      [
        "Ġd",
        "ec"
      ],
      [
        "Ġg",
        "um"
      ],
      [
        "Ġn",
        "ow"
      ],
      [
        "id",
        "ed"
      ],
      [
        "Ġin",
        "t"
      ],
      [
        "Ġr",
        "un"
      ],
      [
        "ad",
        "y"
      ],
      [
        "Ġsh",
        "ow"
      ],
      [
        "âĤ¬",
        "âĦ"
      ],
      [
        "Ġcould",
        "n"
      ],
      [
        "Ġle",
        "ar"
      ],
      [
        "Ġpu",
        "t"
      ],
      [
        "Ġlu",
        "cy"
      ],
      [
        "Ġdec",
        "ided"
      ],
      [
        "âĤ¬âĦ",
        "¢"
      ],
      [
        "Ġb",
        "ot"
      ],
      [
        "Ġh",
        "ouse"
      ],
      [
        "re",
        "am"
      ],
      [
        "ou",
        "s"
      ],
      [
        "Ġc",
        "r"
      ],
      [
        "Ġg",
        "re"
      ],
      [
        "Ġbe",
        "st"
      ],
      [
        "Ġyou",
        "r"
      ],
      [
        "Ġbo",
        "x"
      ],
      [
        "Ġout",
        "side"
      ],
      [
        "Ġex",
        "pl"
      ],
      [
        "r",
        "oom"
      ],
      [
        "w",
        "e"
      ],
      [
        "Ġh",
        "ow"
      ],
      [
        "Ġc",
        "ame"
      ],
      [
        "Ġm",
        "i"
      ],
      [
        "Ġm",
        "an"
      ],
      [
        "Ġo",
        "w"
      ],
      [
        "Ġth",
        "an"
      ],
      [
        "Ġe",
        "nd"
      ],
      [
        "Ġe",
        "ver"
      ],
      [
        "an",
        "g"
      ],
      [
        "Ġof",
        "f"
      ],
      [
        "Ġj",
        "ust"
      ],
      [
        "au",
        "se"
      ],
      [
        "Ġmom",
        "my"
      ],
      [
        "Ġmu",
        "ch"
      ],
      [
        "Ġcl",
        "o"
      ],
      [
        "Ġbec",
        "ause"
      ],
      [
        "Ġkne",
        "w"
      ],
      [
        "Ġint",
        "o"
      ],
      [
        "a",
        "w"
      ],
      [
        "a",
        "z"
      ],
      [
        "i",
        "z"
      ],
      [
        "i",
        "ce"
      ],
      [
        "l",
        "ie"
      ],
      [
        "o",
        "st"
      ],
      [
        "Ġt",
        "ri"
      ],
      [
        "Ġa",
        "re"
      ],
      [
        "Ġa",
        "my"
      ],
      [
        "it",
        "e"
      ],
      [
        "Ġm",
        "ore"
      ],
      [
        "Ġsh",
        "are"
      ],
      [
        "Ġne",
        "ed"
      ],
      [
        "ill",
        "y"
      ],
      [
        "Ġnot",
        "ic"
      ],
      [
        "Ġlear",
        "ned"
      ],
      [
        "Ġnotic",
        "ed"
      ],
      [
        "a",
        "x"
      ],
      [
        "a",
        "nt"
      ],
      [
        "a",
        "il"
      ],
      [
        "b",
        "er"
      ],
      [
        "e",
        "nd"
      ],
      [
        "u",
        "re"
      ],
      [
        "Ġ",
        "z"
      ],
      [
        "Ġ",
        "ve"
      ],
      [
        "Ġto",
        "ld"
      ],
      [
        "Ġf",
        "u"
      ],
      [
        "Ġf",
        "ore"
      ],
      [
        "Ġf",
        "ind"
      ],
      [
        "Ġl",
        "ong"
      ],
      [
        "Ġc",
        "all"
      ],
      [
        "Ġd",
        "own"
      ],
      [
        "Ġm",
        "y"
      ],
      [
        "nt",
        "il"
      ],
      [
        "Ġe",
        "m"
      ],
      [
        "Ġu",
        "ntil"
      ],
      [
        "Ġsu",
        "dd"
      ],
      [
        "Ġfl",
        "u"
      ],
      [
        "Ġke",
        "pt"
      ],
      [
        "Ġlaug",
        "hed"
      ],
      [
        "Ġthing",
        "s"
      ],
      [
        "Ġpic",
        "ked"
      ],
      [
        "Ġbot",
        "h"
      ],
      [
        "Ġsudd",
        "en"
      ],
      [
        "a",
        "v"
      ],
      [
        "b",
        "le"
      ],
      [
        "l",
        "f"
      ],
      [
        "n",
        "ing"
      ],
      [
        "Ġ",
        "v"
      ],
      [
        "Ġh",
        "ug"
      ],
      [
        "Ġc",
        "her"
      ],
      [
        "Ġg",
        "round"
      ],
      [
        "Ġg",
        "ame"
      ],
      [
        "ar",
        "y"
      ],
      [
        "is",
        "e"
      ],
      [
        "is",
        "t"
      ],
      [
        "Ġe",
        "lly"
      ],
      [
        "Ġj",
        "im"
      ],
      [
        "Ġsu",
        "e"
      ],
      [
        "Ġloo",
        "k"
      ],
      [
        "Ġlot",
        "s"
      ],
      [
        "Ġsn",
        "ow"
      ],
      [
        "Ġtw",
        "o"
      ],
      [
        "Ġthan",
        "ked"
      ],
      [
        "Ġfore",
        "st"
      ],
      [
        "Ġsudden",
        "ly"
      ],
      [
        "a",
        "ch"
      ],
      [
        "i",
        "le"
      ],
      [
        "i",
        "ve"
      ],
      [
        "s",
        "ed"
      ],
      [
        "Ġt",
        "ry"
      ],
      [
        "Ġb",
        "y"
      ],
      [
        "Ġb",
        "et"
      ],
      [
        "Ġwa",
        "y"
      ],
      [
        "Ġg",
        "ave"
      ],
      [
        "ot",
        "her"
      ],
      [
        "Ġbu",
        "nny"
      ],
      [
        "Ġj",
        "ill"
      ],
      [
        "Ġj",
        "ump"
      ],
      [
        "Ġi",
        "f"
      ],
      [
        "ec",
        "t"
      ],
      [
        "Ġle",
        "ave"
      ],
      [
        "Ġdo",
        "g"
      ],
      [
        "Ġkn",
        "ow"
      ],
      [
        "Ġwor",
        "d"
      ],
      [
        "Ġbl",
        "oom"
      ],
      [
        "Ġdad",
        "dy"
      ],
      [
        "Ġpre",
        "t"
      ],
      [
        "Ġjo",
        "e"
      ],
      [
        "Ġmi",
        "a"
      ],
      [
        "Ġcall",
        "ed"
      ],
      [
        ",",
        "\""
      ],
      [
        "a",
        "k"
      ],
      [
        "a",
        "se"
      ],
      [
        "o",
        "ve"
      ],
      [
        "r",
        "p"
      ],
      [
        "u",
        "ck"
      ],
      [
        "v",
        "ing"
      ],
      [
        "w",
        "h"
      ],
      [
        "Ġ",
        "1"
      ],
      [
        "Ġ",
        "3"
      ],
      [
        "Ġ",
        "8"
      ],
      [
        "Ġt",
        "r"
      ],
      [
        "Ġa",
        "d"
      ],
      [
        "Ġs",
        "l"
      ],
      [
        "Ġw",
        "ill"
      ],
      [
        "Ġwa",
        "it"
      ],
      [
        "Ġl",
        "ake"
      ],
      [
        "Ġp",
        "ain"
      ],
      [
        "Ġd",
        "e"
      ],
      [
        "Ġd",
        "on"
      ],
      [
        "at",
        "e"
      ],
      [
        "Ġbe",
        "ep"
      ],
      [
        "Ġr",
        "ace"
      ],
      [
        "Ġr",
        "oom"
      ],
      [
        "Ġso",
        "on"
      ],
      [
        "al",
        "k"
      ],
      [
        "se",
        "lf"
      ],
      [
        "Ġhapp",
        "ily"
      ],
      [
        "Ġsh",
        "op"
      ],
      [
        "Ġan",
        "y"
      ],
      [
        "Ġsp",
        "e"
      ],
      [
        "Ġcat",
        "ch"
      ],
      [
        "Ġpr",
        "oud"
      ],
      [
        "ff",
        "y"
      ],
      [
        "Ġsc",
        "ared"
      ],
      [
        "Ġcr",
        "ab"
      ],
      [
        "c",
        "hed"
      ],
      [
        "i",
        "ed"
      ],
      [
        "Ġ",
        "2"
      ],
      [
        "Ġ",
        "4"
      ],
      [
        "Ġ",
        "5"
      ],
      [
        "Ġ",
        "6"
      ],
      [
        "Ġ",
        "7"
      ],
      [
        "Ġ",
        "9"
      ],
      [
        "Ġw",
        "o"
      ],
      [
        "Ġb",
        "in"
      ],
      [
        "Ġto",
        "w"
      ],
      [
        "Ġf",
        "o"
      ],
      [
        "Ġwa",
        "t"
      ],
      [
        "Ġl",
        "ady"
      ],
      [
        "Ġhe",
        "ard"
      ],
      [
        "Ġc",
        "u"
      ],
      [
        "Ġm",
        "ag"
      ],
      [
        "le",
        "t"
      ],
      [
        "Ġo",
        "ver"
      ],
      [
        "Ġe",
        "ve"
      ],
      [
        "Ġe",
        "ach"
      ],
      [
        "Ġin",
        "side"
      ],
      [
        "Ġbe",
        "ing"
      ],
      [
        "an",
        "k"
      ],
      [
        "ir",
        "st"
      ],
      [
        "Ġj",
        "ack"
      ],
      [
        "Ġi",
        "ce"
      ],
      [
        "Ġre",
        "al"
      ],
      [
        "Ġre",
        "pl"
      ],
      [
        "ri",
        "or"
      ],
      [
        "Ġother",
        "s"
      ],
      [
        "Ġqu",
        "ick"
      ],
      [
        "Ġwar",
        "rior"
      ],
      [
        "Ġwal",
        "king"
      ],
      [
        "Ġow",
        "l"
      ],
      [
        "Ġclo",
        "s"
      ],
      [
        "Ġtri",
        "ed"
      ],
      [
        "Ġflu",
        "ffy"
      ],
      [
        "Ġcher",
        "ry"
      ],
      [
        "Ġbet",
        "ter"
      ],
      [
        "Ġbin",
        "ky"
      ],
      [
        "Ġrepl",
        "ied"
      ],
      [
        "a",
        "s"
      ],
      [
        "c",
        "ream"
      ],
      [
        "i",
        "p"
      ],
      [
        "m",
        "e"
      ],
      [
        "m",
        "er"
      ],
      [
        "t",
        "on"
      ],
      [
        "Ġ",
        "ide"
      ],
      [
        "Ġt",
        "e"
      ],
      [
        "Ġa",
        "r"
      ],
      [
        "Ġb",
        "ed"
      ],
      [
        "Ġb",
        "ad"
      ],
      [
        "in",
        "y"
      ],
      [
        "Ġf",
        "ar"
      ],
      [
        "Ġp",
        "ie"
      ],
      [
        "Ġd",
        "re"
      ],
      [
        "Ġm",
        "et"
      ],
      [
        "Ġm",
        "ouse"
      ],
      [
        "Ġm",
        "ary"
      ],
      [
        "Ġg",
        "ard"
      ],
      [
        "ll",
        "a"
      ],
      [
        "ll",
        "ed"
      ],
      [
        "Ġha",
        "nd"
      ],
      [
        "Ġe",
        "lla"
      ],
      [
        "Ġtim",
        "my"
      ],
      [
        "Ġr",
        "o"
      ],
      [
        "Ġr",
        "ight"
      ],
      [
        "Ġy",
        "um"
      ],
      [
        "ke",
        "ep"
      ],
      [
        "Ġst",
        "or"
      ],
      [
        "Ġst",
        "ill"
      ],
      [
        "oo",
        "k"
      ],
      [
        "al",
        "th"
      ],
      [
        "Ġsh",
        "ould"
      ],
      [
        "Ġbut",
        "ton"
      ],
      [
        "en",
        "ed"
      ],
      [
        "Ġsu",
        "s"
      ],
      [
        "Ġsu",
        "rp"
      ],
      [
        "Ġevery",
        "one"
      ],
      [
        "th",
        "at"
      ],
      [
        "Ġstr",
        "ang"
      ],
      [
        "Ġam",
        "az"
      ],
      [
        "Ġfu",
        "ll"
      ],
      [
        "Ġshop",
        "keep"
      ],
      [
        "Ġwo",
        "nder"
      ],
      [
        "Ġclos",
        "er"
      ],
      [
        "Ġide",
        "a"
      ],
      [
        "Ġpie",
        "ce"
      ],
      [
        "Ġgard",
        "en"
      ],
      [
        "Ġsurp",
        "r"
      ],
      [
        "Ġshopkeep",
        "er"
      ],
      [
        "a",
        "h"
      ],
      [
        "e",
        "re"
      ],
      [
        "e",
        "en"
      ],
      [
        "f",
        "e"
      ],
      [
        "f",
        "t"
      ],
      [
        "i",
        "ff"
      ],
      [
        "k",
        "in"
      ],
      [
        "t",
        "y"
      ],
      [
        "u",
        "sh"
      ],
      [
        "Ġt",
        "ast"
      ],
      [
        "he",
        "s"
      ],
      [
        "he",
        "re"
      ],
      [
        "Ġs",
        "ar"
      ],
      [
        "Ġs",
        "ky"
      ],
      [
        "Ġb",
        "all"
      ],
      [
        "Ġf",
        "le"
      ],
      [
        "Ġf",
        "am"
      ],
      [
        "Ġf",
        "irst"
      ],
      [
        "Ġp",
        "e"
      ],
      [
        "Ġp",
        "er"
      ],
      [
        "Ġp",
        "ick"
      ],
      [
        "Ġp",
        "ump"
      ],
      [
        "Ġd",
        "iff"
      ],
      [
        "ar",
        "lie"
      ],
      [
        "Ġit",
        "s"
      ],
      [
        "Ġha",
        "ir"
      ],
      [
        "Ġe",
        "n"
      ],
      [
        "an",
        "e"
      ],
      [
        "ie",
        "s"
      ],
      [
        "ig",
        "h"
      ],
      [
        "Ġu",
        "nder"
      ],
      [
        "pp",
        "ing"
      ],
      [
        "oo",
        "l"
      ],
      [
        "Ġj",
        "ane"
      ],
      [
        "Ġk",
        "ind"
      ],
      [
        "Ġwh",
        "y"
      ],
      [
        "Ġmu",
        "sh"
      ],
      [
        "Ġbr",
        "ush"
      ],
      [
        "oug",
        "h"
      ],
      [
        "th",
        "ank"
      ],
      [
        "Ġpo",
        "le"
      ],
      [
        "Ġch",
        "arlie"
      ],
      [
        "Ġtoy",
        "s"
      ],
      [
        "aug",
        "ht"
      ],
      [
        "Ġgr",
        "ace"
      ],
      [
        "Ġqu",
        "een"
      ],
      [
        "Ġwal",
        "ked"
      ],
      [
        "Ġcare",
        "ful"
      ],
      [
        "Ġho",
        "le"
      ],
      [
        "Ġgre",
        "en"
      ],
      [
        "Ġleave",
        "s"
      ],
      [
        "Ġpain",
        "ter"
      ],
      [
        "Ġreal",
        "iz"
      ],
      [
        "Ġyum",
        "my"
      ],
      [
        "Ġsus",
        "ie"
      ],
      [
        "Ġsar",
        "ah"
      ],
      [
        "Ġfam",
        "ily"
      ],
      [
        "Ġpump",
        "kin"
      ],
      [
        "Ġmush",
        "room"
      ],
      [
        "a",
        "nd"
      ],
      [
        "a",
        "ss"
      ],
      [
        "f",
        "ore"
      ],
      [
        "h",
        "i"
      ],
      [
        "h",
        "ost"
      ],
      [
        "i",
        "ous"
      ],
      [
        "l",
        "ed"
      ],
      [
        "m",
        "om"
      ],
      [
        "o",
        "g"
      ],
      [
        "o",
        "ke"
      ],
      [
        "p",
        "e"
      ],
      [
        "s",
        "y"
      ],
      [
        "s",
        "ic"
      ],
      [
        "u",
        "e"
      ],
      [
        "y",
        "e"
      ],
      [
        "z",
        "ag"
      ],
      [
        "Ġt",
        "ed"
      ],
      [
        "Ġt",
        "ail"
      ],
      [
        "Ġs",
        "ound"
      ],
      [
        "Ġw",
        "in"
      ],
      [
        "Ġw",
        "is"
      ],
      [
        "Ġw",
        "ind"
      ],
      [
        "Ġf",
        "ly"
      ],
      [
        "Ġh",
        "oo"
      ],
      [
        "Ġh",
        "ard"
      ],
      [
        "Ġc",
        "le"
      ],
      [
        "Ġd",
        "is"
      ],
      [
        "Ġd",
        "ep"
      ],
      [
        "Ġd",
        "ream"
      ],
      [
        "Ġm",
        "ax"
      ],
      [
        "Ġm",
        "other"
      ],
      [
        "Ġg",
        "host"
      ],
      [
        "ar",
        "s"
      ],
      [
        "ll",
        "ow"
      ],
      [
        "Ġha",
        "ving"
      ],
      [
        "or",
        "t"
      ],
      [
        "ow",
        "d"
      ],
      [
        "Ġbe",
        "au"
      ],
      [
        "Ġbe",
        "nny"
      ],
      [
        "Ġbe",
        "fore"
      ],
      [
        "Ġwe",
        "ar"
      ],
      [
        "Ġr",
        "ac"
      ],
      [
        "ig",
        "zag"
      ],
      [
        "Ġpl",
        "ace"
      ],
      [
        "Ġst",
        "e"
      ],
      [
        "Ġst",
        "u"
      ],
      [
        "Ġst",
        "ore"
      ],
      [
        "ck",
        "et"
      ],
      [
        "Ġne",
        "ar"
      ],
      [
        "Ġhim",
        "self"
      ],
      [
        "Ġmu",
        "sic"
      ],
      [
        "Ġpu",
        "lled"
      ],
      [
        "Ġpo",
        "nd"
      ],
      [
        "Ġdid",
        "n"
      ],
      [
        "Ġch",
        "alk"
      ],
      [
        "Ġflower",
        "s"
      ],
      [
        "Ġwar",
        "m"
      ],
      [
        "Ġfast",
        "er"
      ],
      [
        "Ġrun",
        "ning"
      ],
      [
        "end",
        "able"
      ],
      [
        "Ġz",
        "igzag"
      ],
      [
        "Ġve",
        "st"
      ],
      [
        "Ġjim",
        "my"
      ],
      [
        "Ġsl",
        "ow"
      ],
      [
        "Ġde",
        "ep"
      ],
      [
        "Ġtow",
        "n"
      ],
      [
        "Ġeve",
        "n"
      ],
      [
        "Ġquick",
        "ly"
      ],
      [
        "alth",
        "y"
      ],
      [
        "Ġstrang",
        "e"
      ],
      [
        "Ġamaz",
        "ing"
      ],
      [
        "Ġwonder",
        "ful"
      ],
      [
        "Ġted",
        "dy"
      ],
      [
        "Ġhoo",
        "p"
      ],
      [
        "Ġdep",
        "endable"
      ],
      [
        "'",
        "m"
      ],
      [
        "b",
        "ye"
      ],
      [
        "c",
        "t"
      ],
      [
        "c",
        "an"
      ],
      [
        "d",
        "on"
      ],
      [
        "f",
        "ect"
      ],
      [
        "g",
        "ed"
      ],
      [
        "i",
        "ful"
      ],
      [
        "l",
        "a"
      ],
      [
        "m",
        "ber"
      ],
      [
        "n",
        "o"
      ],
      [
        "o",
        "on"
      ],
      [
        "t",
        "ing"
      ],
      [
        "t",
        "iful"
      ],
      [
        "u",
        "s"
      ],
      [
        "Ġ",
        "im"
      ],
      [
        "Ġt",
        "ur"
      ],
      [
        "Ġs",
        "or"
      ],
      [
        "Ġw",
        "r"
      ],
      [
        "Ġw",
        "et"
      ],
      [
        "Ġto",
        "u"
      ],
      [
        "Ġf",
        "av"
      ],
      [
        "ou",
        "nt"
      ],
      [
        "Ġhe",
        "re"
      ],
      [
        "Ġc",
        "on"
      ],
      [
        "Ġc",
        "om"
      ],
      [
        "Ġc",
        "ome"
      ],
      [
        "Ġp",
        "owd"
      ],
      [
        "Ġd",
        "r"
      ],
      [
        "Ġd",
        "el"
      ],
      [
        "Ġm",
        "ome"
      ],
      [
        "Ġm",
        "ost"
      ],
      [
        "ay",
        "ak"
      ],
      [
        "ar",
        "ing"
      ],
      [
        "is",
        "ed"
      ],
      [
        "Ġn",
        "or"
      ],
      [
        "Ġn",
        "ice"
      ],
      [
        "Ġsa",
        "fe"
      ],
      [
        "Ġth",
        "in"
      ],
      [
        "nt",
        "s"
      ],
      [
        "Ġe",
        "yes"
      ],
      [
        "st",
        "er"
      ],
      [
        "Ġr",
        "ed"
      ],
      [
        "Ġr",
        "ake"
      ],
      [
        "ir",
        "t"
      ],
      [
        "Ġk",
        "ayak"
      ],
      [
        "Ġre",
        "l"
      ],
      [
        "Ġre",
        "ac"
      ],
      [
        "all",
        "y"
      ],
      [
        "Ġwh",
        "ile"
      ],
      [
        "Ġsp",
        "ot"
      ],
      [
        "Ġlo",
        "st"
      ],
      [
        "Ġfl",
        "o"
      ],
      [
        "Ġbr",
        "own"
      ],
      [
        "ag",
        "e"
      ],
      [
        "Ġco",
        "in"
      ],
      [
        "Ġco",
        "ld"
      ],
      [
        "Ġgood",
        "bye"
      ],
      [
        "Ġbec",
        "ame"
      ],
      [
        "Ġexpl",
        "ore"
      ],
      [
        "Ġman",
        "y"
      ],
      [
        "Ġjump",
        "ed"
      ],
      [
        "Ġpret",
        "ty"
      ],
      [
        "wh",
        "at"
      ],
      [
        "Ġspe",
        "ed"
      ],
      [
        "Ġmag",
        "ic"
      ],
      [
        "me",
        "mber"
      ],
      [
        "Ġbed",
        "room"
      ],
      [
        "Ġmet",
        "al"
      ],
      [
        "Ġstor",
        "y"
      ],
      [
        "Ġsurpr",
        "ise"
      ],
      [
        "Ġfle",
        "w"
      ],
      [
        "Ġper",
        "fect"
      ],
      [
        "Ġdiff",
        "ere"
      ],
      [
        "Ġbeau",
        "tiful"
      ],
      [
        "Ġstu",
        "dy"
      ],
      [
        "Ġsor",
        "ry"
      ],
      [
        "Ġpowd",
        "er"
      ],
      [
        "Ġmome",
        "nt"
      ],
      [
        "Ġreac",
        "hed"
      ],
      [
        "a",
        "le"
      ],
      [
        "a",
        "pped"
      ],
      [
        "b",
        "e"
      ],
      [
        "c",
        "il"
      ],
      [
        "d",
        "e"
      ],
      [
        "d",
        "ay"
      ],
      [
        "j",
        "o"
      ],
      [
        "n",
        "ie"
      ],
      [
        "r",
        "ough"
      ],
      [
        "s",
        "p"
      ],
      [
        "w",
        "here"
      ],
      [
        "x",
        "t"
      ],
      [
        "Ġt",
        "illy"
      ],
      [
        "he",
        "l"
      ],
      [
        "Ġs",
        "ou"
      ],
      [
        "Ġs",
        "we"
      ],
      [
        "Ġb",
        "ar"
      ],
      [
        "Ġb",
        "ill"
      ],
      [
        "Ġb",
        "ook"
      ],
      [
        "Ġf",
        "i"
      ],
      [
        "Ġf",
        "ace"
      ],
      [
        "re",
        "ed"
      ],
      [
        "Ġl",
        "oud"
      ],
      [
        "Ġl",
        "ist"
      ],
      [
        "Ġc",
        "he"
      ],
      [
        "Ġc",
        "ind"
      ],
      [
        "Ġc",
        "ard"
      ],
      [
        "Ġp",
        "le"
      ],
      [
        "Ġp",
        "en"
      ],
      [
        "Ġp",
        "are"
      ],
      [
        "Ġp",
        "ast"
      ],
      [
        "Ġp",
        "our"
      ],
      [
        "Ġd",
        "one"
      ],
      [
        "Ġm",
        "or"
      ],
      [
        "Ġm",
        "um"
      ],
      [
        "Ġg",
        "ive"
      ],
      [
        "is",
        "it"
      ],
      [
        "Ġn",
        "ight"
      ],
      [
        "id",
        "d"
      ],
      [
        "Ġo",
        "r"
      ],
      [
        "Ġth",
        "rough"
      ],
      [
        "Ġe",
        "at"
      ],
      [
        "or",
        "ing"
      ],
      [
        "Ġbe",
        "en"
      ],
      [
        "Ġr",
        "az"
      ],
      [
        "ie",
        "nt"
      ],
      [
        "Ġu",
        "n"
      ],
      [
        "Ġu",
        "se"
      ],
      [
        "Ġbu",
        "sh"
      ],
      [
        "Ġy",
        "ard"
      ],
      [
        "Ġst",
        "ove"
      ],
      [
        "se",
        "nt"
      ],
      [
        "Ġsh",
        "iny"
      ],
      [
        "Ġsh",
        "irt"
      ],
      [
        "Ġne",
        "xt"
      ],
      [
        "Ġre",
        "ady"
      ],
      [
        "Ġre",
        "member"
      ],
      [
        "Ġan",
        "nie"
      ],
      [
        "Ġlo",
        "ve"
      ],
      [
        "Ġfl",
        "ame"
      ],
      [
        "get",
        "able"
      ],
      [
        "fu",
        "lly"
      ],
      [
        "Ġse",
        "en"
      ],
      [
        "Ġgo",
        "ing"
      ],
      [
        "Ġbr",
        "ave"
      ],
      [
        "Ġpu",
        "s"
      ],
      [
        "es",
        "s"
      ],
      [
        "Ġcl",
        "um"
      ],
      [
        "Ġpo",
        "cket"
      ],
      [
        "Ġsmall",
        "er"
      ],
      [
        "Ġbird",
        "s"
      ],
      [
        "Ġco",
        "l"
      ],
      [
        "Ġsun",
        "ny"
      ],
      [
        "Ġpr",
        "om"
      ],
      [
        "Ġno",
        "se"
      ],
      [
        "our",
        "s"
      ],
      [
        "Ġcare",
        "fully"
      ],
      [
        "Ġke",
        "ep"
      ],
      [
        "Ġho",
        "pping"
      ],
      [
        "Ġpre",
        "sent"
      ],
      [
        "Ġfeel",
        "ing"
      ],
      [
        "Ġshow",
        "ed"
      ],
      [
        "Ġexpl",
        "oring"
      ],
      [
        "Ġow",
        "n"
      ],
      [
        "Ġneed",
        "le"
      ],
      [
        "Ġve",
        "getable"
      ],
      [
        "Ġem",
        "ily"
      ],
      [
        "Ġv",
        "isit"
      ],
      [
        "Ġfo",
        "llow"
      ],
      [
        "Ġwat",
        "ched"
      ],
      [
        "Ġcu",
        "t"
      ],
      [
        "Ġdre",
        "ss"
      ],
      [
        "Ġrealiz",
        "ed"
      ],
      [
        "mom",
        "my"
      ],
      [
        "Ġrac",
        "hel"
      ],
      [
        "Ġwr",
        "ong"
      ],
      [
        "Ġcom",
        "ing"
      ],
      [
        "Ġnor",
        "a"
      ],
      [
        "Ġrel",
        "ax"
      ],
      [
        "Ġflo",
        "at"
      ],
      [
        "Ġdiffere",
        "nt"
      ],
      [
        "Ġsou",
        "p"
      ],
      [
        "Ġswe",
        "et"
      ],
      [
        "Ġcind",
        "y"
      ],
      [
        "Ġpen",
        "cil"
      ],
      [
        "Ġpare",
        "nts"
      ],
      [
        "Ġpast",
        "ry"
      ],
      [
        "Ġraz",
        "or"
      ],
      [
        "Ġvegetable",
        "s"
      ],
      [
        "'",
        "ll"
      ],
      [
        "b",
        "ed"
      ],
      [
        "c",
        "r"
      ],
      [
        "d",
        "o"
      ],
      [
        "i",
        "ver"
      ],
      [
        "o",
        "ss"
      ],
      [
        "o",
        "ice"
      ],
      [
        "p",
        "er"
      ],
      [
        "p",
        "ort"
      ],
      [
        "r",
        "ow"
      ],
      [
        "r",
        "ies"
      ],
      [
        "s",
        "o"
      ],
      [
        "t",
        "in"
      ],
      [
        "u",
        "ed"
      ],
      [
        "w",
        "ed"
      ],
      [
        "y",
        "ou"
      ],
      [
        "y",
        "er"
      ],
      [
        "z",
        "e"
      ],
      [
        "Ġ",
        "-"
      ],
      [
        "Ġa",
        "cr"
      ],
      [
        "Ġs",
        "w"
      ],
      [
        "Ġs",
        "ch"
      ],
      [
        "Ġs",
        "ec"
      ],
      [
        "Ġs",
        "illy"
      ],
      [
        "Ġto",
        "day"
      ],
      [
        "Ġf",
        "an"
      ],
      [
        "Ġf",
        "all"
      ],
      [
        "Ġf",
        "ill"
      ],
      [
        "Ġf",
        "ree"
      ],
      [
        "Ġf",
        "ood"
      ],
      [
        "Ġh",
        "at"
      ],
      [
        "Ġh",
        "ide"
      ],
      [
        "Ġh",
        "ur"
      ],
      [
        "re",
        "t"
      ],
      [
        "re",
        "at"
      ],
      [
        "Ġl",
        "aw"
      ],
      [
        "er",
        "t"
      ],
      [
        "Ġc",
        "ast"
      ],
      [
        "Ġc",
        "ase"
      ],
      [
        "Ġp",
        "at"
      ],
      [
        "Ġd",
        "ry"
      ],
      [
        "Ġm",
        "o"
      ],
      [
        "Ġm",
        "at"
      ],
      [
        "Ġm",
        "one"
      ],
      [
        "Ġg",
        "l"
      ],
      [
        "Ġg",
        "one"
      ],
      [
        "is",
        "hed"
      ],
      [
        "Ġn",
        "aught"
      ],
      [
        "at",
        "her"
      ],
      [
        "Ġo",
        "ct"
      ],
      [
        "or",
        "ite"
      ],
      [
        "Ġbe",
        "g"
      ],
      [
        "Ġbe",
        "h"
      ],
      [
        "Ġwe",
        "ight"
      ],
      [
        "Ġr",
        "ide"
      ],
      [
        "Ġso",
        "ft"
      ],
      [
        "Ġfr",
        "ame"
      ],
      [
        "Ġfr",
        "og"
      ],
      [
        "Ġy",
        "e"
      ],
      [
        "Ġst",
        "o"
      ],
      [
        "Ġsh",
        "out"
      ],
      [
        "Ġsh",
        "ared"
      ],
      [
        "Ġsm",
        "e"
      ],
      [
        "Ġne",
        "igh"
      ],
      [
        "Ġbo",
        "b"
      ],
      [
        "Ġli",
        "ve"
      ],
      [
        "ch",
        "ing"
      ],
      [
        "Ġwh",
        "ale"
      ],
      [
        "Ġsp",
        "r"
      ],
      [
        "Ġsu",
        "re"
      ],
      [
        "Ġlo",
        "la"
      ],
      [
        "Ġhelp",
        "ed"
      ],
      [
        "ri",
        "ed"
      ],
      [
        "ri",
        "ved"
      ],
      [
        "ri",
        "ous"
      ],
      [
        "Ġmu",
        "st"
      ],
      [
        "Ġse",
        "ar"
      ],
      [
        "Ġbr",
        "oke"
      ],
      [
        "Ġal",
        "so"
      ],
      [
        "Ġwor",
        "ry"
      ],
      [
        "Ġfe",
        "ll"
      ],
      [
        "Ġgr",
        "abb"
      ],
      [
        "Ġpr",
        "in"
      ],
      [
        "op",
        "us"
      ],
      [
        "pt",
        "y"
      ],
      [
        "Ġho",
        "pped"
      ],
      [
        "Ġfin",
        "ished"
      ],
      [
        "Ġgre",
        "w"
      ],
      [
        "Ġexpl",
        "ain"
      ],
      [
        "Ġneed",
        "ed"
      ],
      [
        "ure",
        "s"
      ],
      [
        "Ġfu",
        "el"
      ],
      [
        "Ġem",
        "pty"
      ],
      [
        "Ġword",
        "s"
      ],
      [
        "Ġpret",
        "end"
      ],
      [
        "Ġcu",
        "rious"
      ],
      [
        "Ġar",
        "rived"
      ],
      [
        "Ġfar",
        "mer"
      ],
      [
        "Ġpiece",
        "s"
      ],
      [
        "Ġtast",
        "e"
      ],
      [
        "Ġwis",
        "hes"
      ],
      [
        "Ġste",
        "pped"
      ],
      [
        "Ġim",
        "port"
      ],
      [
        "Ġtou",
        "ch"
      ],
      [
        "Ġfav",
        "orite"
      ],
      [
        "Ġcon",
        "tin"
      ],
      [
        "Ġdr",
        "ove"
      ],
      [
        "sp",
        "ect"
      ],
      [
        "Ġfi",
        "x"
      ],
      [
        "Ġple",
        "ase"
      ],
      [
        "Ġclum",
        "sy"
      ],
      [
        "Ġprom",
        "ised"
      ],
      [
        "Ġacr",
        "oss"
      ],
      [
        "Ġsch",
        "ool"
      ],
      [
        "Ġlaw",
        "yer"
      ],
      [
        "Ġcast",
        "le"
      ],
      [
        "Ġmone",
        "y"
      ],
      [
        "Ġnaught",
        "y"
      ],
      [
        "Ġoct",
        "opus"
      ],
      [
        "Ġshout",
        "ed"
      ],
      [
        "Ġneigh",
        "b"
      ],
      [
        "Ġgrabb",
        "ed"
      ],
      [
        "Ġimport",
        "ant"
      ],
      [
        "Ġcontin",
        "ued"
      ],
      [
        "a",
        "king"
      ],
      [
        "a",
        "pe"
      ],
      [
        "b",
        "ur"
      ],
      [
        "b",
        "we"
      ],
      [
        "b",
        "ble"
      ],
      [
        "c",
        "u"
      ],
      [
        "e",
        "er"
      ],
      [
        "g",
        "ly"
      ],
      [
        "h",
        "n"
      ],
      [
        "l",
        "c"
      ],
      [
        "l",
        "ace"
      ],
      [
        "m",
        "ed"
      ],
      [
        "m",
        "ore"
      ],
      [
        "m",
        "mer"
      ],
      [
        "n",
        "g"
      ],
      [
        "n",
        "et"
      ],
      [
        "p",
        "ened"
      ],
      [
        "t",
        "e"
      ],
      [
        "t",
        "hing"
      ],
      [
        "z",
        "z"
      ],
      [
        "Ġ",
        "'"
      ],
      [
        "Ġt",
        "ie"
      ],
      [
        "Ġt",
        "iny"
      ],
      [
        "he",
        "ll"
      ],
      [
        "Ġs",
        "is"
      ],
      [
        "Ġw",
        "il"
      ],
      [
        "Ġb",
        "illy"
      ],
      [
        "Ġh",
        "ours"
      ],
      [
        "Ġwa",
        "ited"
      ],
      [
        "Ġl",
        "at"
      ],
      [
        "Ġhe",
        "ar"
      ],
      [
        "Ġhe",
        "av"
      ],
      [
        "Ġhe",
        "althy"
      ],
      [
        "er",
        "s"
      ],
      [
        "on",
        "ster"
      ],
      [
        "Ġc",
        "ool"
      ],
      [
        "Ġc",
        "aught"
      ],
      [
        "Ġc",
        "ount"
      ],
      [
        "Ġd",
        "ark"
      ],
      [
        "Ġm",
        "il"
      ],
      [
        "Ġm",
        "ind"
      ],
      [
        "Ġm",
        "idd"
      ],
      [
        "Ġm",
        "onster"
      ],
      [
        "Ġg",
        "ather"
      ],
      [
        "Ġn",
        "at"
      ],
      [
        "Ġsa",
        "ck"
      ],
      [
        "Ġha",
        "mmer"
      ],
      [
        "Ġo",
        "pened"
      ],
      [
        "Ġth",
        "ree"
      ],
      [
        "Ġe",
        "ars"
      ],
      [
        "or",
        "s"
      ],
      [
        "Ġbe",
        "lie"
      ],
      [
        "il",
        "d"
      ],
      [
        "Ġwe",
        "althy"
      ],
      [
        "Ġwe",
        "lc"
      ],
      [
        "Ġr",
        "ain"
      ],
      [
        "Ġher",
        "self"
      ],
      [
        "ir",
        "ed"
      ],
      [
        "Ġu",
        "gly"
      ],
      [
        "Ġbu",
        "bble"
      ],
      [
        "Ġbu",
        "ild"
      ],
      [
        "ve",
        "s"
      ],
      [
        "Ġst",
        "uck"
      ],
      [
        "Ġyou",
        "ng"
      ],
      [
        "ck",
        "lace"
      ],
      [
        "Ġsh",
        "ore"
      ],
      [
        "Ġsm",
        "ile"
      ],
      [
        "Ġfriend",
        "ly"
      ],
      [
        "Ġne",
        "cklace"
      ],
      [
        "Ġli",
        "zz"
      ],
      [
        "Ġre",
        "c"
      ],
      [
        "Ġre",
        "ind"
      ],
      [
        "Ġre",
        "spect"
      ],
      [
        "Ġwh",
        "ite"
      ],
      [
        "Ġsp",
        "id"
      ],
      [
        "Ġhelp",
        "ing"
      ],
      [
        "Ġhelp",
        "ful"
      ],
      [
        "Ġat",
        "e"
      ],
      [
        "Ġle",
        "ss"
      ],
      [
        "?\"",
        "."
      ],
      [
        "Ġbr",
        "other"
      ],
      [
        "Ġag",
        "reed"
      ],
      [
        "Ġal",
        "ong"
      ],
      [
        "Ġal",
        "ert"
      ],
      [
        "Ġevery",
        "where"
      ],
      [
        "Ġtree",
        "s"
      ],
      [
        "Ġwor",
        "k"
      ],
      [
        "Ġwor",
        "ked"
      ],
      [
        "Ġcl",
        "apped"
      ],
      [
        "Ġpo",
        "l"
      ],
      [
        "Ġpo",
        "in"
      ],
      [
        "Ġch",
        "ain"
      ],
      [
        "Ġco",
        "bwe"
      ],
      [
        "Ġgr",
        "ow"
      ],
      [
        "Ġgr",
        "ass"
      ],
      [
        "Ġpr",
        "o"
      ],
      [
        "Ġno",
        "dd"
      ],
      [
        "op",
        "le"
      ],
      [
        "Ġab",
        "le"
      ],
      [
        "Ġbl",
        "ack"
      ],
      [
        "Ġbl",
        "ue"
      ],
      [
        "Ġstr",
        "ong"
      ],
      [
        "Ġstr",
        "aw"
      ],
      [
        "Ġbug",
        "s"
      ],
      [
        "Ġkne",
        "e"
      ],
      [
        "Ġsn",
        "ail"
      ],
      [
        "Ġsc",
        "ary"
      ],
      [
        "Ġpic",
        "t"
      ],
      [
        "Ġmi",
        "x"
      ],
      [
        "ang",
        "le"
      ],
      [
        "Ġclo",
        "se"
      ],
      [
        "Ġtri",
        "angle"
      ],
      [
        "Ġz",
        "ip"
      ],
      [
        "Ġlong",
        "er"
      ],
      [
        "Ġflu",
        "te"
      ],
      [
        "Ġv",
        "oice"
      ],
      [
        "Ġhug",
        "ged"
      ],
      [
        "wh",
        "y"
      ],
      [
        "Ġsl",
        "ide"
      ],
      [
        "Ġany",
        "more"
      ],
      [
        "Ġspe",
        "nt"
      ],
      [
        "Ġmag",
        "net"
      ],
      [
        "Ġar",
        "row"
      ],
      [
        "Ġdre",
        "w"
      ],
      [
        "Ġhand",
        "s"
      ],
      [
        "Ġtast",
        "ed"
      ],
      [
        "Ġball",
        "oon"
      ],
      [
        "Ġpe",
        "ople"
      ],
      [
        "Ġhair",
        "cu"
      ],
      [
        "pe",
        "at"
      ],
      [
        "Ġwin",
        "e"
      ],
      [
        "Ġcle",
        "an"
      ],
      [
        "Ġtur",
        "ned"
      ],
      [
        "Ġdel",
        "ic"
      ],
      [
        "Ġthin",
        "k"
      ],
      [
        "Ġmagic",
        "al"
      ],
      [
        "de",
        "st"
      ],
      [
        "jo",
        "y"
      ],
      [
        "Ġbar",
        "ber"
      ],
      [
        "Ġlist",
        "ened"
      ],
      [
        "Ġche",
        "wed"
      ],
      [
        "Ġmor",
        "al"
      ],
      [
        "Ġremember",
        "ed"
      ],
      [
        "Ġfollow",
        "ed"
      ],
      [
        "Ġfan",
        "cy"
      ],
      [
        "Ġfill",
        "ed"
      ],
      [
        "Ġhur",
        "t"
      ],
      [
        "Ġmo",
        "dest"
      ],
      [
        "Ġbeg",
        "an"
      ],
      [
        "Ġbeh",
        "ind"
      ],
      [
        "Ġsto",
        "pped"
      ],
      [
        "Ġsme",
        "lly"
      ],
      [
        "Ġspr",
        "ay"
      ],
      [
        "Ġprin",
        "t"
      ],
      [
        "hell",
        "o"
      ],
      [
        "Ġsis",
        "ter"
      ],
      [
        "Ġwil",
        "bur"
      ],
      [
        "Ġlat",
        "er"
      ],
      [
        "Ġmil",
        "k"
      ],
      [
        "Ġmidd",
        "le"
      ],
      [
        "Ġnat",
        "ure"
      ],
      [
        "Ġbelie",
        "ve"
      ],
      [
        "Ġlizz",
        "ie"
      ],
      [
        "Ġreind",
        "eer"
      ],
      [
        "Ġcobwe",
        "b"
      ],
      [
        "Ġnodd",
        "ed"
      ],
      [
        "Ġstraw",
        "ber"
      ],
      [
        "Ġhaircu",
        "t"
      ],
      [
        "\"",
        "."
      ],
      [
        "'",
        "re"
      ],
      [
        "a",
        "ir"
      ],
      [
        "b",
        "o"
      ],
      [
        "b",
        "r"
      ],
      [
        "b",
        "ar"
      ],
      [
        "c",
        "ed"
      ],
      [
        "c",
        "age"
      ],
      [
        "c",
        "ient"
      ],
      [
        "e",
        "le"
      ],
      [
        "e",
        "ared"
      ],
      [
        "g",
        "ry"
      ],
      [
        "g",
        "ust"
      ],
      [
        "i",
        "o"
      ],
      [
        "i",
        "er"
      ],
      [
        "i",
        "on"
      ],
      [
        "i",
        "et"
      ],
      [
        "l",
        "u"
      ],
      [
        "l",
        "se"
      ],
      [
        "l",
        "iver"
      ],
      [
        "l",
        "ves"
      ],
      [
        "n",
        "er"
      ],
      [
        "n",
        "iz"
      ],
      [
        "o",
        "h"
      ],
      [
        "o",
        "nd"
      ],
      [
        "r",
        "ass"
      ],
      [
        "u",
        "l"
      ],
      [
        "u",
        "ally"
      ],
      [
        "v",
        "ice"
      ],
      [
        "v",
        "ail"
      ],
      [
        "w",
        "ard"
      ],
      [
        "y",
        "ard"
      ],
      [
        "Ġt",
        "al"
      ],
      [
        "Ġt",
        "all"
      ],
      [
        "Ġt",
        "alk"
      ],
      [
        "Ġt",
        "ired"
      ],
      [
        "Ġa",
        "vail"
      ],
      [
        "Ġs",
        "il"
      ],
      [
        "Ġs",
        "ig"
      ],
      [
        "Ġs",
        "ide"
      ],
      [
        "Ġw",
        "om"
      ],
      [
        "Ġw",
        "ore"
      ],
      [
        "Ġw",
        "ise"
      ],
      [
        "Ġw",
        "ip"
      ],
      [
        "Ġb",
        "it"
      ],
      [
        "Ġto",
        "p"
      ],
      [
        "Ġto",
        "ug"
      ],
      [
        "in",
        "ed"
      ],
      [
        "in",
        "ing"
      ],
      [
        "in",
        "ner"
      ],
      [
        "Ġf",
        "it"
      ],
      [
        "Ġf",
        "ake"
      ],
      [
        "Ġf",
        "ac"
      ],
      [
        "Ġh",
        "id"
      ],
      [
        "Ġh",
        "or"
      ],
      [
        "Ġh",
        "ot"
      ],
      [
        "Ġh",
        "ig"
      ],
      [
        "Ġh",
        "um"
      ],
      [
        "Ġh",
        "ill"
      ],
      [
        "Ġh",
        "igh"
      ],
      [
        "Ġwa",
        "g"
      ],
      [
        "re",
        "peat"
      ],
      [
        "Ġl",
        "un"
      ],
      [
        "Ġl",
        "ight"
      ],
      [
        "Ġl",
        "ate"
      ],
      [
        "Ġl",
        "and"
      ],
      [
        "Ġhe",
        "ad"
      ],
      [
        "Ġc",
        "ake"
      ],
      [
        "Ġc",
        "reat"
      ],
      [
        "Ġc",
        "ele"
      ],
      [
        "Ġp",
        "ot"
      ],
      [
        "Ġd",
        "an"
      ],
      [
        "Ġd",
        "ri"
      ],
      [
        "Ġd",
        "ist"
      ],
      [
        "Ġd",
        "uck"
      ],
      [
        "Ġd",
        "inner"
      ],
      [
        "Ġm",
        "ay"
      ],
      [
        "Ġm",
        "is"
      ],
      [
        "Ġg",
        "i"
      ],
      [
        "Ġg",
        "ar"
      ],
      [
        "Ġg",
        "un"
      ],
      [
        "im",
        "b"
      ],
      [
        "im",
        "es"
      ],
      [
        "Ġsa",
        "t"
      ],
      [
        "Ġsa",
        "iled"
      ],
      [
        "le",
        "s"
      ],
      [
        "Ġo",
        "liver"
      ],
      [
        "nt",
        "ually"
      ],
      [
        "Ġe",
        "ar"
      ],
      [
        "Ġe",
        "lse"
      ],
      [
        "Ġin",
        "st"
      ],
      [
        "ver",
        "ed"
      ],
      [
        "ce",
        "ive"
      ],
      [
        "Ġr",
        "u"
      ],
      [
        "Ġr",
        "ad"
      ],
      [
        "Ġu",
        "sed"
      ],
      [
        "Ġbu",
        "s"
      ],
      [
        "Ġbu",
        "y"
      ],
      [
        "Ġpl",
        "an"
      ],
      [
        "Ġpl",
        "ant"
      ],
      [
        "Ġpl",
        "ate"
      ],
      [
        "pp",
        "eared"
      ],
      [
        "Ġwith",
        "out"
      ],
      [
        "ve",
        "nt"
      ],
      [
        "Ġst",
        "ay"
      ],
      [
        "Ġst",
        "and"
      ],
      [
        "Ġst",
        "ret"
      ],
      [
        "ad",
        "ow"
      ],
      [
        "Ġsh",
        "aring"
      ],
      [
        "Ġi",
        "cy"
      ],
      [
        "Ġfor",
        "th"
      ],
      [
        "Ġk",
        "is"
      ],
      [
        "Ġre",
        "lie"
      ],
      [
        "Ġre",
        "ceive"
      ],
      [
        "Ġan",
        "cient"
      ],
      [
        "âĤ¬",
        "."
      ],
      [
        "Ġsp",
        "oon"
      ],
      [
        "Ġsu",
        "per"
      ],
      [
        "Ġloo",
        "king"
      ],
      [
        "Ġwhe",
        "re"
      ],
      [
        "ard",
        "s"
      ],
      [
        "Ġle",
        "nd"
      ],
      [
        "Ġle",
        "ft"
      ],
      [
        "Ġmu",
        "d"
      ],
      [
        "Ġse",
        "a"
      ],
      [
        "Ġsomet",
        "imes"
      ],
      [
        "Ġbr",
        "ight"
      ],
      [
        "Ġal",
        "one"
      ],
      [
        "Ġpu",
        "dd"
      ],
      [
        "Ġdo",
        "or"
      ],
      [
        "Ġdo",
        "es"
      ],
      [
        "Ġwor",
        "ld"
      ],
      [
        "Ġwor",
        "ried"
      ],
      [
        "Ġback",
        "yard"
      ],
      [
        "Ġcl",
        "imb"
      ],
      [
        "Ġch",
        "ore"
      ],
      [
        "Ġbird",
        "cage"
      ],
      [
        "Ġco",
        "vered"
      ],
      [
        "Ġgr",
        "ant"
      ],
      [
        "Ġno",
        "ise"
      ],
      [
        "Ġget",
        "ting"
      ],
      [
        "Ġqu",
        "iet"
      ],
      [
        "Ġsee",
        "med"
      ],
      [
        "Ġsam",
        "e"
      ],
      [
        "Ġme",
        "et"
      ],
      [
        "Ġme",
        "adow"
      ],
      [
        "Ġjo",
        "b"
      ],
      [
        "Ġjo",
        "hn"
      ],
      [
        "Ġlet",
        "a"
      ],
      [
        "Ġlaug",
        "hing"
      ],
      [
        "Ġfin",
        "e"
      ],
      [
        "Ġshow",
        "ing"
      ],
      [
        "Ġbot",
        "t"
      ],
      [
        "Ġcr",
        "aw"
      ],
      [
        "Ġgre",
        "at"
      ],
      [
        "Ġz",
        "i"
      ],
      [
        "Ġmy",
        "ster"
      ],
      [
        "Ġem",
        "bar"
      ],
      [
        "ble",
        "m"
      ],
      [
        "Ġcher",
        "ries"
      ],
      [
        "Ġlook",
        "s"
      ],
      [
        "Ġtry",
        "ing"
      ],
      [
        "Ġtr",
        "ou"
      ],
      [
        "Ġtr",
        "uck"
      ],
      [
        "Ġtr",
        "ue"
      ],
      [
        "Ġad",
        "m"
      ],
      [
        "Ġad",
        "vice"
      ],
      [
        "Ġad",
        "vent"
      ],
      [
        "Ġany",
        "thing"
      ],
      [
        "Ġtow",
        "ards"
      ],
      [
        "Ġfo",
        "x"
      ],
      [
        "Ġwat",
        "ch"
      ],
      [
        "Ġeve",
        "ntually"
      ],
      [
        "Ġro",
        "ll"
      ],
      [
        "Ġro",
        "ad"
      ],
      [
        "Ġen",
        "ough"
      ],
      [
        "Ġen",
        "joy"
      ],
      [
        "Ġunder",
        "st"
      ],
      [
        "Ġgrace",
        "ful"
      ],
      [
        "og",
        "niz"
      ],
      [
        "Ġwis",
        "hed"
      ],
      [
        "Ġwind",
        "ow"
      ],
      [
        "Ġdis",
        "gust"
      ],
      [
        "Ġslow",
        "ly"
      ],
      [
        "Ġtur",
        "n"
      ],
      [
        "Ġpus",
        "hing"
      ],
      [
        "Ġpus",
        "hed"
      ],
      [
        "Ġcol",
        "or"
      ],
      [
        "Ġsw",
        "im"
      ],
      [
        "Ġsec",
        "ond"
      ],
      [
        "Ġpat",
        "h"
      ],
      [
        "Ġye",
        "ars"
      ],
      [
        "Ġsear",
        "ch"
      ],
      [
        "Ġneighb",
        "ors"
      ],
      [
        "Ġcount",
        "ry"
      ],
      [
        "Ġrec",
        "ogniz"
      ],
      [
        "Ġless",
        "on"
      ],
      [
        "Ġpol",
        "ite"
      ],
      [
        "Ġpro",
        "blem"
      ],
      [
        "Ġpict",
        "ures"
      ],
      [
        "rass",
        "ed"
      ],
      [
        "Ġavail",
        "able"
      ],
      [
        "Ġsil",
        "ver"
      ],
      [
        "Ġsig",
        "n"
      ],
      [
        "Ġwom",
        "an"
      ],
      [
        "Ġtoug",
        "h"
      ],
      [
        "Ġhig",
        "her"
      ],
      [
        "Ġlun",
        "ch"
      ],
      [
        "Ġcele",
        "br"
      ],
      [
        "Ġgar",
        "age"
      ],
      [
        "Ġrad",
        "io"
      ],
      [
        "Ġplant",
        "s"
      ],
      [
        "Ġstand",
        "ing"
      ],
      [
        "Ġstret",
        "ch"
      ],
      [
        "Ġmyster",
        "ious"
      ],
      [
        "Ġembar",
        "rassed"
      ],
      [
        "Ġdisgust",
        "ing"
      ],
      [
        "a",
        "f"
      ],
      [
        "a",
        "ked"
      ],
      [
        "a",
        "ight"
      ],
      [
        "a",
        "sed"
      ],
      [
        "a",
        "ppeared"
      ],
      [
        "b",
        "ow"
      ],
      [
        "b",
        "led"
      ],
      [
        "c",
        "et"
      ],
      [
        "c",
        "ked"
      ],
      [
        "c",
        "ape"
      ],
      [
        "e",
        "e"
      ],
      [
        "e",
        "st"
      ],
      [
        "e",
        "ad"
      ],
      [
        "f",
        "it"
      ],
      [
        "f",
        "le"
      ],
      [
        "f",
        "ish"
      ],
      [
        "f",
        "ort"
      ],
      [
        "g",
        "y"
      ],
      [
        "g",
        "er"
      ],
      [
        "g",
        "ot"
      ],
      [
        "g",
        "um"
      ],
      [
        "g",
        "led"
      ],
      [
        "i",
        "f"
      ],
      [
        "i",
        "qu"
      ],
      [
        "i",
        "ble"
      ],
      [
        "k",
        "s"
      ],
      [
        "k",
        "ay"
      ],
      [
        "l",
        "ing"
      ],
      [
        "l",
        "ook"
      ],
      [
        "m",
        "s"
      ],
      [
        "m",
        "ing"
      ],
      [
        "n",
        "ow"
      ],
      [
        "n",
        "ce"
      ],
      [
        "n",
        "ot"
      ],
      [
        "n",
        "ess"
      ],
      [
        "o",
        "f"
      ],
      [
        "o",
        "cked"
      ],
      [
        "p",
        "ed"
      ],
      [
        "r",
        "u"
      ],
      [
        "s",
        "ure"
      ],
      [
        "s",
        "cape"
      ],
      [
        "t",
        "r"
      ],
      [
        "t",
        "he"
      ],
      [
        "t",
        "im"
      ],
      [
        "t",
        "ur"
      ],
      [
        "v",
        "ous"
      ],
      [
        "w",
        "ow"
      ],
      [
        "x",
        "ible"
      ],
      [
        "z",
        "y"
      ],
      [
        "Ġ",
        "Ġ"
      ],
      [
        "Ġ",
        "ĠčĊ"
      ],
      [
        "Ġt",
        "ick"
      ],
      [
        "Ġt",
        "able"
      ],
      [
        "Ġt",
        "reat"
      ],
      [
        "he",
        "ad"
      ],
      [
        "he",
        "lp"
      ],
      [
        "Ġa",
        "head"
      ],
      [
        "Ġs",
        "ay"
      ],
      [
        "Ġs",
        "le"
      ],
      [
        "Ġs",
        "itt"
      ],
      [
        "Ġs",
        "el"
      ],
      [
        "Ġs",
        "ep"
      ],
      [
        "Ġs",
        "ick"
      ],
      [
        "Ġw",
        "on"
      ],
      [
        "Ġw",
        "ing"
      ],
      [
        "Ġb",
        "le"
      ],
      [
        "Ġb",
        "ow"
      ],
      [
        "Ġb",
        "ab"
      ],
      [
        "Ġb",
        "ag"
      ],
      [
        "Ġb",
        "ite"
      ],
      [
        "in",
        "al"
      ],
      [
        "Ġand",
        "y"
      ],
      [
        "Ġf",
        "au"
      ],
      [
        "Ġh",
        "ar"
      ],
      [
        "Ġh",
        "un"
      ],
      [
        "Ġh",
        "idd"
      ],
      [
        "Ġwa",
        "ved"
      ],
      [
        "re",
        "et"
      ],
      [
        "re",
        "ad"
      ],
      [
        "Ġhe",
        "ld"
      ],
      [
        "er",
        "ed"
      ],
      [
        "er",
        "ous"
      ],
      [
        "er",
        "vous"
      ],
      [
        "Ġc",
        "ry"
      ],
      [
        "Ġc",
        "au"
      ],
      [
        "Ġc",
        "our"
      ],
      [
        "Ġc",
        "aw"
      ],
      [
        "Ġc",
        "ook"
      ],
      [
        "Ġp",
        "a"
      ],
      [
        "Ġp",
        "ile"
      ],
      [
        "Ġwas",
        "n"
      ],
      [
        "Ġd",
        "ang"
      ],
      [
        "Ġd",
        "iz"
      ],
      [
        "Ġm",
        "ight"
      ],
      [
        "Ġm",
        "ount"
      ],
      [
        "Ġm",
        "ess"
      ],
      [
        "Ġm",
        "aking"
      ],
      [
        "Ġg",
        "e"
      ],
      [
        "Ġg",
        "u"
      ],
      [
        "Ġg",
        "ig"
      ],
      [
        "Ġg",
        "as"
      ],
      [
        "ar",
        "p"
      ],
      [
        "is",
        "ted"
      ],
      [
        "Ġn",
        "ervous"
      ],
      [
        "Ġsa",
        "nd"
      ],
      [
        "Ġsa",
        "il"
      ],
      [
        "at",
        "ed"
      ],
      [
        "Ġshe",
        "ll"
      ],
      [
        "Ġshe",
        "lves"
      ],
      [
        "le",
        "ss"
      ],
      [
        "Ġo",
        "bed"
      ],
      [
        "Ġo",
        "kay"
      ],
      [
        "Ġth",
        "irst"
      ],
      [
        "Ġe",
        "as"
      ],
      [
        "Ġe",
        "scape"
      ],
      [
        "or",
        "able"
      ],
      [
        "Ġin",
        "v"
      ],
      [
        "Ġin",
        "ter"
      ],
      [
        "ow",
        "ed"
      ],
      [
        "Ġbe",
        "l"
      ],
      [
        "Ġwe",
        "ep"
      ],
      [
        "Ġwe",
        "alth"
      ],
      [
        "ce",
        "ss"
      ],
      [
        "st",
        "ing"
      ],
      [
        "Ġr",
        "ot"
      ],
      [
        "Ġr",
        "iver"
      ],
      [
        "Ġr",
        "aked"
      ],
      [
        "ie",
        "st"
      ],
      [
        "Ġon",
        "ce"
      ],
      [
        "ig",
        "inal"
      ],
      [
        "Ġu",
        "s"
      ],
      [
        "Ġbu",
        "cket"
      ],
      [
        "Ġfr",
        "ight"
      ],
      [
        "Ġst",
        "one"
      ],
      [
        "Ġst",
        "reet"
      ],
      [
        "Ġj",
        "ug"
      ],
      [
        "Ġhapp",
        "en"
      ],
      [
        "Ġsh",
        "ining"
      ],
      [
        "Ġsh",
        "arp"
      ],
      [
        "Ġsm",
        "oke"
      ],
      [
        "Ġbig",
        "ger"
      ],
      [
        "Ġfor",
        "got"
      ],
      [
        "Ġre",
        "ad"
      ],
      [
        "Ġre",
        "ward"
      ],
      [
        "Ġre",
        "fle"
      ],
      [
        "Ġre",
        "tur"
      ],
      [
        "Ġwant",
        "s"
      ],
      [
        "Ġsp",
        "read"
      ],
      [
        "Ġnot",
        "hing"
      ],
      [
        "Ġsu",
        "ch"
      ],
      [
        "ide",
        "o"
      ],
      [
        "ic",
        "ul"
      ],
      [
        "!\"",
        ","
      ],
      [
        "!\"",
        "."
      ],
      [
        "fu",
        "sed"
      ],
      [
        "Ġle",
        "g"
      ],
      [
        "Ġmu",
        "g"
      ],
      [
        "ark",
        "et"
      ],
      [
        "Ġse",
        "w"
      ],
      [
        "Ġse",
        "nt"
      ],
      [
        "Ġgo",
        "al"
      ],
      [
        "Ġbr",
        "ing"
      ],
      [
        "Ġbr",
        "an"
      ],
      [
        "Ġag",
        "ree"
      ],
      [
        "Ġcan",
        "not"
      ],
      [
        "Ġpu",
        "rp"
      ],
      [
        "Ġdo",
        "ing"
      ],
      [
        "ag",
        "er"
      ],
      [
        "ag",
        "reed"
      ],
      [
        "Ġwor",
        "king"
      ],
      [
        "Ġcl",
        "ot"
      ],
      [
        "pl",
        "ace"
      ],
      [
        "Ġis",
        "n"
      ],
      [
        "Ġco",
        "at"
      ],
      [
        "Ġfe",
        "ar"
      ],
      [
        "Ġno",
        "sy"
      ],
      [
        "Ġno",
        "bo"
      ],
      [
        "ur",
        "ed"
      ],
      [
        "ur",
        "bed"
      ],
      [
        "Åĵ",
        "yes"
      ],
      [
        "Åĵ",
        "let"
      ],
      [
        "Åĵ",
        "thank"
      ],
      [
        "Åĵ",
        "hi"
      ],
      [
        "Åĵ",
        "can"
      ],
      [
        "Åĵ",
        "oh"
      ],
      [
        "Ġexcited",
        "ly"
      ],
      [
        "Ġwar",
        "ned"
      ],
      [
        "Ġwar",
        "ning"
      ],
      [
        "Ġstr",
        "ing"
      ],
      [
        "Ġstr",
        "aight"
      ],
      [
        "Ġsee",
        "k"
      ],
      [
        "Ġwal",
        "k"
      ],
      [
        "our",
        "ite"
      ],
      [
        "Ġcare",
        "less"
      ],
      [
        "ac",
        "her"
      ],
      [
        "Ġlu",
        "lu"
      ],
      [
        "Ġmake",
        "s"
      ],
      [
        "Ġjo",
        "in"
      ],
      [
        "Ġsn",
        "ee"
      ],
      [
        "Ġlaug",
        "h"
      ],
      [
        "Ġtw",
        "ist"
      ],
      [
        "Ġtw",
        "isted"
      ],
      [
        "Ġsc",
        "re"
      ],
      [
        "Ġfin",
        "ally"
      ],
      [
        "Ġint",
        "ere"
      ],
      [
        "Ġcouldn",
        "a"
      ],
      [
        "Ġlear",
        "nt"
      ],
      [
        "Ġcr",
        "ow"
      ],
      [
        "we",
        "ll"
      ],
      [
        "we",
        "en"
      ],
      [
        "Ġclo",
        "sed"
      ],
      [
        "Ġv",
        "ideo"
      ],
      [
        "Ġgame",
        "s"
      ],
      [
        "Ġbet",
        "ween"
      ],
      [
        "Ġway",
        "s"
      ],
      [
        "Ġ1",
        "0"
      ],
      [
        "Ġtr",
        "ust"
      ],
      [
        "Ġad",
        "orable"
      ],
      [
        "Ġwait",
        "ing"
      ],
      [
        "Ġde",
        "af"
      ],
      [
        "Ġdon",
        "a"
      ],
      [
        "Ġfo",
        "ot"
      ],
      [
        "Ġwat",
        "ching"
      ],
      [
        "me",
        "ow"
      ],
      [
        "Ġte",
        "ll"
      ],
      [
        "Ġte",
        "st"
      ],
      [
        "Ġte",
        "ach"
      ],
      [
        "Ġte",
        "acher"
      ],
      [
        "Ġfar",
        "m"
      ],
      [
        "Ġhand",
        "ed"
      ],
      [
        "Ġstor",
        "ies"
      ],
      [
        "Ġstrang",
        "ers"
      ],
      [
        "Ġamaz",
        "ed"
      ],
      [
        "Ġwonder",
        "ed"
      ],
      [
        "Ġsurpr",
        "ised"
      ],
      [
        "Ġfle",
        "xible"
      ],
      [
        "Ġpe",
        "e"
      ],
      [
        "Ġpe",
        "ace"
      ],
      [
        "Ġper",
        "m"
      ],
      [
        "Ġdiff",
        "icul"
      ],
      [
        "Ġrealiz",
        "e"
      ],
      [
        "Ġsound",
        "s"
      ],
      [
        "Ġhard",
        "er"
      ],
      [
        "Ġcle",
        "aring"
      ],
      [
        "Ġdis",
        "appeared"
      ],
      [
        "Ġdis",
        "agreed"
      ],
      [
        "Ġdream",
        "s"
      ],
      [
        "Ġrac",
        "ed"
      ],
      [
        "Ġste",
        "al"
      ],
      [
        "Ġjimmy",
        "a"
      ],
      [
        "ct",
        "ive"
      ],
      [
        "Ġim",
        "ag"
      ],
      [
        "Ġtou",
        "ched"
      ],
      [
        "Ġfav",
        "ourite"
      ],
      [
        "Ġdr",
        "ank"
      ],
      [
        "Ġdel",
        "ight"
      ],
      [
        "Ġbar",
        "ked"
      ],
      [
        "Ġlist",
        "en"
      ],
      [
        "Ġmor",
        "ning"
      ],
      [
        "Ġgive",
        "n"
      ],
      [
        "Ġor",
        "iginal"
      ],
      [
        "Ġun",
        "iqu"
      ],
      [
        "Ġlove",
        "ly"
      ],
      [
        "Ġcol",
        "our"
      ],
      [
        "Ġown",
        "er"
      ],
      [
        "Ġsw",
        "am"
      ],
      [
        "Ġsec",
        "ret"
      ],
      [
        "Ġfall",
        "ing"
      ],
      [
        "Ġfree",
        "ze"
      ],
      [
        "Ġmat",
        "ching"
      ],
      [
        "Ġgl",
        "ad"
      ],
      [
        "Ġlive",
        "ly"
      ],
      [
        "Ġbroke",
        "n"
      ],
      [
        "Ġexplain",
        "ing"
      ],
      [
        "Ġfix",
        "ed"
      ],
      [
        "Ġheav",
        "y"
      ],
      [
        "Ġheav",
        "ier"
      ],
      [
        "Ġgather",
        "ed"
      ],
      [
        "Ġwelc",
        "om"
      ],
      [
        "Ġwelc",
        "ome"
      ],
      [
        "Ġrain",
        "bow"
      ],
      [
        "Ġbubble",
        "gum"
      ],
      [
        "Ġspid",
        "er"
      ],
      [
        "Ġspid",
        "ers"
      ],
      [
        "Ġpoin",
        "ted"
      ],
      [
        "Ġpoin",
        "ting"
      ],
      [
        "Ġmix",
        "ed"
      ],
      [
        "Ġdelic",
        "ate"
      ],
      [
        "Ġdelic",
        "ious"
      ],
      [
        "Ġhurt",
        "s"
      ],
      [
        "Ġspray",
        "ed"
      ],
      [
        "Ġstrawber",
        "ry"
      ],
      [
        "Ġstrawber",
        "ries"
      ],
      [
        "Ġtal",
        "king"
      ],
      [
        "Ġwip",
        "e"
      ],
      [
        "Ġhum",
        "ble"
      ],
      [
        "Ġwag",
        "ged"
      ],
      [
        "Ġcreat",
        "ive"
      ],
      [
        "Ġdan",
        "ce"
      ],
      [
        "Ġdri",
        "ver"
      ],
      [
        "Ġdist",
        "urbed"
      ],
      [
        "Ġmay",
        "be"
      ],
      [
        "Ġgi",
        "ving"
      ],
      [
        "Ġinst",
        "ead"
      ],
      [
        "Ġbus",
        "hes"
      ],
      [
        "Ġkis",
        "sed"
      ],
      [
        "Ġrelie",
        "ved"
      ],
      [
        "Ġpudd",
        "le"
      ],
      [
        "Ġchore",
        "s"
      ],
      [
        "Ġgrant",
        "ed"
      ],
      [
        "Ġzi",
        "pping"
      ],
      [
        "Ġtrou",
        "bled"
      ],
      [
        "Ġadvent",
        "ures"
      ],
      [
        "Ġunderst",
        "and"
      ],
      [
        "Ġturn",
        "s"
      ],
      [
        "Ġcolor",
        "ful"
      ],
      [
        "Ġswim",
        "ming"
      ],
      [
        "Ġrecogniz",
        "ed"
      ],
      [
        "Ġcelebr",
        "ate"
      ],
      [
        "fort",
        "able"
      ],
      [
        "ru",
        "pt"
      ],
      [
        "Ġsle",
        "ep"
      ],
      [
        "Ġsitt",
        "ing"
      ],
      [
        "Ġsel",
        "fish"
      ],
      [
        "Ġsep",
        "ar"
      ],
      [
        "Ġwing",
        "s"
      ],
      [
        "Ġble",
        "w"
      ],
      [
        "Ġbab",
        "y"
      ],
      [
        "Ġfau",
        "cet"
      ],
      [
        "Ġhar",
        "sh"
      ],
      [
        "Ġhun",
        "gry"
      ],
      [
        "Ġhidd",
        "en"
      ],
      [
        "Ġcour",
        "se"
      ],
      [
        "Ġcook",
        "ies"
      ],
      [
        "Ġdang",
        "erous"
      ],
      [
        "Ġdiz",
        "zy"
      ],
      [
        "Ġmount",
        "ain"
      ],
      [
        "Ġgig",
        "gled"
      ],
      [
        "Ġgas",
        "ped"
      ],
      [
        "Ġobed",
        "ient"
      ],
      [
        "Ġthirst",
        "y"
      ],
      [
        "Ġinter",
        "rupt"
      ],
      [
        "Ġstone",
        "s"
      ],
      [
        "Ġrefle",
        "ctive"
      ],
      [
        "Ġpurp",
        "le"
      ],
      [
        "Ġnobo",
        "dy"
      ],
      [
        "Åĵlet",
        "a"
      ],
      [
        "Ġsnee",
        "ze"
      ],
      [
        "Ġtwist",
        "y"
      ],
      [
        "Ġintere",
        "sting"
      ],
      [
        "Ġdifficul",
        "t"
      ],
      [
        "Ġuniqu",
        "e"
      ]
    ]
  }
}